<unk>	0
<s>	0
</s>	0
_	-2.27362
,	-3.59391
▁	-3.85814
▁*	-3.87456
(	-3.96532
);	-4.15842
▁the	-4.17866
.	-4.38452
▁=	-4.43812
▁EST	-4.44323
▁(	-4.64605
;	-4.64694
)	-4.69613
▁/*	-4.85354
▁*/	-4.86592
▁}	-4.88747
▁{	-4.89233
s	-4.94496
▁to	-4.96242
len	-5.10841
ERR	-5.1232
▁NULL	-5.17428
▁if	-5.19372
▁"	-5.25567
▁US	-5.2678
▁est	-5.29466
▁a	-5.32491
▁CU	-5.33904
/	-5.41464
ctx	-5.5027
▁return	-5.50862
==	-5.52133
▁#	-5.53568
▁is	-5.60187
▁server	-5.63293
->	-5.64791
ASSERT	-5.64942
▁int	-5.66355
",	-5.71288
1	-5.72076
n	-5.74083
0	-5.75228
client	-5.76614
cert	-5.77114
2	-5.7919
EST	-5.82254
-	-5.82442
▁in	-5.82949
▁char	-5.85356
key	-5.87266
▁rv	-5.885
3	-5.89098
5	-5.90321
:	-5.92185
4	-5.93657
▁client	-5.95209
test	-5.96165
LOG	-5.96701
▁us	-5.9731
\	-5.99182
("	-5.99435
"	-5.9961
▁and	-5.99668
d	-6.05905
NONE	-6.08083
cacerts	-6.08914
▁of	-6.10227
c	-6.10349
rv	-6.11274
define	-6.14196
▁for	-6.1436
ectx	-6.14952
N	-6.1511
▁be	-6.17116
x	-6.17956
▁This	-6.21647
▁0	-6.23202
");	-6.24736
▁&	-6.2747
▁static	-6.28688
▁-	-6.29661
server	-6.3142
7	-6.32239
csr	-6.3233
data	-6.33344
ing	-6.3437
SERVER	-6.34772
▁key	-6.36266
CTX	-6.37035
!=	-6.37178
set	-6.38111
▁cert	-6.38654
rc	-6.41685
▁an	-6.41739
▁that	-6.43515
▁HTTP	-6.44061
▁The	-6.44325
▁E	-6.45396
t	-6.45906
US	-6.46798
HTTP	-6.48539
auth	-6.49081
▁CSR	-6.50917
h	-6.51667
▁X	-6.55299
▁used	-6.56024
CERT	-6.56142
▁|	-6.58088
▁0;	-6.59403
▁test	-6.61012
http	-6.61662
▁CA	-6.6206
509_	-6.62646
▁this	-6.62654
new	-6.63867
9	-6.64069
▁with	-6.64076
();	-6.66382
e	-6.70096
▁void	-6.70474
MAX	-6.71567
g	-6.71669
CA	-6.72486
▁ctx	-6.72592
void	-6.7289
8	-6.73716
▁not	-6.74369
▁request	-6.74704
▁0);	-6.74759
=	-6.75468
6	-6.77302
init	-6.78637
▁certificate	-6.78759
csrattrs	-6.79984
▁free	-6.80665
▁by	-6.80736
ERROR	-6.81398
est	-6.81414
▁BIO	-6.82272
'	-6.82667
▁@	-6.84134
signed	-6.85295
VP	-6.85487
▁cacerts	-6.86209
AUTH	-6.86562
NULL	-6.8673
▁function	-6.87463
jM	-6.87839
p	-6.87841
error	-6.8788
i	-6.88155
▁it	-6.88459
▁%	-6.89
get	-6.9027
▁(!	-6.91281
free	-6.9146
add	-6.91906
▁st	-6.92114
▁context	-6.9318
▁we	-6.93455
▁should	-6.9365
r	-6.93873
ssl	-6.94461
E	-6.94678
▁rc	-6.95357
b	-6.96693
proxy	-6.97291
X	-6.97748
pem	-6.97793
▁case	-7.00265
▁application	-7.00376
PROXY	-7.00678
▁authentication	-7.02006
▁on	-7.03158
pkcs	-7.03611
U	-7.04513
▁||	-7.04582
▁from	-7.04629
()	-7.0526
▁auth	-7.05948
PKEY	-7.0654
▁un	-7.06971
MDEyMzQ	-7.07305
y	-7.08854
ATTR	-7.09406
▁or	-7.10088
▁will	-7.11115
▁using	-7.12834
PORT	-7.12987
enroll	-7.13034
printf	-7.13077
894_	-7.13335
▁enroll	-7.14256
CLIENT	-7.14825
pSuite	-7.15259
ed	-7.15469
Nj	-7.15812
C	-7.15987
▁path	-7.16634
ODkwMTIzNDU	-7.16727
TY	-7.16949
▁use	-7.17388
▁SSL	-7.18139
seg	-7.19211
▁value	-7.19391
include	-7.1982
▁TLS	-7.2007
\\	-7.20168
KEY	-7.20651
893_	-7.21336
PKCS	-7.21813
in	-7.21891
REQ	-7.22031
▁as	-7.23415
Y	-7.25205
1060_	-7.25895
A	-7.26134
▁else	-7.27099
a	-7.27195
buf	-7.28047
▁when	-7.28455
10_	-7.28981
+	-7.2912
▁read	-7.30054
w	-7.30196
901_	-7.30575
▁new	-7.3071
899_	-7.31482
path	-7.31759
▁Set	-7.32074
▁proxy	-7.32279
f	-7.32295
7_	-7.334
▁//	-7.33531
private	-7.34305
[	-7.34509
▁can	-7.34547
▁csr	-7.34881
▁private	-7.35212
509	-7.35712
HDR	-7.36787
IP	-7.38731
CACERTS	-7.38957
▁response	-7.39
T	-7.39007
LEN	-7.39584
64	-7.40123
▁mode	-7.40368
▁buffer	-7.40404
NM	-7.40697
estCA	-7.40717
▁callback	-7.40836
pkey	-7.40838
▁SRP	-7.40942
zg	-7.41505
start	-7.42065
UIDPWD	-7.42074
param	-7.42288
cb	-7.42377
))	-7.42769
▁are	-7.4297
▁data	-7.43624
FUNC	-7.43704
S	-7.43984
▁PoP	-7.44437
UT	-7.46855
raw	-7.47701
l	-7.48113
INFO	-7.48791
▁S	-7.48976
AxM	-7.50069
▁>	-7.50102
R	-7.51469
PEM	-7.51702
L	-7.51797
▁set	-7.51903
TEST	-7.52207
▁certificates	-7.52559
NO	-7.52654
▁attributes	-7.52794
crt	-7.52994
v	-7.53623
if	-7.53788
▁break	-7.54789
4020_	-7.54973
OT	-7.55847
FORMAT	-7.55999
▁error	-7.56431
INVALID	-7.56629
certs	-7.56648
file	-7.57424
xM	-7.5775
request	-7.57932
BAD	-7.57987
conn	-7.58006
▁was	-7.58595
▁pkcs	-7.58858
destroy	-7.59164
▁certs	-7.6031
read	-7.606
▁[	-7.61406
RFC	-7.62042
▁user	-7.62656
▁+	-7.62859
OTA	-7.63033
▁\	-7.63488
▁no	-7.63679
▁If	-7.63954
out	-7.64694
(1);	-7.64746
pop	-7.65227
attr	-7.65609
▁curl	-7.66192
▁&&	-7.66531
endif	-7.6722
TC	-7.68095
898_	-7.69276
verify	-7.69752
o	-7.69917
▁Rea	-7.70116
igned	-7.70125
er	-7.70165
▁string	-7.71048
▁valid	-7.71192
10	-7.71267
EEP	-7.71497
▁SL	-7.71808
▁long	-7.72629
token	-7.73073
password	-7.73461
bio	-7.7357
3512_	-7.73893
cred	-7.75184
▁0)	-7.75464
>	-7.76081
▁str	-7.76334
char	-7.77139
ca	-7.77387
suite	-7.78145
GOOD	-7.78418
▁0,	-7.78468
▁token	-7.78594
def	-7.79183
▁http	-7.79621
▁while	-7.79831
mode	-7.79848
▁has	-7.80048
▁uns	-7.80119
nable	-7.80203
SSL	-7.81251
▁header	-7.81686
const	-7.82186
▁1;	-7.82785
credentials	-7.83027
retrieved	-7.83058
j	-7.83129
▁have	-7.83867
▁failed	-7.8476
TCP	-7.84895
748_	-7.85014
▁length	-7.85398
int	-7.85727
V	-7.8609
▁up	-7.86732
▁Section	-7.86775
▁TEST	-7.8737
stop	-7.87468
903_	-7.87524
I	-7.8784
▁segment	-7.87859
▁generate	-7.88007
cmd	-7.88312
u	-7.88452
▁size	-7.88522
and	-7.88924
▁PEM	-7.88949
▁suite	-7.89192
req	-7.89217
M	-7.90217
hdr	-7.90249
▁called	-7.90586
▁passed	-7.90736
O	-7.90754
▁200	-7.90805
Nz	-7.91164
▁which	-7.91559
BASIC	-7.91883
▁CURL	-7.92031
897_	-7.92306
ptr	-7.9259
G	-7.92912
▁e	-7.93615
CT	-7.93862
ly	-7.94076
chain	-7.94525
▁malloc	-7.94628
CACERT	-7.94633
enable	-7.94695
uri	-7.94753
▁priv	-7.94799
▁mg	-7.95549
ENROLL	-7.95589
▁any	-7.95679
F	-7.96143
▁ca	-7.96145
priv	-7.96425
▁i	-7.96642
segment	-7.9741
B	-7.98675
D	-7.99356
▁code	-7.99373
▁does	-7.9992
▁p	-8.0023
H	-8.00515
▁MUST	-8.01011
manual	-8.0135
POP	-8.01874
▁C	-8.02195
port	-8.02252
1005_	-8.02637
URL	-8.02637
BIO	-8.03285
▁out	-8.03313
curl	-8.0338
err	-8.04004
der	-8.04566
▁1);	-8.06
CUnit	-8.06047
▁W	-8.06086
NT	-8.0613
▁then	-8.06145
k	-8.06464
▁conn	-8.06732
re	-8.07684
]	-8.07833
▁const	-8.07956
▁OpenSSL	-8.0802
binary	-8.08125
cacert	-8.09209
estserver	-8.09388
1159_	-8.10247
▁PKCS	-8.10478
IN	-8.1086
P	-8.11034
▁provided	-8.11358
▁system	-8.1152
str	-8.11621
▁check	-8.11971
▁file	-8.11994
▁operation	-8.12395
z	-8.13153
TOKEN	-8.13192
▁must	-8.13453
q	-8.14244
estuser	-8.14624
W	-8.14748
▁len	-8.15215
2174_	-8.15297
name	-8.15466
▁Client	-8.16395
1_	-8.17044
▁ectx	-8.1708
▁pointer	-8.17144
▁AUTH	-8.17345
32	-8.17385
▁base	-8.17814
estpwd	-8.17902
Q	-8.18488
sock	-8.18961
▁address	-8.19002
▁following	-8.19012
▁API	-8.19028
m	-8.19093
▁encoded	-8.192
▁layer	-8.20427
▁provide	-8.20436
Z	-8.20462
openssl	-8.2129
API	-8.21297
▁time	-8.2134
st	-8.21356
LIB	-8.21425
send	-8.21472
strnlen	-8.2168
CERTKEY	-8.21728
▁Point	-8.21897
▁c	-8.22271
PUBKEY	-8.22549
logger	-8.22605
TH	-8.22828
stderr	-8.23781
(&	-8.24145
▁retrieved	-8.25084
▁chain	-8.25138
▁RSA	-8.25227
!	-8.25237
MD	-8.25305
▁sizeof	-8.25745
CERTS	-8.26547
▁*)	-8.26675
J	-8.26701
K	-8.26911
▁cur	-8.27011
▁We	-8.28106
jc	-8.28113
easy	-8.2884
▁credentials	-8.29015
▁simple	-8.29057
▁fail	-8.29551
▁get	-8.29636
PWD	-8.30092
▁id	-8.30176
1883_	-8.30271
3496_	-8.30344
▁password	-8.30482
Error	-8.31558
▁enrollment	-8.31592
▁all	-8.32341
▁into	-8.32809
▁include	-8.33227
%	-8.33322
▁Simple	-8.34746
▁perform	-8.35553
▁been	-8.35644
▁default	-8.36237
return	-8.36604
▁nid	-8.36636
TO	-8.3672
▁tests	-8.3677
▁openssl	-8.36981
errors	-8.37774
*	-8.38218
handle	-8.38223
▁s	-8.38369
▁ossl	-8.38679
▁enabled	-8.38834
NAME	-8.39695
▁;	-8.39778
UID	-8.39911
▁A	-8.40198
▁contains	-8.402
▁t	-8.40463
];	-8.40637
cw	-8.40922
▁respond	-8.40948
▁ma	-8.41108
WARN	-8.41145
post	-8.41166
of	-8.41249
▁library	-8.41275
▁but	-8.41364
▁parameters	-8.41573
cur	-8.41653
▁required	-8.41726
----------------	-8.42111
addr	-8.42593
▁invalid	-8.42773
*)	-8.43434
▁specified	-8.44181
▁verify	-8.44395
▁name	-8.45007
hallengePassword	-8.45508
ah	-8.46022
type	-8.46204
size	-8.46298
ASN	-8.46484
CN	-8.47082
NOT	-8.47106
registry	-8.47176
▁uses	-8.47301
▁It	-8.47341
ex	-8.4768
}	-8.47696
copy	-8.47839
PA	-8.48118
▁f	-8.48193
▁CLIENT	-8.48358
3612_	-8.48598
▁sure	-8.4878
▁do	-8.48867
TLS	-8.48994
value	-8.49337
mp	-8.49421
after	-8.49451
▁ASN	-8.49482
▁realm	-8.49669
▁cases	-8.50113
▁hdr	-8.50128
end	-8.50287
FAIL	-8.50309
EXPLICIT	-8.50311
▁re	-8.50842
▁mem	-8.50876
▁Re	-8.50934
▁safe	-8.50994
▁call	-8.50999
▁Test	-8.51007
▁/	-8.51137
▁at	-8.51609
▁HA	-8.51739
\0"	-8.51955
▁digest	-8.52024
▁one	-8.5216
▁only	-8.52338
▁body	-8.52715
▁routine	-8.53584
▁pass	-8.53626
▁configured	-8.53649
▁Get	-8.53663
▁retry	-8.53924
mem	-8.54411
list	-8.54459
cleanup	-8.54466
BA	-8.54525
▁message	-8.54649
fp	-8.55459
▁structure	-8.5554
▁socket	-8.55683
▁allocate	-8.56013
▁'	-8.57457
user	-8.57472
▁send	-8.57667
▁manual	-8.57719
▁need	-8.57927
▁libEST	-8.587
▁"",	-8.58787
▁content	-8.58875
▁**	-8.59428
un	-8.59715
▁pSuite	-8.59908
▁add	-8.60289
PARAMETERS	-8.60404
▁session	-8.60919
pwd	-8.61318
▁result	-8.61621
print	-8.62335
▁Server	-8.62625
▁NID	-8.63162
certin	-8.63235
▁match	-8.63286
▁format	-8.63464
dump	-8.63465
▁database	-8.64084
mdctx	-8.64391
ince	-8.64592
all	-8.64895
CSR	-8.65019
▁max	-8.65576
IG	-8.65658
srp	-8.65925
▁disabled	-8.65994
snprintf	-8.6601
MA	-8.66121
1864_	-8.66384
ri	-8.67103
zero	-8.67202
▁w	-8.67469
TRUST	-8.67742
OFF	-8.67767
▁containing	-8.67885
SOCKS	-8.68219
▁ret	-8.68223
▁struct	-8.68226
[0]	-8.68826
▁basic	-8.68894
store	-8.69123
struct	-8.69204
REQUIRE	-8.69627
MENT	-8.69635
▁T	-8.69823
(*	-8.69976
ef	-8.70334
keyin	-8.70671
▁RFC	-8.70833
▁Basic	-8.70857
info	-8.71014
Example	-8.7163
MISMATCH	-8.7163
].	-8.71636
trustedcerts	-8.71667
cnf	-8.71713
VE	-8.71741
▁TA	-8.71791
▁specific	-8.71927
us	-8.7233
▁"%	-8.72449
▁buf	-8.725
simple	-8.73027
▁cipher	-8.73082
strnc	-8.73351
to	-8.73454
▁returned	-8.73527
enrolled	-8.73586
▁Use	-8.73606
▁so	-8.73946
rsa	-8.7425
▁al	-8.74269
parse	-8.74488
Digest	-8.75254
retry	-8.75269
SEGMENT	-8.75607
DIGEST	-8.75675
▁strncpy	-8.75688
▁setting	-8.75737
▁sent	-8.7605
▁identity	-8.76103
▁port	-8.76767
else	-8.77323
connection	-8.77376
RSA	-8.77392
SUCCESS	-8.77754
FQDN	-8.77763
▁information	-8.77774
▁since	-8.77823
▁back	-8.77965
▁type	-8.78205
▁ssl	-8.78251
header	-8.78782
base	-8.79189
---------------	-8.79575
uid	-8.79699
▁being	-8.79765
▁other	-8.79917
▁here	-8.80038
▁attempts	-8.80527
string	-8.81106
▁values	-8.81125
▁In	-8.81332
▁Enroll	-8.81487
"\	-8.81929
outfile	-8.8196
less	-8.82228
▁successful	-8.82299
▁support	-8.8256
▁these	-8.82919
▁M	-8.83128
cn	-8.83227
reate	-8.83486
format	-8.84006
write	-8.84055
found	-8.84056
▁expect	-8.84132
MALLOC	-8.84282
▁When	-8.84292
▁failure	-8.84295
▁existing	-8.84309
▁approve	-8.84344
▁found	-8.84512
▁reenroll	-8.84517
▁P	-8.84556
SIGN	-8.8456
▁Attributes	-8.84607
▁store	-8.84694
▁Digest	-8.84734
▁hostname	-8.84923
▁public	-8.85005
▁Content	-8.8554
▁end	-8.85711
▁diff	-8.85958
▁((	-8.86294
known	-8.86404
▁(%	-8.86446
STORE	-8.86551
SELF	-8.86553
right	-8.86684
▁dur	-8.87558
▁CRL	-8.8757
▁allow	-8.8762
▁attempt	-8.88127
▁connection	-8.88534
digest	-8.88743
OK	-8.88878
well	-8.88885
NOPOP	-8.88972
▁open	-8.89176
force	-8.89463
▁log	-8.89493
▁B	-8.89543
OP	-8.90144
▁URI	-8.90255
▁An	-8.90257
ZSB	-8.90516
▁DER	-8.9053
▁contain	-8.90568
MB	-8.90727
MTIzNDU	-8.90844
▁over	-8.91152
TRUSTED	-8.9126
▁libcurl	-8.91276
simpleenroll	-8.91293
reenroll	-8.91345
present	-8.91406
▁local	-8.9144
log	-8.91446
BN	-8.91587
64_	-8.91724
Bhc	-8.9186
cnt	-8.92375
▁(*	-8.92584
is	-8.92803
▁parameter	-8.93086
CRL	-8.93335
CSRATTRS	-8.93696
method	-8.937
decoded	-8.93794
qGS	-8.93821
util	-8.93987
NUM	-8.94069
GA	-8.94116
ther	-8.94173
UNIT	-8.94347
2_	-8.94364
clean	-8.94365
RED	-8.9454
Ib	-8.94696
▁attribute	-8.95534
▁initialize	-8.96122
▁running	-8.96211
▁switch	-8.96223
ould	-8.96236
▁done	-8.96274
▁401	-8.96334
▁create	-8.96487
ll	-8.96577
STR	-8.96747
▁reading	-8.9702
▁resource	-8.97092
895_	-8.9711
ID	-8.97743
▁start	-8.97796
xc	-8.98238
▁hold	-8.98772
▁instance	-8.98774
▁than	-8.98837
▁what	-8.99011
▁x	-8.99078
ready	-8.9928
▁+=	-8.9935
cmp	-8.99572
▁requests	-8.99961
VU	-8.99984
id	-9.00007
▁got	-9.00308
BUF	-9.00426
le	-9.00652
crl	-9.00928
Proxy	-9.01457
STRING	-9.01639
disable	-9.01666
peer	-9.01778
tls	-9.01793
src	-9.02189
bn	-9.02235
al	-9.03276
es	-9.03381
678901234567890	-9.0352
URI	-9.03637
▁attr	-9.03679
▁csrattrs	-9.03747
nU	-9.03806
opt	-9.03832
▁there	-9.0401
SAN	-9.04335
array	-9.04374
Null	-9.04419
▁through	-9.04446
▁All	-9.04467
XMg	-9.04524
▁current	-9.04962
▁I	-9.05013
▁ID	-9.05153
ODkw	-9.05337
--------------	-9.05399
▁copy	-9.05653
▁b	-9.05778
▁req	-9.05909
able	-9.06121
▁der	-9.06326
Mi	-9.06463
▁timeout	-9.06631
45	-9.06804
READ	-9.06874
OPT	-9.06975
SRP	-9.07124
▁too	-9.07158
callback	-9.07162
▁uri	-9.07201
status	-9.07212
▁defined	-9.07225
OTk	-9.07229
timeout	-9.07256
rie	-9.07308
GET	-9.07334
nid	-9.07997
▁needs	-9.07998
ON	-9.08787
▁cmd	-9.0911
critical	-9.09733
▁4	-9.09783
REQUIRED	-9.09798
load	-9.10093
called	-9.10105
▁'\0';	-9.10117
▁rsa	-9.10155
Type	-9.1027
16	-9.10364
▁R	-9.10799
▁signature	-9.11165
▁enable	-9.11228
resp	-9.1126
word	-9.11444
ate	-9.11612
";	-9.11712
▁400	-9.11744
1,	-9.12057
▁sock	-9.12723
iG	-9.12761
64,	-9.12931
GFy	-9.13012
▁Returns	-9.1304
QgY	-9.13063
▁!	-9.13069
mg	-9.13152
Update	-9.13161
object	-9.13191
DI	-9.13492
TAL	-9.13797
▁No	-9.13938
123456789012345	-9.14328
▁handle	-9.14474
▁operations	-9.14552
▁method	-9.14941
▁based	-9.15001
ous	-9.15457
generated	-9.15546
▁verification	-9.15714
▁also	-9.15784
)",	-9.15884
▁authorization	-9.15939
▁expected	-9.15961
-------------	-9.15991
▁va	-9.16223
section	-9.16232
▁included	-9.16284
OPTIONAL	-9.16284
fd	-9.16321
▁example	-9.16547
▁+--------------	-9.17017
jk	-9.17247
▁F	-9.17354
▁extension	-9.18162
++)	-9.18253
▁peer	-9.18397
EyMzQ	-9.18426
▁see	-9.18476
date	-9.18604
▁number	-9.18826
▁make	-9.18858
cisco	-9.18983
899/	-9.19015
▁simplifie	-9.19162
form	-9.1923
op	-9.19313
▁retrieve	-9.19385
▁errno	-9.19386
operation	-9.19463
▁try	-9.196
▁Ma	-9.2
▁stack	-9.20045
RV	-9.20076
std	-9.20165
▁expired	-9.20199
opts	-9.20206
▁close	-9.21019
io	-9.21243
oid	-9.21337
▁point	-9.21626
▁EC	-9.21891
▁prior	-9.22019
METHOD	-9.22052
▁memory	-9.22057
MODE	-9.22069
▁against	-9.22081
▁pair	-9.22122
▁received	-9.22139
estrealm	-9.22182
EgZG	-9.22189
▁authenticate	-9.22415
▁authenticated	-9.22426
▁functions	-9.22447
trusted	-9.22593
Failed	-9.22829
way	-9.2285
signature	-9.22877
)))	-9.22987
▁supported	-9.23246
▁messages	-9.23396
DER	-9.23501
▁PKI	-9.23849
VL	-9.24112
Enroll	-9.24127
.,	-9.24709
cmcRA	-9.25385
antinat	-9.25385
target	-9.25385
▁working	-9.25461
▁Cleanup	-9.25472
▁given	-9.25504
keypair	-9.25542
▁determine	-9.25543
▁allowed	-9.25658
ke	-9.25757
▁Request	-9.25779
▁O	-9.25891
by	-9.26268
diff	-9.26269
md	-9.26312
▁zero	-9.26362
max	-9.26403
Jl	-9.26421
▁list	-9.26457
tc	-9.26508
256	-9.2661
((	-9.26774
▁Sto	-9.27071
YXJ	-9.27164
Retrieve	-9.27378
srv	-9.27417
▁entry	-9.27664
1);	-9.27777
tm	-9.27981
':	-9.28136
▁Se	-9.28141
▁its	-9.28498
OBJECT	-9.28834
CONTENT	-9.28834
▁input	-9.28838
▁some	-9.28929
=%	-9.29209
nc	-9.29211
te	-9.29304
▁Certs	-9.29495
896_	-9.29696
▁-1)	-9.29744
nvalid	-9.29777
length	-9.29787
connect	-9.29886
on	-9.30404
▁they	-9.3044
hk	-9.30499
sign	-9.30954
com	-9.31054
▁change	-9.31424
sin	-9.31819
▁ah	-9.31929
▁Auth	-9.32039
900_	-9.32183
MATCH	-9.32347
▁handshake	-9.32405
sh	-9.32407
▁because	-9.32408
From	-9.32455
EOL	-9.32465
▁2013	-9.32585
▁did	-9.32607
▁fingerprint	-9.32679
txt	-9.3282
7,	-9.3282
▁just	-9.32858
nonce	-9.32965
▁pro	-9.33364
▁User	-9.3337
▁full	-9.33432
RETRY	-9.33464
result	-9.33563
▁sign	-9.33564
curlcode	-9.33609
entry	-9.3365
▁hdrlen	-9.33832
).	-9.34093
1234567890123456	-9.34106
nR	-9.3436
▁curlcode	-9.34949
),	-9.35073
1))	-9.35226
▁trusted	-9.3543
▁GET	-9.35569
FzI	-9.35583
▁status	-9.35662
▁signed	-9.35719
▁success	-9.3604
Implicit	-9.36112
TXT	-9.36121
899\\	-9.36148
▁memcpy	-9.362
hdrs	-9.36456
++;	-9.36486
LU	-9.36585
("%	-9.36881
▁correct	-9.3691
▁CMC	-9.36968
▁both	-9.37247
version	-9.37276
match	-9.37288
close	-9.3736
num	-9.3742
▁build	-9.37501
where	-9.37512
realm	-9.37587
▁2	-9.37829
▁after	-9.38177
▁indicate	-9.38286
ve	-9.39292
▁disable	-9.39325
▁credential	-9.39392
IA	-9.39399
▁require	-9.39431
▁UID	-9.39461
▁tls	-9.39582
▁Cert	-9.39656
FILE	-9.3991
mime	-9.39956
▁Verify	-9.39959
▁obtain	-9.39971
Lj	-9.40008
▁NOTE	-9.40038
▁our	-9.40095
';	-9.40132
time	-9.40247
▁output	-9.40443
▁now	-9.40551
Next	-9.40636
▁parse	-9.40681
▁Start	-9.40709
▁ha	-9.40789
▁requested	-9.41053
▁clients	-9.4112
▁OID	-9.41342
CW	-9.4135
check	-9.41409
------------	-9.4142
▁POST	-9.41428
mU	-9.41518
▁de	-9.41575
reserved	-9.41968
▁"127.0.0.1",	-9.41993
ion	-9.42818
▁Key	-9.42871
xf	-9.43068
ry	-9.43245
▁'\0')	-9.43451
▁date	-9.43513
yA	-9.43876
OF	-9.43888
ad	-9.43904
!!!	-9.43955
TIME	-9.43956
▁another	-9.43959
erent	-9.44092
▁2016	-9.44108
898/	-9.4412
▁These	-9.44491
dditional	-9.44556
NL	-9.44746
0,	-9.44854
▁-1;	-9.45005
bort	-9.45189
▁userid	-9.45512
▁extensions	-9.45554
Basic	-9.45568
mismatch	-9.45644
ting	-9.45719
▁optional	-9.45731
▁succeed	-9.47284
nt	-9.47286
gU	-9.47446
Bg	-9.47481
+1	-9.47778
WC	-9.47975
WRONG	-9.48121
▁field	-9.48121
▁Response	-9.48122
strcasecmp	-9.48122
▁tell	-9.48128
▁encoding	-9.48129
▁more	-9.48134
▁exit	-9.48135
▁Copy	-9.48216
91	-9.483
ent	-9.48427
IF	-9.48546
▁write	-9.48558
STAT	-9.48638
▁issued	-9.48644
or	-9.48685
▁bytes	-9.48874
PK	-9.48902
▁convert	-9.49009
▁side	-9.49058
▁>=	-9.49138
kp	-9.49491
ut	-9.49566
▁first	-9.4962
generate	-9.4966
56	-9.49767
san	-9.49816
▁la	-9.49831
basic	-9.49886
provision	-9.49948
Curl	-9.49982
▁pwd	-9.50021
▁err	-9.50025
cl	-9.5011
4))	-9.50299
▁j	-9.50358
▁H	-9.5037
based	-9.50413
LE	-9.50437
▁n	-9.50646
▁describe	-9.50743
ng	-9.50836
▁1,	-9.50958
allocate	-9.51025
ip	-9.51764
▁ri	-9.51812
"123456789012345	-9.52406
▁available	-9.52469
LIST	-9.52471
▁whether	-9.52473
After	-9.52474
▁look	-9.52513
BZQ	-9.52524
wMTIzNDU	-9.52532
▁obtained	-9.52555
▁incoming	-9.52581
▁locally	-9.52619
://	-9.52629
▁ensure	-9.52667
CMD	-9.52707
▁For	-9.52709
▁them	-9.52752
▁Attempt	-9.52793
▁requires	-9.53259
content	-9.53411
▁trust	-9.53594
text	-9.53783
29	-9.53822
▁uninitialize	-9.53966
3))	-9.54037
▁1	-9.5408
possession	-9.54392
Content	-9.54454
sizeof	-9.54481
username	-9.54552
long	-9.54554
NF	-9.54761
vB	-9.54793
▁provision	-9.55087
7->	-9.55152
xlQ	-9.55226
▁checks	-9.55332
Ai	-9.55986
▁suites	-9.56152
▁take	-9.56383
.1	-9.56384
▁CN	-9.56425
▁array	-9.56542
GCS	-9.56576
ap	-9.56588
ML	-9.56659
HO	-9.56692
OS	-9.56698
15	-9.56933
ystems	-9.56962
▁between	-9.57015
▁large	-9.57015
OPERATION	-9.57015
▁occurred	-9.57021
ation	-9.57027
index	-9.57034
Parameters	-9.57038
code	-9.57048
▁sockaddr	-9.57052
nNl	-9.5709
▁null	-9.57119
ODkwE	-9.57121
▁Inc	-9.57141
384	-9.57164
sanity	-9.57182
HER	-9.5721
▁clear	-9.57228
▁old	-9.5727
Unit	-9.57373
dst	-9.57621
▁D	-9.58053
GBysGAQEBARY	-9.58852
response	-9.58967
2))	-9.59017
▁EOK	-9.59071
▁suc	-9.5909
matrix	-9.59158
39	-9.59171
pattern	-9.59231
▁process	-9.593
▁fails	-9.59599
▁RA	-9.59624
NID	-9.59666
next	-9.5971
ake	-9.59983
▁pkey	-9.60049
(),	-9.60345
ment	-9.60599
uni	-9.60614
PrivateKey	-9.60825
▁indicat	-9.611
VC	-9.6123
▁non	-9.61656
AVAILABLE	-9.61777
WRITE	-9.61777
▁maximum	-9.61777
proto	-9.61777
▁instead	-9.61777
utomat	-9.61784
▁made	-9.61802
BgNVBA	-9.61827
▁represent	-9.61834
CMDS	-9.61861
▁cannot	-9.61905
▁corrupted	-9.61909
bogus	-9.61919
1",	-9.62005
▁checked	-9.62121
MAY	-9.62142
▁SOCK	-9.6236
▁J	-9.62478
ternal	-9.62508
▁empty	-9.62864
▁sys	-9.63005
br	-9.63125
et	-9.63589
Xa	-9.63631
10);	-9.63815
bz	-9.63843
host	-9.63913
rW	-9.64071
SIZE	-9.64133
▁search	-9.64141
Simple	-9.64154
▁N	-9.6422
Length	-9.64233
▁requesting	-9.64527
MG	-9.6489
yL	-9.65339
-----------	-9.65786
20	-9.65913
AD	-9.6597
rm	-9.65973
Ll	-9.66001
▁issue	-9.66515
DE	-9.66579
▁verifie	-9.66727
SIMPLE	-9.66777
▁before	-9.66777
UNKNOWN	-9.66777
▁confirm	-9.66778
PARSE	-9.66791
CAQAw	-9.66865
see	-9.66884
▁bad	-9.66951
_1024_	-9.67031
▁second	-9.67091
BASE	-9.67094
MT	-9.67099
app	-9.6717
▁Crea	-9.67222
NABLE	-9.67223
hnd	-9.67256
▁On	-9.67458
MEM	-9.67767
▁bio	-9.67774
▁wildcard	-9.67806
sha	-9.67891
▁curve	-9.67962
▁Certificate	-9.68109
▁d	-9.68495
▁Name	-9.68615
/.	-9.68666
▁explicit	-9.68728
▁sk	-9.68899
application	-9.68997
Section	-9.69297
Zw	-9.693
LONG	-9.694
▁version	-9.69429
body	-9.69454
search	-9.6946
save	-9.69466
▁":"	-9.69536
CURL	-9.698
▁username	-9.69874
func	-9.69905
val	-9.69944
wI	-9.69951
▁go	-9.70256
kg	-9.70522
qd	-9.70704
5272]	-9.70738
xa	-9.70824
▁load	-9.71138
▁part	-9.7142
vd	-9.71631
▁MB	-9.71655
xplicit	-9.71787
Ug	-9.71845
▁appro	-9.72021
VERIFY	-9.7204
CLOSE	-9.7204
EXPIRED	-9.7204
▁anchor	-9.7204
▁identify	-9.7204
▁logging	-9.72042
NOTUNNEL	-9.72047
ALL	-9.72087
▁down	-9.72088
▁invoked	-9.7211
ASC	-9.72135
helper	-9.72215
▁typedef	-9.72261
▁flow	-9.7228
▁Authentication	-9.72291
▁actual	-9.72307
▁order	-9.7242
LO	-9.72496
WW	-9.72667
▁seconds	-9.73027
▁assign	-9.73315
▁headers	-9.73424
pri	-9.73708
state	-9.74119
se	-9.74195
PY	-9.74225
2048,	-9.74306
ecdhe	-9.7433
flu	-9.74337
▁connect	-9.74637
▁challenge	-9.74748
attributes	-9.7479
▁Generat	-9.74805
▁"127.0.0.1"	-9.74963
shutdown	-9.75041
11	-9.75301
ZG	-9.76005
Re	-9.76061
EP	-9.76191
▁even	-9.76704
asn	-9.76745
▁command	-9.76887
▁Return	-9.76951
No	-9.77147
ta	-9.77417
SEG	-9.77529
VALID	-9.77567
CONNECT	-9.77595
▁future	-9.77595
▁responsible	-9.77595
▁populate	-9.77596
cacrlcerts	-9.77609
▁authenticating	-9.77674
stdout	-9.77677
ww	-9.77678
▁Note	-9.77694
MGA	-9.77739
TOO	-9.7778
up	-9.77823
▁needed	-9.77848
▁SHOULD	-9.77858
▁present	-9.77912
▁Token	-9.77998
ow	-9.78146
VD	-9.78148
▁approved	-9.78185
▁print	-9.7838
▁checking	-9.78418
▁compare	-9.78899
5))	-9.79035
HEX	-9.79274
tst	-9.79321
31	-9.79331
xO	-9.79749
sZ	-9.79804
+--------------	-9.79883
▁NOT	-9.80597
▁includ	-9.80783
expired	-9.8093
▁Curl	-9.80972
82	-9.81074
safe	-9.81076
no	-9.81317
ur	-9.81442
▁testing	-9.81449
dh	-9.8172
▁nonce	-9.81785
▁V	-9.81818
▁cn	-9.82002
▁TCP	-9.82259
7-	-9.82447
6))	-9.82539
▁skip	-9.8283
headers	-9.82963
▁raw	-9.83011
CriticalSection	-9.831
CU	-9.83117
TYPE	-9.8337
▁automatic	-9.83473
▁protocol	-9.83478
FUNCTION	-9.83478
▁initial	-9.83482
▁same	-9.83507
/1.1	-9.83545
2048	-9.83553
▁-1	-9.83647
▁Add	-9.83961
RA	-9.84019
FA	-9.84031
▁handler	-9.84079
▁main	-9.84179
{	-9.84251
58	-9.84292
▁l	-9.84598
:%	-9.84749
Check	-9.84775
▁nread	-9.84787
ZT	-9.85295
mF	-9.8541
each	-9.85809
▁parsed	-9.8596
obj	-9.86074
▁host	-9.86454
▁L	-9.86519
decode	-9.86814
▁mismatch	-9.86842
malloc	-9.87005
▁init	-9.87005
payload	-9.87094
Certificate	-9.87182
equal	-9.87221
▁cb	-9.87334
pid	-9.87454
MAkG	-9.87495
tmp	-9.87615
dCB	-9.87911
87	-9.88149
sa	-9.88335
ct	-9.88603
*2	-9.88935
gp	-9.89159
GB	-9.89319
allback	-9.89642
it	-9.89654
▁again	-9.89671
MIIB	-9.89674
▁link	-9.89691
▁negative	-9.89728
▁policy	-9.89728
▁written	-9.89728
▁exchange	-9.89728
4_122	-9.89734
5_117	-9.89736
nZ	-9.89748
▁parsing	-9.89756
▁register	-9.89787
wc	-9.89807
▁integer	-9.89874
▁enum	-9.8992
ated	-9.89939
▁encryption	-9.9002
▁Initialize	-9.90023
▁CACerts	-9.90187
▁TC	-9.90348
CE	-9.90359
▁access	-9.90614
cnonce	-9.90644
▁matched	-9.90669
dd	-9.90692
------+	-9.90733
UEB	-9.91018
▁space	-9.9105
lg	-9.9111
AwYDiDcEE	-9.91137
xd	-9.91185
WD	-9.91187
oids	-9.91473
2,	-9.91542
initialized	-9.91559
IS	-9.91963
RO	-9.92377
893	-9.92678
/6	-9.92732
▁5	-9.92842
SY	-9.93222
LV	-9.93305
stack	-9.93477
Fail	-9.93592
self	-9.93665
Qw	-9.93805
POST	-9.93863
SOCK	-9.93878
Wp	-9.93972
EOK	-9.94188
KR	-9.94232
▁specif	-9.94443
▁ptr	-9.94509
EY	-9.94754
Fu	-9.94921
RD	-9.95109
://127.0.0.1:	-9.95155
AND	-9.95177
hex	-9.95463
del	-9.95486
▁work	-9.95491
xA	-9.95605
ZW	-9.9611
="	-9.96237
ME	-9.96358
INITIALIZED	-9.96394
▁SubjectAltName	-9.96395
alive	-9.96396
threadid	-9.96397
INET	-9.9641
REENROLL	-9.96416
DAK	-9.9644
▁registered	-9.96474
▁Spi	-9.96514
cleanse	-9.96522
▁grep	-9.96528
ver	-9.96548
▁terminated	-9.96602
▁listen	-9.96685
▁bit	-9.96728
▁wait	-9.96906
ZU	-9.96971
▁desired	-9.96986
xxxxxxxxxxxxxxxx	-9.97167
GF	-9.97499
▁info	-9.97759
▁(-1	-9.97827
Oz	-9.98151
La	-9.98321
aw	-9.98382
hI	-9.98544
DM	-9.99099
▁shutdown	-9.99566
ty	-9.99605
▁calls	-9.99747
Ku	-9.99875
▁ok	-9.9993
▁pattern	-10.0011
AAMA	-10.0025
ODE	-10.0032
CB	-10.0048
QH	-10.006
▁ec	-10.0063
push	-10.0064
03,	-10.0075
Free	-10.0078
label	-10.0083
EC	-10.0087
Client	-10.0088
Encoding	-10.0088
delay	-10.0097
first	-10.0098
strcmp	-10.0101
build	-10.0102
userid	-10.0105
OID	-10.0118
Dd	-10.0123
Uri	-10.0137
bi	-10.0147
GY	-10.0166
BgOINwEx	-10.0173
supported	-10.0183
YO	-10.0185
99	-10.0194
embers	-10.023
7))	-10.0234
78901234567890"	-10.0242
50	-10.0273
MAk	-10.0281
().	-10.0308
----------	-10.0316
DQEBBQUA	-10.035
sig	-10.0351
INVAL	-10.0352
▁Common	-10.0353
JU	-10.0353
REVOKED	-10.0354
▁November	-10.0354
▁invoking	-10.0354
▁previous	-10.0354
CHAIN	-10.0354
▁above	-10.0354
NONCE	-10.0354
▁transport	-10.0354
▁currently	-10.0362
Authenticate	-10.0368
▁later	-10.0372
UGA	-10.0374
▁anti	-10.0388
▁performed	-10.0395
▁run	-10.0397
▁usage	-10.0397
gy	-10.0405
ssociat	-10.0409
Jz	-10.0415
alg	-10.0416
▁simpleenroll	-10.0418
Fk	-10.0421
YDiDcCMS	-10.0422
cip	-10.0427
▁characters	-10.0437
▁force	-10.0451
MEA	-10.0451
▁month	-10.0463
gm	-10.0471
▁accepted	-10.0472
▁pop	-10.0477
▁single	-10.05
JY	-10.0503
_250	-10.0512
an	-10.0523
899	-10.0527
8))	-10.0541
DY	-10.0576
10))	-10.0577
▁signing	-10.0598
30,	-10.06
ci	-10.061
2-	-10.061
▁types	-10.0615
wC	-10.0638
"))	-10.0639
DEL	-10.0642
4",	-10.0644
▁decode	-10.0657
JA	-10.067
IHN	-10.0691
::	-10.0691
17	-10.0704
MIIC	-10.0704
▁next	-10.0723
****************	-10.0724
iB	-10.073
SE	-10.0733
UM	-10.0792
▁m	-10.08
▁BASIC	-10.0814
BgcrBgEBAQEW	-10.082
ZC	-10.0839
HEADER	-10.0841
mctx	-10.0849
Au	-10.0856
required	-10.0863
current	-10.0867
last	-10.0869
public	-10.0869
use	-10.087
894/	-10.0891
VM	-10.0897
678901234567890"	-10.0916
Qz	-10.0927
1000	-10.0935
bptr	-10.095
qj	-10.0953
CS	-10.0972
▁tm	-10.0986
IGCSskAwMCCAEBCz	-10.1007
Trust	-10.1014
▁U	-10.1023
ha	-10.1061
nX	-10.1102
▁implement	-10.1111
CORRUPT	-10.1123
IMPLICIT	-10.1123
▁Convert	-10.1123
▁Security	-10.1123
PARAM	-10.1123
▁forward	-10.1123
FOUND	-10.1123
▁Context	-10.1123
▁detail	-10.1125
▁upstream	-10.1125
▁ex	-10.1125
▁document	-10.1126
oGA	-10.1133
off	-10.1135
▁RECOMMENDED	-10.1139
RC	-10.1144
nL	-10.1144
▁decoded	-10.1144
uM	-10.1145
▁cause	-10.1145
▁accept	-10.115
901/	-10.1155
▁missing	-10.1159
10"	-10.1166
▁caller	-10.1174
secp	-10.1179
▁possible	-10.1179
mQ	-10.1185
NDU	-10.1197
Zh	-10.1205
▁1.1	-10.1216
▁fmt	-10.1219
attrs	-10.1235
Fr	-10.1237
MIN	-10.1241
▁good	-10.1241
▁SHA	-10.1245
▁reset	-10.1246
FH	-10.1255
93	-10.126
WZ	-10.1261
▁prime	-10.1262
▁without	-10.1276
vg	-10.1289
etrieved	-10.1289
valid	-10.1289
▁returns	-10.1292
LM	-10.1292
gE	-10.1302
▁:	-10.1305
igure	-10.1323
TU	-10.1325
gen	-10.1339
BI	-10.1343
most	-10.1346
21	-10.1348
xe	-10.1356
ey	-10.1364
rWs	-10.1365
ncoming	-10.1385
▁multip	-10.1435
Db	-10.1441
72	-10.1444
gg	-10.1481
06,	-10.1489
▁dst	-10.1507
ok	-10.1509
▁extern	-10.1556
DAT	-10.1588
EO	-10.1594
The	-10.1596
zs	-10.1599
mu	-10.1609
▁addr	-10.1611
09	-10.1615
▁Stor	-10.1617
flag	-10.1624
▁establish	-10.1649
6+	-10.1664
disconnect	-10.1673
parms	-10.1674
▁count	-10.1679
Transfer	-10.1682
▁assume	-10.1684
vpm	-10.1688
blob	-10.1693
unique	-10.1696
▁keyin	-10.1696
implicit	-10.1698
both	-10.1699
explicit	-10.1707
qop	-10.1717
An	-10.1727
built	-10.1731
AU	-10.1752
▁3	-10.1771
79	-10.1814
▁section	-10.1817
+0	-10.1824
th	-10.1841
Jy	-10.185
0);	-10.1865
▁r	-10.1866
MQ	-10.1871
▁STR	-10.1878
enabled	-10.1879
head	-10.1897
▁logger	-10.191
uns	-10.1913
▁cl	-10.1917
gc	-10.192
ra	-10.1922
")	-10.193
▁reject	-10.1948
----------+	-10.1954
HOST	-10.1955
hvcNAQEBBQADgg	-10.1955
FLAG	-10.1956
▁amount	-10.1956
▁applicable	-10.1956
▁"../../	-10.1956
period	-10.1956
894\\	-10.196
▁correctly	-10.1962
gYDVQQ	-10.1963
▁cached	-10.1964
nDANSVFAxE	-10.1964
▁mean	-10.1966
▁IPv	-10.1968
BgNVBAoMC	-10.1972
▁terminate	-10.1972
▁services	-10.1978
xYR	-10.1981
▁attrs	-10.1999
▁processing	-10.2001
▁204	-10.2003
MCV	-10.2006
▁ne	-10.2012
898	-10.2015
dio	-10.2016
▁dsa	-10.2016
Nvb	-10.203
▁allocat	-10.2035
▁Transport	-10.204
▁short	-10.204
kw	-10.2045
CzA	-10.2045
▁stored	-10.205
▁hdrs	-10.2051
▁memset	-10.2055
jq	-10.2056
KH	-10.2078
tag	-10.208
▁woul	-10.2084
▁keep	-10.2109
▁revoked	-10.213
ZK	-10.2139
ie	-10.2159
ew	-10.2184
qS	-10.2185
CL	-10.2193
65	-10.2199
Ah	-10.2206
01,	-10.2208
▁201	-10.2219
asy	-10.2239
mA	-10.225
▁bptr	-10.2266
nq	-10.2267
▁Sign	-10.2277
pC	-10.2282
gh	-10.2304
EM	-10.2312
▁v	-10.2321
4,	-10.2323
pw	-10.2334
YJYIZIAWUDBAIC	-10.2334
wB	-10.2335
aW	-10.2349
AAAA	-10.2356
xx	-10.2357
ally	-10.2359
xIGRhdGE	-10.2365
YX	-10.2372
▁occur	-10.2387
vM	-10.2392
oP	-10.2396
TE	-10.242
NG	-10.2423
Di	-10.2451
signing	-10.2464
18	-10.2476
QX	-10.2516
context	-10.2516
BoB	-10.2517
▁-1,	-10.2523
MIG	-10.2532
▁Do	-10.2568
24	-10.2569
PoP	-10.2569
hostname	-10.2605
example	-10.2608
---------------+	-10.2609
16894	-10.2617
top	-10.2636
509(	-10.2642
tory	-10.2652
ba	-10.2671
▁IP	-10.2672
nW	-10.268
pK	-10.2684
ch	-10.2688
session	-10.2697
UE	-10.2714
Path	-10.2717
en	-10.2723
▁receive	-10.2747
▁Null	-10.2769
▁continue	-10.2804
▁small	-10.2809
tr	-10.2811
ight	-10.2821
enc	-10.2822
▁256	-10.2825
▁state	-10.2828
sk	-10.2843
DSA	-10.2859
BgkrJAMDAggBAQsw	-10.2865
▁Layer	-10.2865
PENDING	-10.2865
REALM	-10.2865
▁descriptor	-10.2865
▁necessary	-10.2865
▁reference	-10.2865
DQEJBw	-10.2865
AFTER	-10.2866
▁moment	-10.2866
▁configuration	-10.2866
IBAQB	-10.2866
▁generation	-10.2866
SING	-10.2869
cfg	-10.2869
▁bsearch	-10.287
▁you	-10.2873
VtM	-10.2873
kfS	-10.2877
▁nmemb	-10.2883
alk	-10.2883
▁global	-10.2883
▁otherwise	-10.2883
media	-10.2884
▁initializ	-10.2887
900	-10.2888
▁placed	-10.2898
quoted	-10.2898
▁places	-10.291
▁restart	-10.2915
sess	-10.2918
protected	-10.2922
893/	-10.2928
nl	-10.2932
▁strings	-10.2943
hj	-10.2943
jJ	-10.2949
ntop	-10.2952
And	-10.2956
Ek	-10.2957
▁FIPS	-10.2957
WA	-10.2958
▁verifying	-10.2972
▁DH	-10.2972
Test	-10.2973
Segment	-10.2973
▁inter	-10.2988
▁created	-10.2997
▁{"6	-10.2998
rl	-10.2999
csrattr	-10.3
fZ	-10.301
ce	-10.3015
04,	-10.3025
▁{"4	-10.3047
▁encode	-10.3049
ED	-10.3055
jF	-10.3065
▁G	-10.3073
cy	-10.3082
HN	-10.3092
GV	-10.3099
00,	-10.3104
yY	-10.3106
ENT	-10.3111
▁don	-10.3113
Ub	-10.3114
ER	-10.3123
▁fd	-10.3136
Fv	-10.3137
5,	-10.3138
5.	-10.3149
('	-10.3151
▁Pr	-10.3159
bC	-10.318
▁MIN	-10.3197
xJ	-10.3214
zu	-10.3236
Un	-10.3241
HW	-10.3242
▁cat	-10.3245
Rj	-10.3263
de	-10.3268
ill	-10.3268
"),	-10.3277
▁url	-10.328
IGRv	-10.3292
AA	-10.3295
64"	-10.3308
48	-10.3331
5_	-10.3332
DQ	-10.3339
socket	-10.3341
Bw	-10.3348
▁Length	-10.3355
JR	-10.336
OC	-10.3384
▁tc	-10.3396
12	-10.342
HC	-10.3432
oB	-10.3436
▁bn	-10.3466
▁Real	-10.3486
XZ	-10.349
etting	-10.3491
▁algorithm	-10.3504
si	-10.3505
ye	-10.3508
83	-10.3569
MU	-10.3581
support	-10.3587
trust	-10.3587
▁1024	-10.3594
26	-10.3618
EPADCCAQoCggEBA	-10.3634
IT	-10.3634
Ru	-10.3644
node	-10.3657
ZTE	-10.3668
Ww	-10.3672
flags	-10.3683
sys	-10.3715
om	-10.3717
▁wro	-10.3733
(*(	-10.3743
mgctx	-10.3761
▁addition	-10.3766
BU	-10.3773
wF	-10.3778
▁character	-10.3795
▁Attribute	-10.3796
ossl	-10.3796
ic	-10.3808
▁want	-10.3813
side	-10.3823
▁give	-10.3829
XH	-10.3831
iz	-10.384
YHKwYBAQEBFg	-10.3846
ontains	-10.3849
CAwEAAa	-10.3861
PRIVATE	-10.3865
MISSING	-10.3865
fullcmc	-10.3865
▁mutual	-10.3865
▁zone	-10.3865
▁third	-10.3865
▁3.3.1	-10.3865
html	-10.3865
▁Windows	-10.3866
stum	-10.3866
somestring	-10.3866
OTkuMiBkYXRhBg	-10.3866
▁hack	-10.3866
▁original	-10.3866
probab	-10.3867
▁numer	-10.3867
=\"%	-10.3868
var	-10.3869
▁two	-10.387
▁below	-10.387
IGN	-10.3872
---------	-10.3876
893\\	-10.3878
▁itself	-10.388
NOPOPPOP	-10.3881
4020-	-10.3881
4020/	-10.3881
XZa	-10.3881
FIX	-10.3882
TLSUID	-10.3882
ECDSA	-10.3882
▁1.0	-10.3884
▁...)	-10.3884
UEAxM	-10.3886
_200,	-10.3886
▁fly	-10.3886
xb	-10.3892
sslversion	-10.3893
mP	-10.3894
pBX	-10.3894
srA	-10.3895
49	-10.3898
Zp	-10.3899
PL	-10.3902
TCCAa	-10.3902
nly	-10.3904
CCASIwDQYJKoZI	-10.3907
3612	-10.3907
0\	-10.3908
QJ	-10.3911
sequence	-10.3913
▁passes	-10.3916
LA	-10.3918
VJ	-10.3918
".	-10.3922
YDiDcBMR	-10.3926
▁loaded	-10.3928
▁saved	-10.3935
eW	-10.3936
nger	-10.3939
▁CMS	-10.3948
Vm	-10.3952
dXN	-10.3957
JG	-10.3958
▁normal	-10.3972
▁thread	-10.3972
Zy	-10.3977
Kp	-10.3984
eEnroll	-10.3984
nd	-10.3987
ml	-10.3992
▁202	-10.3998
▁ready	-10.401
DES	-10.4014
▁takes	-10.402
▁allocated	-10.4023
11))	-10.4024
hQ	-10.4037
zJ	-10.4038
▁outfile	-10.4039
QT	-10.4045
▁{"2	-10.4049
ide	-10.4071
jj	-10.4076
ITI	-10.4076
▁'\	-10.4079
▁OBJ	-10.409
kQ	-10.4093
▁buffered	-10.4095
Qu	-10.4108
[20	-10.4109
▁{"3	-10.411
at	-10.4115
havi	-10.4116
▁wbuf	-10.4118
▁src	-10.4131
via	-10.4131
Yj	-10.4139
gY	-10.4145
bAQ	-10.4148
zk	-10.4163
yv	-10.417
rtn	-10.4175
Cq	-10.419
Kv	-10.4207
nce	-10.4212
▁da	-10.4216
▁report	-10.4228
ny	-10.424
62	-10.4242
▁delay	-10.4243
▁"\	-10.4245
sion	-10.4253
ification	-10.4256
▁note	-10.4265
lso	-10.4272
AS	-10.4298
ity	-10.4311
Server	-10.4334
94	-10.4341
▁save	-10.4345
LjIg	-10.4351
1024,	-10.4362
Parse	-10.4365
cting	-10.4373
Iw	-10.438
ZE	-10.4381
lY	-10.4387
)(	-10.4419
Xp	-10.4423
QU	-10.4426
nter	-10.4442
El	-10.4448
ec	-10.4452
jN	-10.4457
▁{"1	-10.4491
IGF	-10.4551
FG	-10.4558
(!	-10.4568
RU	-10.4571
etry	-10.4588
VB	-10.4591
CAL	-10.4601
YG	-10.4608
Name	-10.4614
kC	-10.4649
FO	-10.4664
toupper	-10.4667
pub	-10.4672
simplereenroll	-10.4675
7",	-10.4679
lj	-10.4689
13	-10.4696
eS	-10.4698
eq	-10.4704
orig	-10.4706
config	-10.4717
tC	-10.4719
empty	-10.4719
correct	-10.4723
curve	-10.4727
CMC	-10.4728
DEF	-10.4738
ji	-10.4743
YQYHKwYBAQEBFg	-10.4744
2008	-10.4749
Zb	-10.476
*)&	-10.4773
▁object	-10.4775
eckey	-10.4779
UC	-10.4782
nk	-10.4782
nD	-10.479
++	-10.4792
wZ	-10.4807
Hc	-10.4808
anage	-10.4831
gL	-10.4843
▁stop	-10.4848
kD	-10.4861
▁know	-10.4865
▁come	-10.487
▁how	-10.4874
Ox	-10.4876
▁alternative	-10.4889
Cg	-10.4891
▁ap	-10.4901
EIS	-10.4903
YS	-10.491
AjGCA	-10.4912
jCCA	-10.4921
wGA	-10.493
▁op	-10.494
slist	-10.4946
ws	-10.495
wQ	-10.4961
witch	-10.497
▁Clean	-10.4976
▁HTNextField	-10.4976
IMPORTANT	-10.4976
RESPONSE	-10.4976
UNAUTHORIZED	-10.4976
▁correspond	-10.4976
▁entries	-10.4976
▁security	-10.4976
▁June	-10.4977
▁3600	-10.4977
▁maintain	-10.4977
Connection	-10.4977
ONLY	-10.4977
family	-10.4977
▁yet	-10.4978
▁greate	-10.4979
901\\	-10.4981
1883-	-10.4982
yZzE	-10.4983
▁Public	-10.4984
▁Pass	-10.4984
▁install	-10.4987
bZGD	-10.4987
▁copied	-10.4992
MULT	-10.4993
▁processed	-10.4997
wwD	-10.4997
Cl	-10.5
YJKoZIhvcNAQkBFg	-10.5002
▁du	-10.5006
UEC	-10.5013
gpl	-10.5013
days	-10.5016
uW	-10.502
▁strength	-10.5022
Xo	-10.5026
▁begin	-10.5029
▁SET	-10.5045
LCB	-10.5045
127	-10.5049
▁sub	-10.5052
FW	-10.5055
897	-10.5058
▁offset	-10.5061
WV	-10.5061
GNh	-10.5062
▁complete	-10.5064
86,	-10.5066
Leav	-10.5069
HJ	-10.5085
▁REQUEST	-10.5089
▁year	-10.5089
▁level	-10.5095
MIH	-10.51
▁away	-10.512
NC	-10.5123
Mc	-10.5124
HL	-10.5126
FQ	-10.5132
yjc	-10.514
▁Verifi	-10.5152
▁arguments	-10.5153
Fz	-10.5159
EH	-10.5167
gf	-10.5185
1005	-10.5204
Gj	-10.5205
Cv	-10.5208
▁Init	-10.5219
nK	-10.5224
ACK	-10.5241
▁Disabl	-10.526
cnN	-10.5263
▁flag	-10.5268
cp	-10.527
EN	-10.5275
lw	-10.5277
2174	-10.5279
ersed	-10.5288
▁tag	-10.5289
cS	-10.529
▁gen	-10.5305
ai	-10.5307
LD	-10.5315
+7	-10.5322
81,	-10.5347
XQ	-10.5352
/%	-10.5352
tE	-10.5385
(2	-10.5394
1)	-10.5397
7+	-10.5421
rX	-10.5431
▁self	-10.5444
ait	-10.5446
bM	-10.5448
xv	-10.5457
-----	-10.5466
Nu	-10.5466
yMzQ	-10.548
▁RE	-10.5482
Ge	-10.5487
AP	-10.5502
▁modifi	-10.5504
02	-10.5506
9/	-10.5527
▁cleanup	-10.5531
CH	-10.5548
strn	-10.5554
MC	-10.5568
tz	-10.5573
Lm	-10.5591
BO	-10.5593
7)	-10.5604
zI	-10.5636
SG	-10.5671
YN	-10.5677
Qf	-10.5677
bE	-10.568
ull	-10.5687
cG	-10.5693
xY	-10.5698
KT	-10.57
▁provid	-10.5716
oca	-10.572
GE	-10.5737
▁4)	-10.5753
rd	-10.576
We	-10.5775
mW	-10.5806
ATE	-10.5807
certificate	-10.5813
OX	-10.5815
▁logic	-10.5819
ith	-10.5826
Ibn	-10.5842
xm	-10.5845
6,	-10.5875
▁25	-10.5875
uY	-10.5892
second	-10.5894
subj	-10.5948
backtrace	-10.5948
AQ	-10.5952
OBJ	-10.5953
identity	-10.5955
group	-10.5961
party	-10.5962
local	-10.5963
dl	-10.5963
wildcard	-10.5964
revoked	-10.5972
single	-10.5973
Init	-10.5981
Start	-10.5984
▁segments	-10.5998
AY	-10.6007
ov	-10.6017
nA	-10.6027
Br	-10.603
▁generat	-10.6033
▁th	-10.6053
zIG	-10.6059
Bh	-10.6078
UgDQp	-10.6089
▁ct	-10.6097
Ih	-10.6098
▁preserve	-10.61
▁3.3.2	-10.6105
atch	-10.611
eSwg	-10.6125
▁Anchor	-10.6139
JhenksI	-10.6141
cz	-10.6148
▁Protocol	-10.6153
▁prototype	-10.6155
▁argument	-10.6156
am	-10.6163
IGhhdmUg	-10.6164
If	-10.6176
▁find	-10.6178
EB	-10.6182
dentifier	-10.619
YW	-10.6192
xD	-10.6197
▁Mon	-10.6197
BgOINw	-10.6205
▁Some	-10.6206
INT	-10.6212
28	-10.6212
MIIE	-10.6215
uild	-10.6215
▁hand	-10.6219
▁sup	-10.6219
▁suit	-10.6225
SUPPORTED	-10.6226
DecryptKeyI	-10.6226
GROUP	-10.6226
LEVEL	-10.6226
VERIFICATION	-10.6226
▁EnvelopedData	-10.6226
▁Message	-10.6226
▁debug	-10.6226
▁facility	-10.6226
▁mechanism	-10.6226
▁particular	-10.6226
▁Distribution	-10.6227
▁Should	-10.6227
▁Perform	-10.6227
▁ntoh	-10.6227
afterLast	-10.6227
▁First	-10.6227
▁Load	-10.6227
6_116	-10.6227
module	-10.6228
UNTRUSTED	-10.6228
▁channel	-10.6228
CTION	-10.6228
▁approval	-10.6229
SIGNED	-10.6229
=-1;	-10.6231
SOCKET	-10.6231
▁proves	-10.6232
AjF	-10.6235
▁validation	-10.6242
XP	-10.6245
▁encrypted	-10.6251
▁authorized	-10.6251
qe	-10.6254
rfc	-10.6259
▁matches	-10.6259
=0;	-10.6266
startup	-10.6274
▁let	-10.6274
▁verified	-10.6274
▁As	-10.6277
▁'\0'	-10.6282
▁Application	-10.6284
▁shar	-10.6294
▁prototypes	-10.6299
eCriticalSection	-10.631
▁hint	-10.6319
ei	-10.6319
▁reason	-10.632
▁under	-10.632
▁pthread	-10.6321
User	-10.6327
▁Base	-10.6328
pZ	-10.6329
PID	-10.6331
128	-10.6334
▁pfd	-10.6335
3,	-10.6338
▁changed	-10.6339
BF	-10.6345
▁TOKEN	-10.6349
yO	-10.6352
69	-10.6353
dG	-10.6355
SSLv	-10.6356
zB	-10.6367
▁reg	-10.6393
▁commands	-10.6395
▁vsnprintf	-10.6397
AF	-10.64
▁form	-10.6403
▁challenges	-10.6408
6/	-10.6409
ZXN	-10.6411
▁uid	-10.6412
▁temp	-10.6432
"/	-10.645
ni	-10.6454
▁anon	-10.6458
we	-10.646
nF	-10.6468
▁OK	-10.6488
8,	-10.6499
9",	-10.65
XY	-10.6506
CP	-10.6515
11_	-10.6534
Ba	-10.654
owever	-10.6547
TA	-10.6554
55,	-10.6581
fc	-10.6583
▁head	-10.6606
_245	-10.661
pstr	-10.6623
▁HT	-10.6629
▁implicit	-10.6632
▁qop	-10.6635
▁unique	-10.6641
WP	-10.6647
open	-10.665
▁hex	-10.6672
EF	-10.6672
FI	-10.6673
FM	-10.6675
▁last	-10.668
AR	-10.6681
rke	-10.6684
▁06	-10.6726
nread	-10.6726
SQ	-10.673
▁strcmp	-10.6731
_244	-10.674
▁1))	-10.6754
ru	-10.6768
▁Fail	-10.6768
▁enrolled	-10.6769
kRT	-10.6775
nDA	-10.6798
pq	-10.6806
▁2048	-10.6808
▁2008	-10.6816
mo	-10.6829
unit	-10.6835
▁buflen	-10.6841
IEkg	-10.6843
▁pre	-10.685
2.0	-10.6859
ee	-10.6865
▁external	-10.6875
▁Fu	-10.6899
+1,	-10.6909
▁3)	-10.691
NR	-10.6915
rK	-10.6933
▁CR	-10.6943
MF	-10.6953
▁PA	-10.6962
url	-10.6979
IGJ	-10.7009
ky	-10.7017
oose	-10.7023
cM	-10.7035
dY	-10.7057
▁Clients	-10.7071
UI	-10.7072
▁OR	-10.7077
pZG	-10.7098
ont	-10.7101
lMR	-10.7107
▁amode	-10.7109
Ig	-10.7114
Iu	-10.7125
qb	-10.7134
lu	-10.7139
jB	-10.7141
AGA	-10.7154
43	-10.7166
▁app	-10.7171
as	-10.7176
▁Be	-10.7183
MR	-10.7187
14	-10.7201
▁real	-10.7204
nz	-10.7212
DR	-10.7214
gu	-10.7216
+1)	-10.722
UD	-10.7221
hh	-10.7227
YP	-10.723
19	-10.7259
Zd	-10.7284
gaG	-10.7286
WQ	-10.7314
WI	-10.7317
retrieve	-10.7323
MIID	-10.7335
▁opts	-10.7341
▁lo	-10.736
78901234567890	-10.7362
fail	-10.7371
convert	-10.7373
enforce	-10.7374
structure	-10.7377
tzoff	-10.7378
ne	-10.7382
xclass	-10.7382
Ob	-10.7384
subject	-10.7387
compare	-10.739
keep	-10.7392
TR	-10.7393
prime	-10.7394
extensions	-10.7395
ff	-10.7396
errno	-10.74
HA	-10.7404
hZ	-10.7413
TQW	-10.7416
bits	-10.7418
GN	-10.7425
Rk	-10.7426
LQ	-10.7439
PO	-10.7441
▁issu	-10.7444
2)	-10.7446
RE	-10.7453
create	-10.7462
▁md	-10.7477
▁operat	-10.7483
Bkb	-10.7497
▁Success	-10.7501
▁3.3.3	-10.7505
zQ	-10.7508
mm	-10.7546
▁place	-10.7562
haa	-10.7567
(%	-10.757
YV	-10.7592
[]	-10.76
▁late	-10.7604
ANBgkq	-10.761
nb	-10.7612
cyB	-10.7615
▁text	-10.7616
XO	-10.7628
wbuf	-10.7647
UECgw	-10.7648
▁desire	-10.7649
UECAw	-10.765
stablish	-10.7651
▁warn	-10.7651
stream	-10.7652
MQswCQYDVQQGEwJ	-10.7653
▁authenti	-10.7654
ADDR	-10.7655
PROTOCOL	-10.7655
▁August	-10.7655
▁Standard	-10.7655
▁enough	-10.7655
▁ourselves	-10.7655
▁proceed	-10.7655
▁scenario	-10.7655
▁Change	-10.7655
▁potential	-10.7655
▁directory	-10.7655
▁secret	-10.7655
▁March	-10.7655
▁problem	-10.7655
▁decoding	-10.7656
▁something	-10.7656
Agent	-10.7656
▁'/'	-10.7656
▁Cisco	-10.7657
chpw	-10.7657
4346]	-10.7657
5751]	-10.7657
usa	-10.7658
[-1]	-10.7659
▁recent	-10.7659
entity	-10.7661
gIBADB	-10.7662
5280]	-10.7662
DNS	-10.7664
msg	-10.7666
▁certain	-10.767
MIIBIjANBgkq	-10.7673
fwF	-10.7674
wAw	-10.7676
▁far	-10.7677
UF	-10.7679
NOMATCH	-10.768
Ja	-10.768
ICATION	-10.7682
▁frames	-10.7682
▁cry	-10.7684
desc	-10.7685
YI	-10.7699
Sanity	-10.7702
vZ	-10.7704
▁servers	-10.7708
▁attempted	-10.7708
equent	-10.7718
▁Any	-10.7722
▁tunnel	-10.7722
▁symbol	-10.7722
▁finished	-10.7723
SimpleEnroll	-10.7725
▁1)	-10.7726
▁cURL	-10.7741
▁embedd	-10.7748
2.1	-10.775
ded	-10.7757
▁lvl	-10.7761
▁line	-10.7768
▁occurs	-10.7777
▁remove	-10.7777
pv	-10.778
BAQEF	-10.7784
AAOCAQ	-10.7786
/8	-10.7787
89	-10.7787
▁common	-10.7791
▁distinct	-10.7792
▁'\\'	-10.7793
Vl	-10.78
nveloped	-10.7802
▁known	-10.7802
Yz	-10.7805
org	-10.7805
▁distribut	-10.7807
RecipientInfo	-10.7814
▁255	-10.7822
▁renew	-10.7838
XB	-10.7838
ary	-10.7846
qz	-10.7848
uriparser	-10.7853
oK	-10.7857
▁CERTIFICATE	-10.7876
▁Certificates	-10.7877
JD	-10.7879
Bz	-10.7883
Qj	-10.7883
▁yearnum	-10.7889
▁2989	-10.789
90	-10.789
Xw	-10.7896
gZG	-10.7903
mx	-10.7914
haproxy	-10.7919
▁per	-10.7919
1005-	-10.7922
▁ST	-10.7922
JH	-10.7925
GCSskAwMCCAEBCzB	-10.7929
DEyMzQ	-10.7929
Ix	-10.7949
nAQ	-10.7953
▁ERR	-10.7954
▁group	-10.797
yw	-10.7981
▁AF	-10.7985
▁wh	-10.799
-----+	-10.7991
km	-10.8005
iscard	-10.8013
▁Cre	-10.8015
ld	-10.8018
EK	-10.802
Ce	-10.8022
ead	-10.8025
▁eckey	-10.8052
vf	-10.8085
ival	-10.8114
UND	-10.8114
too	-10.8115
509)	-10.8127
yc	-10.8131
Tk	-10.8132
Ok	-10.8183
ym	-10.8191
▁calculate	-10.822
ps	-10.8225
▁TAs	-10.8229
kM	-10.8231
revent	-10.8236
ki	-10.8247
▁con	-10.825
chr	-10.8259
KN	-10.826
51	-10.8277
▁equal	-10.8291
hu	-10.8299
▁res	-10.83
27	-10.8301
▁equ	-10.8302
Mw	-10.8314
qZ	-10.8317
cat	-10.8322
▁Not	-10.8335
▁authorit	-10.8338
▁alternat	-10.8343
xRQ	-10.8352
▁64	-10.8352
▁responds	-10.8387
UU	-10.8409
899-1	-10.841
exdata	-10.8413
▁initialized	-10.8424
oi	-10.8424
uE	-10.8434
dD	-10.8435
tx	-10.8438
iD	-10.8442
86	-10.8455
34	-10.8475
WN	-10.8492
ability	-10.8508
TCCA	-10.8552
/"	-10.8557
yg	-10.8571
899-	-10.858
fu	-10.8595
aGV	-10.8612
▁val	-10.8616
Fa	-10.8629
yx	-10.8633
kqh	-10.8647
el	-10.8649
kZ	-10.8662
▁3.	-10.8668
KsT	-10.8673
GVhc	-10.868
Lw	-10.8701
WF	-10.8711
This	-10.8715
KQ	-10.872
kL	-10.8721
AwDgYDV	-10.8723
qW	-10.8733
equi	-10.8739
Vk	-10.8747
▁u	-10.8761
SB	-10.8763
DAQ	-10.8772
vF	-10.8786
bt	-10.8786
bD	-10.8801
▁codes	-10.8804
qL	-10.8818
ZA	-10.8832
this	-10.8851
Bf	-10.8862
▁OP	-10.8864
▁enforce	-10.8887
only	-10.8898
▁GOOD	-10.8906
tU	-10.8914
from	-10.8918
des	-10.8934
ay	-10.8938
▁limit	-10.8939
sumed	-10.8942
ge	-10.8953
@	-10.8955
GT	-10.8964
6:	-10.8974
MUST	-10.9014
yaW	-10.9016
▁11	-10.9018
hc	-10.9023
748/	-10.9029
▁option	-10.9034
encoded	-10.9037
corrupt	-10.9044
space	-10.9047
yearnum	-10.9054
CERTIFICATE	-10.9057
month	-10.9059
count	-10.906
accepted	-10.9061
Lf	-10.9065
aY	-10.9065
SHA	-10.9073
good	-10.9079
Jw	-10.9081
GM	-10.9082
wo	-10.9082
Key	-10.9085
--------	-10.9097
bit	-10.9109
=\	-10.9118
ro	-10.9147
):	-10.9164
▁SAN	-10.9176
▁404	-10.918
2616]	-10.9185
▁4.1.1	-10.9198
IGZvciB	-10.9219
wf	-10.922
▁invoke	-10.9223
6.	-10.9223
Uj	-10.9227
▁subs	-10.9231
▁Function	-10.9234
EV	-10.9234
gDQoNCk	-10.924
od	-10.9245
pr	-10.9251
SL	-10.9253
Nl	-10.9268
roof	-10.9271
byB	-10.9272
)*	-10.9274
AgMBAAGg	-10.9276
JKoZIhvcNAQkBFg	-10.9284
wYHKoZIzj	-10.929
KZ	-10.9291
wW	-10.9292
kip	-10.9295
CONT	-10.9295
▁copie	-10.9299
AwwG	-10.93
ret	-10.9307
▁configure	-10.931
KoZIzj	-10.9311
MRkwFwY	-10.9312
wDAYDVQQLDAVFQ	-10.9315
GVy	-10.9316
OTkuM	-10.9318
SHORT	-10.9322
CHECK	-10.9322
▁Status	-10.9322
▁discuss	-10.9322
▁human	-10.9322
▁insensitive	-10.9322
▁typically	-10.9322
▁ASCII	-10.9322
RFeGFt	-10.9322
▁transferred	-10.9322
▁Specification	-10.9322
▁combin	-10.9322
▁anything	-10.9322
CONTEXT	-10.9322
▁PDB	-10.9322
▁follow	-10.9322
▁front	-10.9322
srpdb	-10.9322
BCQc	-10.9323
lease	-10.9323
MIME	-10.9323
▁automatically	-10.9323
6402]	-10.9323
▁rules	-10.9323
▁negotiated	-10.9324
▁nothing	-10.9324
OTkuMSBkYXRh	-10.9324
▁initialization	-10.9325
SYMB	-10.9325
▁GMT	-10.9325
mediate	-10.9325
▁applies	-10.9325
YJKyQDAwIIAQELM	-10.9325
▁None	-10.9326
NEW	-10.9327
▁caclen	-10.9327
wYW	-10.933
▁ipstr	-10.933
BgOINwIx	-10.9331
▁CERTIFICATES	-10.9332
Tnv	-10.9332
Enveloped	-10.9332
serverkeygen	-10.9333
Pu	-10.9334
NTLM	-10.9335
2045].	-10.9335
kW	-10.9336
ev	-10.9337
95/	-10.9337
KBgD	-10.9338
▁libest	-10.9338
eKB	-10.9339
▁warning	-10.9339
AMIIBCgKCAQEA	-10.9339
▁communicate	-10.9342
▁like	-10.9347
zaW	-10.9351
GL	-10.9351
_401,	-10.9351
▁removed	-10.9351
kwE	-10.9353
▁1.2	-10.9354
Ohj	-10.9354
pkctx	-10.9354
gnu	-10.9355
qX	-10.9355
▁WSA	-10.9357
▁capab	-10.9358
▁validated	-10.9358
YWI	-10.9358
Pop	-10.936
60/	-10.936
▁asymmetric	-10.9362
ZHNh	-10.9364
▁lib	-10.9365
▁ignored	-10.9369
EaM	-10.9374
cmV	-10.9381
PRE	-10.9384
RY	-10.9385
897/	-10.9393
Asymmetric	-10.9396
double	-10.9397
wgg	-10.94
▁presence	-10.9401
wP	-10.9414
ZXAg	-10.9414
▁mismatche	-10.9415
▁808	-10.9416
VER	-10.9418
▁Go	-10.9418
AgI	-10.9422
DATA	-10.9424
AIg	-10.9433
▁byte	-10.9436
con	-10.9444
▁allowing	-10.9445
vp	-10.945
▁3.5)	-10.9451
wU	-10.9452
▁altlen	-10.9452
▁Protocols	-10.9454
rage	-10.9455
▁depend	-10.9457
▁Subject	-10.9469
▁3.1	-10.9471
QIDAQABo	-10.9472
bid	-10.9474
512	-10.9478
▁my	-10.9483
NS	-10.9484
eSB	-10.9487
saWV	-10.9492
▁loo	-10.9492
())	-10.9492
▁remote	-10.95
▁conversion	-10.9503
/0	-10.9504
bA	-10.9505
▁put	-10.9507
ob	-10.9524
AES	-10.9524
▁Password	-10.9528
▁min	-10.9531
hint	-10.9534
EG	-10.9539
STA	-10.9548
68	-10.9549
KDQp	-10.9556
AIN	-10.9568
RT	-10.9569
sw	-10.9573
ssD	-10.9576
KSSdtI	-10.9577
05,	-10.9578
▁validate	-10.9578
▁tbuf	-10.9583
USER	-10.9594
ual	-10.9599
fX	-10.96
1060/	-10.9614
▁Accept	-10.9619
llocate	-10.962
pB	-10.9622
▁19	-10.9627
GBy	-10.9633
CdX	-10.9643
▁subject	-10.9648
▁To	-10.9652
HE	-10.9661
▁manage	-10.9662
▁coming	-10.9666
Rq	-10.9668
_400,	-10.9673
MRs	-10.9685
strings	-10.9688
▁There	-10.9692
rf	-10.9696
kRTQ	-10.9699
GluZyB	-10.9709
rovision	-10.9731
▁party	-10.9732
▁event	-10.9742
nIG	-10.9745
▁ext	-10.976
--	-10.9772
▁roo	-10.9779
▁methods	-10.9779
gA	-10.9789
12))	-10.9814
1060	-10.9819
▁sets	-10.982
*/	-10.983
MH	-10.9866
Kx	-10.9879
PZ	-10.9888
crls	-10.9889
ANA	-10.9896
▁blob	-10.9897
cJ	-10.9899
Old	-10.9908
▁Fil	-10.9913
.85	-10.9922
▁URIs	-10.9929
▁responses	-10.9937
ATV	-10.9941
MHw	-10.9944
dy	-10.9981
10(	-10.9989
▁6	-10.9992
ADA	-10.9996
IB	-11.0004
vm	-11.0004
▁Encoding	-11.0007
tokens	-11.0007
.8	-11.001
ond	-11.0014
ar	-11.0016
▁IS	-11.0017
scan	-11.003
sB	-11.0039
readable	-11.0059
▁describ	-11.0059
rq	-11.0063
▁strnc	-11.0073
▁6.	-11.0075
Uu	-11.0089
OQ	-11.0093
ir	-11.0097
▁payload	-11.0101
▁exten	-11.0115
Mj	-11.0126
rab	-11.0132
qo	-11.0178
sbCB	-11.0179
▁certific	-11.0222
▁names	-11.0246
Ex	-11.0256
*2)	-11.0266
nrollment	-11.0267
▁*/*	-11.0275
lock	-11.0282
IE	-11.0288
+5	-11.0299
Bgkq	-11.03
NW	-11.0309
|	-11.0334
*2+2	-11.0364
vK	-11.0367
Wl	-11.0367
30	-11.0376
ju	-11.0393
96	-11.0408
▁2)	-11.0417
YJKoZIhvcNAQk	-11.0435
pbiB	-11.0452
XD	-11.0459
sGA	-11.0499
9+	-11.051
wM	-11.0514
alculate	-11.0516
ected	-11.0534
#	-11.0535
ia	-11.0552
29001	-11.0555
oc	-11.057
QQD	-11.0596
do	-11.0599
coming	-11.0618
ma	-11.063
ies	-11.064
▁mgctx	-11.0642
▁__	-11.0658
WR	-11.0686
MZ	-11.0706
QM	-11.0711
ES	-11.0749
hU	-11.0769
og	-11.0776
kI	-11.0787
lLCB	-11.0791
ls	-11.0793
with	-11.0799
IX	-11.0808
rk	-11.082
Final	-11.082
ze	-11.0821
xH	-11.0821
king	-11.0822
Fg	-11.0825
.509	-11.083
509.	-11.0832
Rl	-11.0839
va	-11.084
ka	-11.0845
▁ra	-11.0857
▁31	-11.087
▁Ne	-11.087
1024	-11.0875
▁reuse	-11.0887
la	-11.0897
pl	-11.0903
ms	-11.0912
▁OPTIONAL	-11.0912
10)	-11.0921
Vu	-11.0922
sc	-11.0926
UX	-11.094
NY	-11.0941
QE	-11.0948
lQ	-11.095
cation	-11.0957
Oq	-11.0967
EA	-11.0978
Hy	-11.0994
CX	-11.0996
altptr	-11.1005
fcntl	-11.1006
Sf	-11.1013
must	-11.1023
propagate	-11.1027
whitespace	-11.1028
EE	-11.1029
encode	-11.1034
cipher	-11.1037
approve	-11.1038
access	-11.1044
through	-11.1045
output	-11.1052
**)&	-11.1057
just	-11.1058
fmt	-11.1062
NK	-11.1076
tA	-11.1077
bytes	-11.108
inform	-11.1089
PEN	-11.1091
▁simpl	-11.11
▁(&	-11.1112
vsnprintf	-11.1131
OL	-11.1141
▁1.	-11.1145
▁13	-11.1147
Dy	-11.1151
55	-11.1156
ib	-11.1161
anua	-11.1161
xu	-11.1165
▁inclu	-11.1169
▁wrap	-11.118
symmetric	-11.1183
zA	-11.1184
xld	-11.1188
tcp	-11.119
rint	-11.1203
UTF	-11.1206
/1	-11.1206
SM	-11.1212
Request	-11.1219
ti	-11.1242
ever	-11.1247
74	-11.1266
▁3.5	-11.1274
hlV	-11.1278
ree	-11.1279
edia	-11.1287
▁control	-11.1288
jR	-11.129
▁terminat	-11.1296
YDiDcBM	-11.1308
▁bind	-11.1308
▁confi	-11.131
JBn	-11.1311
Cr	-11.1317
894	-11.1318
▁proper	-11.132
RESOLV	-11.1322
strcspn	-11.1322
EXCEED	-11.1322
AddressToString	-11.1322
▁65535	-11.1322
▁October	-11.1322
▁comparison	-11.1322
▁earlier	-11.1322
▁interface	-11.1322
▁lowercase	-11.1322
dummy	-11.1322
standard	-11.1322
▁Support	-11.1322
▁attack	-11.1322
▁variations	-11.1322
142.9999.2.1883.	-11.1322
▁explanat	-11.1322
▁regard	-11.1322
▁updated	-11.1322
VERSION	-11.1322
▁minimum	-11.1322
extusage	-11.1322
ietf	-11.1322
▁heap	-11.1322
5967]	-11.1322
▁Certification	-11.1322
/7.2	-11.1322
▁overflow	-11.1322
▁protection	-11.1322
BgNVHQ	-11.1323
▁explict	-11.1324
▁Syntax	-11.1324
▁variet	-11.1324
▁least	-11.1324
until	-11.1324
▁newline	-11.1324
▁retain	-11.1324
▁extract	-11.1325
▁lookup	-11.1325
SxT	-11.1325
calloc	-11.1325
▁hard	-11.1325
CRYPT	-11.1325
▁acceptable	-11.1326
EgTnd	-11.1326
mYI	-11.1326
dential	-11.1327
.690	-11.1328
HOSTNAME	-11.1328
DpR	-11.1331
▁traces	-11.1331
81	-11.1331
1060\\	-11.1333
▁rejected	-11.1343
▁digit	-11.1344
plus	-11.1344
Up	-11.1345
NOMEM	-11.1347
VK	-11.1348
IBMQ	-11.1348
CgYEA	-11.1348
▁act	-11.1348
joy	-11.1348
▁You	-11.1349
VFILE	-11.1349
▁"/	-11.135
:80	-11.1352
UN	-11.1353
ZHh	-11.1355
UEAww	-11.1357
▁similar	-11.1361
▁strn	-11.1363
▁chtype	-11.1366
02,	-11.1369
pjj	-11.1373
▁waiting	-11.1375
*,	-11.1377
Bu	-11.138
oL	-11.1383
▁etc	-11.1387
MBYG	-11.139
▁exist	-11.139
TUV	-11.139
7:	-11.1393
oa	-11.1393
▁memc	-11.1395
▁vari	-11.1401
2174/	-11.1403
▁source	-11.1412
▁though	-11.1412
▁purpose	-11.1413
▁total	-11.1422
ECDHE	-11.1423
PP	-11.1429
ZXZ	-11.1437
▁14,	-11.1447
badreq	-11.1453
▁4096	-11.1454
QP	-11.1455
CMP	-11.1463
ENG	-11.1474
▁Decod	-11.1482
▁Secure	-11.1483
FC	-11.1487
▁blocking	-11.1491
MS	-11.1492
▁binding	-11.1497
wqE	-11.1503
▁delimiters	-11.1507
uz	-11.1509
▁overr	-11.1512
bT	-11.1513
▁FOR	-11.1513
ua	-11.1516
EXT	-11.152
▁direct	-11.1543
▁monnum	-11.1543
▁SEQUENCE	-11.1543
▁Authorization	-11.1543
▁secnum	-11.1543
▁mdaynum	-11.1543
▁bearer	-11.1544
▁Host	-11.1544
*)(	-11.156
▁handled	-11.1564
18))	-11.1566
16))	-11.157
hUC	-11.1572
GI	-11.1574
owS	-11.1574
▁addrlen	-11.1585
VR	-11.1589
▁untrusted	-11.1595
▁UTF	-11.1604
TP	-11.1612
Cy	-11.1614
dWr	-11.1621
▁lea	-11.1623
0",	-11.1645
▁day	-11.1655
jO	-11.1657
▁issues	-11.1663
band	-11.1664
YWxs	-11.1678
▁propagate	-11.1696
QG	-11.1698
ol	-11.1706
▁succeeds	-11.1715
▁xclass	-11.1728
66	-11.1741
ically	-11.1753
ted	-11.1759
qD	-11.1767
▁reach	-11.1777
MIICh	-11.1785
OD	-11.1786
pa	-11.1793
ARG	-11.18
TJ	-11.18
ave	-11.1808
ext	-11.1809
nam	-11.1817
ONE	-11.1828
▁config	-11.1843
▁keys	-11.1844
AE	-11.1848
Qy	-11.1855
dp	-11.1864
ST	-11.1883
Ak	-11.1887
▁Private	-11.1897
pu	-11.191
▁enc	-11.1921
jW	-11.1923
pos	-11.1953
(0	-11.1961
Dk	-11.1966
ou	-11.1979
Part	-11.1979
UB	-11.1985
7;	-11.1998
Cp	-11.2007
cept	-11.2007
▁dump	-11.2008
sr	-11.2025
EL	-11.2038
▁modes	-11.2051
NU	-11.2055
▁flags	-11.2057
QOP	-11.208
estServer	-11.2081
NGIN	-11.2094
ks	-11.2108
▁AND	-11.2136
gYDVQQD	-11.2142
ousl	-11.2159
sT	-11.2173
nSY	-11.2178
nh	-11.2197
224	-11.2198
Jk	-11.2208
HAS	-11.2211
Nb	-11.222
mIG	-11.2231
ub	-11.2242
gZ	-11.2259
CON	-11.2262
▁word	-11.2266
erate	-11.2269
ert	-11.2296
FFER	-11.2302
Rn	-11.2309
Dn	-11.2314
Zl	-11.2317
uJ	-11.2318
VH	-11.2338
ory	-11.234
--------------+	-11.2369
wq	-11.2375
29496	-11.2376
fW	-11.2392
sent	-11.2398
CI	-11.2402
UZ	-11.2411
>.	-11.2412
po	-11.2418
FJ	-11.2425
tK	-11.2432
dW	-11.2434
Vv	-11.2443
Lv	-11.2448
▁suppl	-11.2449
▁specifie	-11.2453
4\	-11.2473
yE	-11.248
RS	-11.2482
Yg	-11.249
64)	-11.2497
fU	-11.2501
▁CAcert	-11.2507
+8	-11.2541
mZ	-11.2544
BgcrBgEBAQEWBg	-11.255
SBi	-11.2552
.1)	-11.2562
zC	-11.2574
FL	-11.2581
Bj	-11.2598
▁matrix	-11.2605
wb	-11.2607
wy	-11.2613
Rp	-11.2617
aGF	-11.2618
▁o	-11.2674
▁possession	-11.2678
pS	-11.268
ise	-11.2683
jX	-11.2684
SF	-11.2689
TT	-11.2697
748	-11.271
fj	-11.272
dn	-11.2725
▁ad	-11.2727
Yl	-11.2727
inally	-11.2731
▁chains	-11.2743
fQ	-11.2761
▁20	-11.2762
903	-11.2777
cx	-11.278
SW	-11.2798
SI	-11.2798
▁01	-11.2801
fL	-11.2813
AwYDiDcEEi	-11.2825
Char	-11.2835
GCWCGSAFlAwQCAg	-11.284
85	-11.2848
loc	-11.2866
VV	-11.2868
fR	-11.2868
▁ecdh	-11.2874
age	-11.2877
▁10);	-11.2879
cha	-11.2885
AI	-11.289
bm	-11.2915
VA	-11.2925
saW	-11.293
▁48	-11.2935
nB	-11.2941
aP	-11.2947
day	-11.295
yQ	-11.2963
HTTPS	-11.2968
895	-11.2969
ility	-11.2979
▁BI	-11.2994
Ha	-11.3008
▁Po	-11.3017
lL	-11.3018
uj	-11.303
gd	-11.3051
yX	-11.3056
be	-11.308
kv	-11.3084
CK	-11.3098
AQEFBQADggEBA	-11.3114
▁199	-11.3118
da	-11.3121
art	-11.3121
sing	-11.3152
dr	-11.3156
orrupted	-11.3168
MI	-11.3173
dH	-11.3177
options	-11.3186
As	-11.3209
KE	-11.3227
ZO	-11.3229
ht	-11.3233
cN	-11.3243
SS	-11.3266
nu	-11.3282
92	-11.3288
xz	-11.329
pi	-11.3297
cU	-11.334
▁"123456789	-11.3364
TB	-11.3389
Su	-11.3391
244	-11.3406
ped	-11.3419
rU	-11.3423
temp	-11.3427
***************	-11.343
yW	-11.3445
WX	-11.3449
slashes	-11.3451
jE	-11.3452
Le	-11.3456
QA	-11.3457
kV	-11.3463
AT	-11.3495
perform	-11.35
default	-11.3502
altnames	-11.3502
Algorithm	-11.3502
Accept	-11.3511
▁3.6	-11.3515
require	-11.3517
zh	-11.3519
iJ	-11.3521
ocs	-11.3522
IHlvdS	-11.3523
SK	-11.3524
what	-11.3538
depth	-11.3538
kz	-11.3541
direct	-11.3544
bearer	-11.3545
Authorization	-11.3545
SEQUENCE	-11.3545
mdaynum	-11.3545
recv	-11.3545
monnum	-11.3546
secnum	-11.3547
conversion	-11.3549
Host	-11.355
iW	-11.355
remote	-11.3551
ZP	-11.3552
level	-11.3553
ys	-11.3553
Transport	-11.3553
short	-11.3553
arguments	-11.3554
FIPS	-11.3555
REQUEST	-11.3555
year	-11.3555
remove	-11.3555
crypto	-11.3556
enrollment	-11.3556
DD	-11.3561
untrusted	-11.3562
IC	-11.3565
wait	-11.3566
uA	-11.3569
matched	-11.357
63	-11.3571
Cert	-11.3572
===============+	-11.3574
()))	-11.358
iU	-11.3589
▁uriparse	-11.3598
5+	-11.36
yu	-11.3601
vx	-11.3606
3.	-11.3611
wa	-11.3618
strstr	-11.3623
Uv	-11.3638
ecdh	-11.364
ODkwMTI	-11.3646
CR	-11.3647
▁protect	-11.3656
eed	-11.3667
aGVyZSB	-11.3678
eSANC	-11.3679
pbmcg	-11.3689
YSBwYXk	-11.3689
5273]	-11.3689
JvdW	-11.3691
oLCB	-11.3691
lO	-11.3692
gYmxh	-11.3694
aWRlIH	-11.37
▁Retr	-11.3702
WtlIG	-11.3703
zV	-11.3703
255	-11.3705
ZWFoLCB	-11.3708
dGN	-11.3709
1234567890	-11.3709
Pe	-11.3709
PER	-11.3711
Zf	-11.3712
▁SERVER	-11.3713
_400	-11.3714
WNlLCB	-11.3722
▁Error	-11.3725
aGlzIH	-11.3728
BhbGwg	-11.373
▁Res	-11.3735
XV	-11.374
nvoke	-11.374
ui	-11.3743
dyZSB	-11.3747
JhenkgDQp	-11.3747
ZSANCk	-11.3747
using	-11.375
Xh	-11.3751
▁service	-11.3751
ogus	-11.3752
2.993.8	-11.3755
limited	-11.3757
IHJpZ	-11.3764
▁Valid	-11.3764
nJvbSB	-11.3768
lkIEkg	-11.3769
rCP	-11.3772
ANCkknbSBzdG	-11.3777
▁creat	-11.3783
zYW	-11.3786
simp	-11.3788
yI	-11.3789
Wq	-11.3789
IGZlZXQ	-11.3791
Hz	-11.3795
Base	-11.3796
▁ignore	-11.3797
Add	-11.3798
aCwg	-11.3799
IGR	-11.3809
Fq	-11.3809
AAwDQYJKoZIhvcN	-11.3813
84	-11.3816
▁leve	-11.3816
urrently	-11.3817
ALLOC	-11.3818
MRkwFwYDVQQDExBl	-11.3821
ZXQg	-11.3821
arbitraryLabel	-11.3822
arkins	-11.3822
hcNMT	-11.3822
CALLBACK	-11.3822
ExampleBoundary	-11.3822
INTERVAL	-11.3822
PURPOSE	-11.3822
Repudiation	-11.3822
SYSCALL	-11.3822
jimbob	-11.3822
phrase	-11.3822
possibly	-11.3822
strncasecmp	-11.3822
▁Determine	-11.3822
▁Information	-11.3822
▁Otherwise	-11.3822
▁September	-11.3822
▁component	-11.3822
▁everything	-11.3822
▁improve	-11.3822
▁manufacturer	-11.3822
▁numalts	-11.3822
▁resolve	-11.3822
▁simulat	-11.3822
▁situation	-11.3822
HANDLE	-11.3822
bobcat	-11.3822
▁Identity	-11.3822
▁LAYER	-11.3822
▁scope	-11.3822
800-57	-11.3822
DEPTH	-11.3822
▁"2.999.	-11.3822
▁persiste	-11.3822
PRINT	-11.3822
▁GENERATION	-11.3822
▁reflect	-11.3822
delete	-11.3822
▁left	-11.3822
PEER	-11.3822
PROTO	-11.3822
strspn	-11.3822
Encryption	-11.3822
ules	-11.3822
▁happen	-11.3822
▁exceed	-11.3822
BQADgYEA	-11.3822
▁3.7.	-11.3823
▁bail	-11.3823
RtV	-11.3823
2818]	-11.3823
DISABLE	-11.3823
▁quotechar	-11.3823
Stack	-11.3824
PCq	-11.3825
▁conform	-11.3825
Source	-11.3826
▁capabilities	-11.3826
JAoGBA	-11.3826
2986]	-11.3826
▁insert	-11.3826
▁':'	-11.3827
▁poll	-11.3827
hostcheck	-11.3827
▁big	-11.3827
▁implicitly	-11.3828
▁ATTRIBUTES	-11.3828
4210]	-11.3829
MANY	-11.3829
5958]	-11.3829
▁1900	-11.383
▁walk	-11.3831
▁definition	-11.3831
▁Find	-11.3832
▁pull	-11.3832
ULL	-11.3832
▁suffixlen	-11.3832
eSANCk	-11.3832
▁compile	-11.3834
▁specification	-11.3834
mixed	-11.3835
▁renewed	-11.3837
subjectAltName	-11.3838
▁4.2	-11.3839
2174\\	-11.3841
erialNumber	-11.3841
897\\	-11.3842
▁Hex	-11.3843
VBASE	-11.3847
▁offer	-11.3847
DWO	-11.3849
▁STD	-11.385
▁4.5)	-11.385
▁implemented	-11.3852
OTkuMi	-11.3852
UriA	-11.3853
DQEJ	-11.3853
▁consideration	-11.3854
▁fill	-11.3855
▁mid	-11.3856
the	-11.3856
backslashes	-11.3857
▁initiate	-11.3858
jVR	-11.3859
BBM	-11.386
APB	-11.3861
Uz	-11.3861
resent	-11.3863
▁3.6.2	-11.3864
mMv	-11.3867
▁4.4.1.	-11.3868
Dhc	-11.3869
▁colon	-11.3871
gSSdtIG	-11.3872
▁Bearer	-11.3872
▁secure	-11.3873
▁Operation	-11.3873
▁redirection	-11.3878
IGhlcmUg	-11.3879
extCA	-11.388
lXN	-11.3881
ZZ	-11.3884
▁adv	-11.3885
dir	-11.3886
*.	-11.3887
▁4.1	-11.3894
▁identifier	-11.3896
MJ	-11.3896
▁identical	-11.3904
zE	-11.3904
▁upon	-11.391
Jp	-11.3912
')	-11.3914
BgOINwExX	-11.3915
▁cache	-11.3916
▁digits	-11.392
TAIN	-11.3924
80)	-11.3926
gXt	-11.3931
▁May	-11.3932
mon	-11.3934
ING	-11.3935
COMP	-11.3935
DQYJKoZIhvcNAQEF	-11.3936
CBvb	-11.3938
08,	-11.394
ZGV	-11.3943
▁POLL	-11.3945
Hm	-11.395
▁ostring	-11.3956
5273].	-11.3957
▁32	-11.3959
▁2014	-11.3964
▁2616	-11.3966
dots	-11.3971
▁general	-11.3972
▁4.2.3	-11.3976
▁informati	-11.3982
17))	-11.3983
CBK	-11.3986
gEB	-11.399
▁2015	-11.399
**	-11.3992
vh	-11.3995
vid	-11.3996
purpose	-11.3997
▁+==============	-11.4
uB	-11.4003
sIHlvdSB	-11.4003
zP	-11.4006
cs	-11.4011
▁Identifier	-11.4015
▁fo	-11.4021
▁wants	-11.4024
▁4.1.1.	-11.4026
lIG	-11.4028
▁own	-11.403
▁random	-11.4031
▁Internet	-11.4032
Yh	-11.4034
ZX	-11.4034
▁2012	-11.4036
IHRo	-11.404
tok	-11.4043
sb	-11.4054
ZCB	-11.4061
AIL	-11.4061
lYW	-11.4063
fS	-11.407
▁consisten	-11.4071
▁DAT	-11.4076
tter	-11.4078
lD	-11.408
VO	-11.4081
▁Look	-11.4095
_202,	-11.4099
sD	-11.4108
▁INT	-11.4109
▁recv	-11.4115
_102	-11.4115
gdGhlIG	-11.4121
yq	-11.414
nv	-11.4147
qx	-11.4148
▁locale	-11.4149
▁works	-11.4158
12;	-11.4162
ery	-11.4166
hIG	-11.4168
Bjg	-11.4174
ION	-11.4178
pI	-11.4178
.2.1	-11.4183
RP	-11.419
▁pos	-11.4194
▁awa	-11.42
▁Ver	-11.4203
ak	-11.4206
DJ	-11.4213
cGA	-11.4218
urn	-11.4222
▁strstr	-11.4225
▁authorize	-11.4227
ZXIgZ	-11.4228
modifi	-11.4228
▁corrupt	-11.425
AG	-11.4255
XJlIG	-11.426
hd	-11.4266
Gv	-11.4289
ointer	-11.4297
PN	-11.4315
sec	-11.4318
oG	-11.4319
iAN	-11.4336
tl	-11.4339
▁release	-11.434
▁At	-11.4344
gO	-11.4348
kgb	-11.4348
sCF	-11.4348
▁tzoff	-11.4356
NTA	-11.4357
yk	-11.4362
▁Can	-11.4373
ndCB	-11.4389
oper	-11.4393
Ny	-11.4405
VF	-11.442
▁Authorit	-11.4429
▁certificat	-11.4431
connected	-11.4435
▁backtrace	-11.4443
▁changes	-11.4445
bX	-11.4451
-------	-11.4462
wi	-11.4472
ndP	-11.4473
lI	-11.4483
122	-11.45
Ci	-11.4513
BJIGh	-11.452
0+	-11.4531
source	-11.4542
jAO	-11.4547
RFe	-11.4551
▁xi	-11.4555
nday	-11.4558
cor	-11.456
oAAw	-11.4565
▁signatures	-11.4596
NQ	-11.4611
dest	-11.4618
07	-11.4632
38	-11.4635
iM	-11.4642
aGUg	-11.4646
Uq	-11.4647
WT	-11.4649
Mh	-11.4653
▁ass	-11.4657
ters	-11.4657
BB	-11.4665
ET	-11.4668
DS	-11.4675
wL	-11.4676
ams	-11.4679
SBza	-11.4693
unlock	-11.4694
Rhb	-11.4699
aCB	-11.4704
▁50	-11.4704
▁--	-11.4711
FF	-11.4712
rekey	-11.4716
LOW	-11.4717
EJ	-11.4718
IGCWCGSAFlAwQCAg	-11.4718
PROXYAUTH	-11.4725
CAN	-11.4732
▁vpm	-11.4759
999.	-11.4763
rBg	-11.4765
▁Transfer	-11.4772
▁nor	-11.4774
pJ	-11.4783
KV	-11.4791
jA	-11.4792
mO	-11.4795
AwD	-11.4803
▁connections	-11.4805
bble	-11.4834
GK	-11.4834
▁fh	-11.4837
ble	-11.4844
YSB	-11.4845
IHRoaXMg	-11.485
dll	-11.485
▁60	-11.4862
Vx	-11.4865
]",	-11.4866
ame	-11.4873
Hg	-11.4881
FR	-11.4902
▁tri	-11.4902
jb	-11.4909
▁label	-11.4931
algorithms	-11.4942
tes	-11.4949
Id	-11.4968
06	-11.4976
▁Al	-11.4997
gK	-11.5009
117	-11.5013
df	-11.5016
Uw	-11.5016
▁Free	-11.5018
hbmQg	-11.5018
aGUgc	-11.5023
67	-11.5033
3:	-11.5036
zCCA	-11.5046
keygen	-11.5061
IO	-11.5081
://127.0.0.1:290	-11.5093
XI	-11.5094
▁12	-11.511
fra	-11.5113
Mb	-11.5118
▁1]	-11.5125
ound	-11.5127
wK	-11.513
ql	-11.5134
vbm	-11.5139
kT	-11.5148
Xk	-11.5152
▁400)	-11.5172
Wg	-11.5177
▁UriPa	-11.5199
ners	-11.5201
*2+2)	-11.5202
oBL	-11.5208
vc	-11.5216
line	-11.5218
wz	-11.5232
▁operate	-11.5259
▁pid	-11.5272
AB	-11.5275
xi	-11.5277
vG	-11.5282
DH	-11.5294
Ga	-11.5299
1]	-11.5299
01234567890	-11.5302
1:	-11.5313
NV	-11.5315
ENUM	-11.5318
▁Us	-11.5333
▁LONG	-11.534
▁Remo	-11.535
HB	-11.535
secs	-11.5352
▁su	-11.5371
59	-11.5393
Qm	-11.5401
DAL	-11.543
gM	-11.5432
JN	-11.5433
try	-11.5433
ue	-11.5433
pj	-11.5443
nE	-11.5448
Fi	-11.5456
MO	-11.5465
▁K	-11.5472
://127.0.0.1:29	-11.5479
YM	-11.5501
901	-11.5523
HKoZIzjgEA	-11.5525
PD	-11.553
USE	-11.5559
kj	-11.5609
Pl	-11.5614
EQ	-11.563
0.	-11.5631
▁ones	-11.5656
WH	-11.5708
fq	-11.5711
cj	-11.5718
▁Di	-11.572
"./	-11.5766
151	-11.5773
40	-11.5774
FY	-11.5774
RM	-11.5774
▁pointers	-11.5784
vs	-11.5805
DA	-11.5827
ph	-11.583
oor	-11.5834
SO	-11.5848
▁assum	-11.585
▁Inf	-11.5856
▁2000	-11.5859
Bhb	-11.5871
▁ask	-11.5874
AjE	-11.5885
Ey	-11.5893
tri	-11.5894
iw	-11.5899
▁systems	-11.5948
▁preserv	-11.596
MP	-11.5962
me	-11.5965
uG	-11.5982
▁IE	-11.6022
ose	-11.6035
GENERA	-11.6041
cK	-11.6041
QR	-11.6048
▁sec	-11.605
kt	-11.6052
BZ	-11.6055
FN	-11.6058
Wu	-11.606
HV	-11.6085
▁validat	-11.6099
nY	-11.61
3512	-11.6107
Gc	-11.611
IL	-11.6137
8\	-11.6165
Th	-11.6165
1864	-11.6165
BE	-11.6168
aF	-11.6187
":"	-11.6188
================	-11.6189
fully	-11.6213
TK	-11.6232
▁Mo	-11.6235
▁pem	-11.6241
lm	-11.6241
ers	-11.6245
pdC	-11.6258
Wx	-11.6271
BV	-11.6274
Qt	-11.6281
Ca	-11.6293
6_	-11.6295
WRpbicNCkFuZCBJJ	-11.63
10",	-11.632
Pq	-11.6333
▁deal	-11.6338
896	-11.6342
Sw	-11.6342
dsa	-11.6345
eral	-11.6366
UP	-11.6367
rt	-11.6377
Md	-11.6388
OG	-11.6395
lse	-11.6447
NON	-11.6453
7"	-11.649
Yd	-11.6492
Qk	-11.6495
gD	-11.6502
Fo	-11.6513
EAC	-11.653
pt	-11.654
▁authenticat	-11.654
CQ	-11.6552
zuM	-11.6564
Ko	-11.6565
BH	-11.6569
70	-11.6571
▁param	-11.6589
Jj	-11.6591
zF	-11.661
QD	-11.662
fi	-11.663
GW	-11.6645
Ux	-11.6652
**************	-11.6653
uC	-11.6681
NB	-11.6698
pass	-11.6702
vW	-11.6704
(((	-11.6704
▁128	-11.6731
Pv	-11.6738
act	-11.675
XJ	-11.6752
prefix	-11.6757
rI	-11.676
SIDE	-11.676
OpenSSL	-11.6772
Xf	-11.6777
IHRv	-11.6778
iY	-11.6778
KK	-11.6785
▁se	-11.6785
Av	-11.6793
YXQg	-11.6811
library	-11.6811
buflen	-11.6815
IGdv	-11.6816
mV	-11.6825
yK	-11.6838
Sign	-11.6844
Attributes	-11.6844
Cc	-11.6845
HI	-11.685
loggerfunc	-11.6855
authorization	-11.6856
04	-11.6856
canned	-11.6857
hournum	-11.686
minnum	-11.686
fingerprint	-11.6862
ATTRIBUTE	-11.6866
Internet	-11.687
success	-11.6872
Attempt	-11.6872
issued	-11.6872
Secure	-11.6874
random	-11.6875
blocking	-11.6875
binding	-11.6877
desired	-11.688
delimiters	-11.6881
possible	-11.6881
CACerts	-11.6881
reason	-11.6883
depend	-11.6889
lvl	-11.6891
altlen	-11.6892
buffered	-11.6892
pthread	-11.6893
multip	-11.6893
Token	-11.6895
CMS	-11.6895
enter	-11.6901
UY	-11.6902
53	-11.6914
Identifier	-11.6915
4096	-11.6925
qhk	-11.6944
offset	-11.6962
Data	-11.6962
over	-11.6965
lib	-11.6971
▁origin	-11.6971
In	-11.6973
Vy	-11.6979
wR	-11.698
ernal	-11.6982
For	-11.6982
Mo	-11.7002
▁4.4	-11.7002
kr	-11.7009
lval	-11.7011
HQ	-11.702
SET	-11.7023
ach	-11.703
Uy	-11.7044
nist	-11.7047
ya	-11.7053
nVuIH	-11.7054
▁verifi	-11.706
7\	-11.7062
hvcNAQEBBQAD	-11.7066
▁communication	-11.7067
RaK	-11.7071
mac	-11.7074
ong	-11.7076
▁compar	-11.708
ZtG	-11.708
DCCA	-11.7089
per	-11.709
Hax	-11.7091
ssume	-11.7106
lkZSB	-11.7109
sKd	-11.7117
ontinue	-11.712
▁receiv	-11.7122
vL	-11.7122
pfd	-11.7123
ouble	-11.7123
▁configur	-11.7124
▁Regist	-11.713
kGr	-11.7132
▁understand	-11.7136
TIzNDU	-11.7136
▁term	-11.7136
lobal	-11.7137
AwYDiDcE	-11.7138
RID	-11.7139
ration	-11.7139
▁handl	-11.714
ple	-11.7143
▁block	-11.7144
LlH	-11.7145
nique	-11.7149
apabilities	-11.7149
TUNNEL	-11.715
hannel	-11.715
ootstrap	-11.7151
▁according	-11.7152
mVh	-11.7152
OTkuMhQFM	-11.7154
KNOWN	-11.7155
▁Specifi	-11.7155
▁transfer	-11.7155
abcdef	-11.7155
180-4	-11.7155
IDEzNjgxNDE	-11.7155
WSAStartup	-11.7155
▁Regard	-11.7155
00000001	-11.7155
2617]	-11.7155
2985]	-11.7155
6125]	-11.7155
IDevID	-11.7155
NOSIGNAL	-11.7155
SESSION	-11.7155
SOONER	-11.7155
VALUE	-11.7155
keepalives	-11.7155
▁65536	-11.7155
▁Bindings	-11.7155
▁Control	-11.7155
▁Radius	-11.7155
▁administrator	-11.7155
▁afford	-11.7155
▁arrive	-11.7155
▁caught	-11.7155
▁defensive	-11.7155
▁deprecated	-11.7155
▁destination	-11.7155
▁garbage	-11.7155
▁illegal	-11.7155
▁incomplete	-11.7155
▁mandatory	-11.7155
▁scheme	-11.7155
▁sufficient	-11.7155
FINISHED	-11.7155
comparator	-11.7155
fffffff	-11.7155
strlcpy	-11.7155
▁Field	-11.7155
▁July	-11.7155
▁attached	-11.7155
▁April	-11.7155
▁SignedData	-11.7155
pathHead	-11.7155
▁GetCurrent	-11.7155
▁Indicate	-11.7155
▁element	-11.7155
LATER	-11.7155
▁WARNING	-11.7155
▁interaction	-11.7155
LOCKED	-11.7155
▁2617	-11.7155
LASTSOCKET	-11.7155
▁resumption	-11.7155
peek	-11.7155
▁bufsiz	-11.7155
engine	-11.7155
IOSet	-11.7155
▁Considerations	-11.7155
▁performance	-11.7155
▁Normally	-11.7156
7030	-11.7156
▁4.2.2	-11.7156
▁gracefully	-11.7156
4648]	-11.7156
5246]	-11.7156
5652]	-11.7156
5746	-11.7156
▁active	-11.7156
UNSUPPORTED	-11.7156
▁select	-11.7156
SMALL	-11.7156
▁ioctlsocket	-11.7156
▁important	-11.7157
▁4.1.3	-11.7157
▁4.3).	-11.7157
▁CommonName	-11.7157
▁employed	-11.7157
tZS	-11.7157
▁useful	-11.7157
QYDiDcDBgOINwQT	-11.7158
▁submitting	-11.7158
GETADDR	-11.7158
SHS	-11.7159
▁redirect	-11.7159
▁remain	-11.7159
EBAA	-11.7159
▁882	-11.7159
▁bootstrapping	-11.7159
▁impli	-11.7159
▁every	-11.7159
3394	-11.716
▁2038	-11.716
▁wish	-11.716
▁properly	-11.716
fips	-11.716
▁convey	-11.716
▁indi	-11.7161
▁Specify	-11.7161
lower	-11.7161
DOM	-11.7162
unicode	-11.7162
▁3.3.3).	-11.7162
ZGVtb	-11.7163
▁installation	-11.7164
BCQcxE	-11.7164
ished	-11.7164
▁4.3.2	-11.7164
▁filled	-11.7165
EoD	-11.7165
Socket	-11.7165
▁1970	-11.7165
▁asked	-11.7165
▁stamp	-11.7166
▁exact	-11.7166
FAILED	-11.7167
5785]	-11.7168
▁indication	-11.7168
▁advance	-11.7168
▁cover	-11.7169
903\\	-11.7169
▁intended	-11.7169
748\\	-11.717
VhU	-11.717
▁product	-11.717
5077	-11.7171
jANBgkq	-11.7171
MDAY	-11.7172
▁prefixlen	-11.7172
▁disp	-11.7172
▁','	-11.7172
▁show	-11.7173
▁many	-11.7174
IjA	-11.7175
▁implementation	-11.7175
DESC	-11.7177
898-1	-11.7178
OWJ	-11.718
:-1;	-11.718
erial	-11.7183
whatever	-11.7183
200	-11.7183
▁portion	-11.7187
iven	-11.7188
▁3.6.	-11.719
gR	-11.7191
inter	-11.7194
rn	-11.7195
yers	-11.7196
CONF	-11.7198
getaddrinfo	-11.7199
▁signal	-11.7201
GRvZ	-11.7202
▁Extensions	-11.7204
-1]	-11.7206
▁linked	-11.7207
▁filter	-11.7207
▁worked	-11.7207
▁identifie	-11.7207
▁estclient	-11.7208
YZ	-11.7208
gYm	-11.7214
▁controlle	-11.7217
▁established	-11.7217
KEYSIZE	-11.7219
▁profile	-11.722
▁1400	-11.722
▁DO	-11.7225
▁recognize	-11.7226
▁delta	-11.7226
_204,	-11.7226
+2))	-11.7226
▁nulstr	-11.7226
▁iResult	-11.7227
▁memmove	-11.7227
▁description	-11.7227
▁manually	-11.7229
▁past	-11.7229
bad	-11.7232
Ydc	-11.7233
903/	-11.7235
▁'%	-11.7237
qAT	-11.7238
State	-11.7244
network	-11.7247
▁who	-11.725
UdD	-11.7253
▁3.6.1	-11.7253
DSS	-11.7254
fo	-11.7255
SR	-11.7256
Revoke	-11.7257
nV	-11.7259
formed	-11.7259
uffer	-11.7263
fmO	-11.7263
timezone	-11.7263
ARY	-11.7265
tUp	-11.7265
REV	-11.7266
1159.	-11.7267
ENC	-11.7268
38:	-11.7268
AxE	-11.7271
ddD	-11.7275
ode	-11.7277
GS	-11.7277
HEADERS	-11.7278
▁append	-11.7278
gI	-11.728
Address	-11.7283
nology	-11.7287
▁304	-11.7292
Iv	-11.7293
dGF	-11.7293
New	-11.7294
ts	-11.7295
▁connecting	-11.7295
aHQ	-11.7296
▁purposes	-11.7301
▁dig	-11.7305
Gsz	-11.7305
CRLS	-11.7308
mD	-11.7315
3612-	-11.7318
46:	-11.7322
22:	-11.7328
▁One	-11.7329
bufmem	-11.7336
BhM	-11.7336
▁[%	-11.7338
PX	-11.7338
Qq	-11.7341
▁incorporate	-11.7342
parsed	-11.7343
▁invokes	-11.7345
soft	-11.7346
iel	-11.7347
tur	-11.7349
▁white	-11.735
▁!*	-11.7351
WxsI	-11.7354
23	-11.7363
callstack	-11.7365
▁fou	-11.737
▁imp	-11.7373
yRG	-11.7378
ecommendation	-11.7378
rth	-11.738
AL	-11.7382
ordin	-11.7384
44	-11.7385
AaU	-11.7387
▁smalle	-11.7394
(-1	-11.7399
ram	-11.74
Sk	-11.7406
▁80	-11.7406
gq	-11.7414
%100	-11.7415
▁'.')	-11.7416
ain	-11.7421
Nf	-11.7428
rocedure	-11.7431
geW	-11.7434
▁hl	-11.7436
▁ATTRIBUTE	-11.7444
Cz	-11.7451
sage	-11.7451
▁hints	-11.7456
MHE	-11.7456
▁hournum	-11.746
▁minnum	-11.7461
▁{"5	-11.7462
2616].	-11.7463
verifyhost	-11.7465
▁{"7	-11.747
▁canned	-11.7471
▁ERRNO	-11.7475
17:	-11.7475
vi	-11.7479
_404,	-11.7486
▁ch	-11.7486
▁crypto	-11.7486
oAM	-11.749
▁continues	-11.7493
ea	-11.7509
oval	-11.7509
WIw	-11.7512
ku	-11.7513
▁3.3.2)	-11.7526
URV	-11.7531
gger	-11.7534
dyZ	-11.7537
-256	-11.7539
1005-9	-11.7542
spec	-11.7542
IHR	-11.755
AwYDiDcEEx	-11.756
retval	-11.7574
▁depth	-11.7579
li	-11.7598
IBADA	-11.7598
oZW	-11.7599
hdG	-11.7602
▁cal	-11.7604
JX	-11.7606
▁condition	-11.7608
tic	-11.761
Jm	-11.7621
▁Successful	-11.7622
▁pr	-11.7622
ISO	-11.7622
:"	-11.7624
EwU	-11.7626
SOL	-11.7627
addrinfo	-11.763
ud	-11.7632
FMTIzNDU	-11.7634
main	-11.7638
khj	-11.7652
SMF	-11.7661
36	-11.7672
aG	-11.7674
nso	-11.7678
Gs	-11.7685
JKoZIhvcNAQcCoII	-11.7689
ack	-11.7696
onen	-11.7698
ragm	-11.7702
▁whitespace	-11.7704
qc	-11.7709
JM	-11.771
Ue	-11.7713
mc	-11.7713
item	-11.7714
AwE	-11.7715
Ft	-11.7722
pon	-11.7723
Bk	-11.7731
uF	-11.7734
II	-11.7745
▁16	-11.7751
xdd	-11.7754
▁tcp	-11.7756
having	-11.776
iZ	-11.7765
vq	-11.7767
6)	-11.7768
INTE	-11.7777
▁versions	-11.7788
ZlI	-11.7805
▁parts	-11.7808
refore	-11.7814
Ik	-11.783
NTL	-11.7831
MhQ	-11.7838
py	-11.7843
bGV	-11.7848
LF	-11.7852
XN	-11.7854
rlen	-11.786
RESS	-11.787
dan	-11.7884
fde	-11.7885
Yw	-11.7892
RQY	-11.7895
race	-11.7908
Dz	-11.7926
cm	-11.793
very	-11.7941
one	-11.7948
que	-11.7951
HKwYBAQEBFg	-11.7955
wDQ	-11.7965
245	-11.7965
vb	-11.7965
aum	-11.7978
▁(!*	-11.7984
YQYHKwYBAQEBFgY	-11.799
▁define	-11.7993
Nw	-11.8006
CAQE	-11.8014
.2.3.	-11.8025
bu	-11.8048
▁subj	-11.8049
yd	-11.8051
othing	-11.8058
tech	-11.8069
aes	-11.807
▁8	-11.8076
======+	-11.8084
TS	-11.8111
Gp	-11.8121
AZ	-11.8137
838	-11.8137
gz	-11.8141
enrs	-11.8148
QK	-11.815
zCCAe	-11.8153
nstitute	-11.8157
5272].	-11.8162
IGd	-11.8179
2)))	-11.8189
UO	-11.8212
zm	-11.8224
reused	-11.8254
xce	-11.8255
qg	-11.8271
▁sta	-11.8276
Ur	-11.8285
5/	-11.8286
Py	-11.8294
Mx	-11.8338
wH	-11.8353
SEC	-11.8356
Jf	-11.8358
fV	-11.8362
▁30	-11.8372
aGU	-11.8373
▁4020	-11.8382
zb	-11.8386
ag	-11.8392
stU	-11.841
UV	-11.8418
▁signifi	-11.842
Pm	-11.8423
led	-11.8428
▁423	-11.8433
Mf	-11.8452
Fm	-11.8477
ithe	-11.8489
▁**)&	-11.8489
▁ep	-11.8502
RJ	-11.8516
DQEB	-11.8521
oYW	-11.8545
erc	-11.8546
▁parms	-11.8547
XX	-11.8549
▁disconnect	-11.8556
▁es	-11.8558
256,	-11.8579
▁Un	-11.8595
▁establishe	-11.8626
bin	-11.8629
fb	-11.8634
ZUN	-11.865
bc	-11.865
Lq	-11.8654
JQY	-11.8656
Wxs	-11.8667
lo	-11.8682
Vg	-11.871
1;	-11.8719
QYHKwYBAQEBFg	-11.8722
tdata	-11.8729
256()	-11.8732
EX	-11.8749
xxxxxxxxxxxxxxx	-11.8754
AO	-11.8755
tKs	-11.879
▁Ber	-11.8794
mVl	-11.8798
95	-11.8804
oe	-11.8819
48,	-11.882
22	-11.8821
gB	-11.8828
nteger	-11.8835
▁errors	-11.8835
qU	-11.8844
tW	-11.8846
gN	-11.8861
QC	-11.8869
hN	-11.8875
MBA	-11.8909
sic	-11.8919
ns	-11.8921
tex	-11.8921
Kk	-11.8922
▁reads	-11.8927
jU	-11.8928
KW	-11.8939
▁comp	-11.8947
IQ	-11.8969
▁formats	-11.8974
54	-11.8975
az	-11.8983
Pd	-11.901
pH	-11.9012
ied	-11.9019
bp	-11.9023
Gx	-11.903
har	-11.9031
kdz	-11.9037
AAAD	-11.9037
▁2.	-11.9044
ified	-11.9044
ZF	-11.9055
▁rekey	-11.9068
pb	-11.9075
ul	-11.9076
▁enforc	-11.9078
Ys	-11.9083
/*	-11.9099
docs	-11.9112
LT	-11.9115
▁contents	-11.9122
10:	-11.9137
Hd	-11.9145
cd	-11.9172
▁40	-11.9172
goo	-11.9175
dz	-11.9177
10->	-11.9185
YHKoZIzjgEA	-11.9199
Ym	-11.9201
Dc	-11.9205
ZM	-11.9205
TG	-11.9212
116	-11.9228
Ez	-11.9254
▁++	-11.9259
▁41	-11.93
80	-11.9302
3.2.3).	-11.9313
ence	-11.9319
BER	-11.9322
XDTE	-11.9333
AAA	-11.9383
32)	-11.9387
coded	-11.9387
PU	-11.9391
▁devi	-11.9399
Password	-11.9403
33	-11.9416
na	-11.9417
▁Require	-11.9421
▁3.2.3)	-11.9426
▁SIZE	-11.9434
▁Dis	-11.9437
DP	-11.9453
cL	-11.9455
Ud	-11.9473
Dg	-11.9478
IZ	-11.9478
▁fine	-11.9482
GC	-11.9484
INE	-11.949
ess	-11.95
yH	-11.9509
2[	-11.9511
▁hi	-11.9524
Disabl	-11.9528
hi	-11.9529
VsbC	-11.9549
uen	-11.9552
oll	-11.9563
__,	-11.9569
oY	-11.9576
yN	-11.9598
Rx	-11.9608
Sq	-11.961
cml	-11.9646
event	-11.965
duce	-11.9652
LjI	-11.9668
------	-11.9673
▁(1.2.840.1	-11.9692
bmQgdG	-11.9695
▁MG	-11.9702
round	-11.9702
qv	-11.9711
01/	-11.9731
▁num	-11.9752
Kr	-11.9771
JJ	-11.9781
Hr	-11.9786
RQ	-11.979
KwY	-11.9794
Us	-11.9798
yM	-11.9802
yU	-11.9818
kH	-11.9832
yen	-11.9833
zK	-11.9836
▁Corrupt	-11.9839
/10	-11.9865
YT	-11.9877
▁Sp	-11.988
Agree	-11.9923
BG	-11.9928
wY	-11.9939
nauthorized	-11.9943
▁gra	-11.9951
TOx	-11.9969
▁iterat	-11.9978
IAN	-11.9982
EXTEN	-11.9983
Gm	-11.9986
▁fu	-11.9988
KP	-12.0007
ih	-12.001
DAd	-12.0047
IgZG	-12.0052
BAQUFA	-12.0052
Vw	-12.0085
qm	-12.0093
kIG	-12.0093
▁integr	-12.0135
vT	-12.0139
*************	-12.015
nit	-12.02
MgZ	-12.0226
GG	-12.0254
CO	-12.0258
CRLs	-12.0259
Oj	-12.0259
GX	-12.0296
plain	-12.0327
mq	-12.033
CG	-12.034
To	-12.0343
25	-12.037
11,	-12.0371
qM	-12.0376
XA	-12.0389
KI	-12.0392
so	-12.0403
RI	-12.0408
wG	-12.0412
luZyB	-12.0416
wD	-12.0421
▁g	-12.0422
QW	-12.0427
ify	-12.045
+9	-12.0454
tu	-12.0455
kB	-12.0465
▁29	-12.0473
▁en	-12.0481
▁fun	-12.0485
▁128)	-12.0521
fh	-12.0525
he	-12.0532
▁Lo	-12.0549
Rz	-12.0551
Nba	-12.0552
HM	-12.0553
73	-12.0589
eKt	-12.0591
KA	-12.0596
NIT	-12.0611
85,	-12.0625
▁(0)	-12.0639
Pb	-12.0654
BzCCA	-12.0678
elli	-12.071
Wj	-12.0712
1005-1	-12.0725
Nv	-12.0729
Uf	-12.0742
oYX	-12.0745
250	-12.0759
qi	-12.0761
HT	-12.077
Bx	-12.0773
Hv	-12.079
1159	-12.0791
gF	-12.0807
FV	-12.0808
00	-12.0815
0))	-12.0849
▁Gener	-12.0851
Xs	-12.0862
pk	-12.0867
uw	-12.0868
Gi	-12.087
▁Type	-12.087
ux	-12.0873
Wa	-12.0921
▁4.3	-12.0937
Fj	-12.0943
Case	-12.0962
▁ac	-12.0969
IGl	-12.0971
iu	-12.0973
ell	-12.0974
ersion	-12.0976
bW	-12.1011
2+	-12.1012
part	-12.1013
gbmV	-12.1023
oz	-12.1041
lh	-12.1045
wn	-12.1047
▁bs	-12.1055
3496	-12.1068
▁releas	-12.1076
[1	-12.1087
rid	-12.1096
omain	-12.1115
WU	-12.1132
vice	-12.1146
qu	-12.1184
▁Tr	-12.1185
Info	-12.119
▁Eas	-12.12
Km	-12.121
tQ	-12.1223
▁submit	-12.1239
▁authoriz	-12.1246
XJlI	-12.1254
AQU	-12.1269
▁6,	-12.1269
+4	-12.1273
Bv	-12.1275
RES	-12.1278
YB	-12.132
Ne	-12.1321
/1.2	-12.1359
▁3.2	-12.1368
▁",	-12.1386
ZXIg	-12.1394
jm	-12.1408
▁10	-12.1412
0;	-12.1413
UG	-12.1423
▁mat	-12.1425
gdGhl	-12.1461
ature	-12.1488
are	-12.1499
Nh	-12.1503
sl	-12.152
yst	-12.1523
▁How	-12.1543
KB	-12.1555
103	-12.1565
Gxl	-12.1574
▁"1234	-12.1578
Set	-12.1591
▁'\\')	-12.1595
zIGR	-12.1595
initialize	-12.1603
▁ver	-12.1617
▁consist	-12.1617
eter	-12.1622
lf	-12.1634
SBj	-12.1638
defined	-12.1678
jV	-12.168
EZM	-12.1681
hij	-12.1702
ative	-12.1711
+==============	-12.1727
tended	-12.1731
BkYXRh	-12.1735
▁'.'	-12.1749
▁k	-12.1757
message	-12.1771
optional	-12.1777
UgaG	-12.1778
puts	-12.1781
vision	-12.1782
▁becom	-12.1784
OR	-12.1786
TI	-12.1787
2;	-12.1793
Private	-12.1796
OLO	-12.1799
BD	-12.1801
expect	-12.1803
IGEg	-12.1804
-1:	-12.1807
4086	-12.1818
qh	-12.1826
process	-12.1829
wdaynum	-12.1831
'\0';	-12.1831
storage	-12.1832
Rsx	-12.1835
slnum	-12.1838
allowed	-12.1839
white	-12.184
Subject	-12.1841
expected	-12.1842
EAR	-12.1843
thread	-12.1844
Proof	-12.1847
point	-12.1851
byte	-12.1852
option	-12.1853
"127.0.0.1",	-12.1853
Auth	-12.1856
authenticated	-12.1856
incorporate	-12.1857
2616	-12.1858
▁188	-12.1859
▁determin	-12.1859
accept	-12.1859
contains	-12.186
VQ	-12.1862
Authentication	-12.1862
jn	-12.1863
SHOULD	-12.1863
actual	-12.1864
clear	-12.1864
Initialize	-12.1865
encryption	-12.1867
characters	-12.1869
mL	-12.1872
digit	-12.1872
missing	-12.1875
finished	-12.1876
total	-12.1876
presence	-12.1877
symbol	-12.1877
tunnel	-12.1878
usage	-12.1878
begin	-12.1879
▁GENERA	-12.188
POLL	-12.1881
strength	-12.1882
Application	-12.1885
SP	-12.1888
flow	-12.1892
dm	-12.1893
cache	-12.1895
though	-12.1896
ompleted	-12.1901
▁retriev	-12.1903
GhleS	-12.1912
terminate	-12.1928
xw	-12.1937
exist	-12.1939
ncy	-12.1943
FEREN	-12.1945
▁Ka	-12.1946
GEN	-12.1947
▁help	-12.195
▁spec	-12.1957
▁propagat	-12.1961
Get	-12.1965
ZXA	-12.1976
1/	-12.1976
nJ	-12.1977
BAQUFAAOCA	-12.1979
gZnVuI	-12.1979
wDQYJKoZI	-12.1982
SSdtI	-12.1983
bmQg	-12.1989
ZXJ	-12.1992
uriparse	-12.2001
▁utili	-12.2005
ATION	-12.2007
5929]	-12.2008
YH	-12.2012
DQoNCk	-12.2013
created	-12.2019
xIGRhd	-12.2021
luZ	-12.2023
QgSS	-12.2023
bWUg	-12.2025
oIHl	-12.2029
FuZCB	-12.2029
directions	-12.203
for	-12.2033
war	-12.2035
IHd	-12.2035
knbS	-12.2042
lvdSANCk	-12.2042
SSBo	-12.2045
/100	-12.205
HlvdSB	-12.2053
IGJv	-12.2054
loaded	-12.2064
▁co	-12.2066
uc	-12.2067
Jhenk	-12.2067
sort	-12.2068
wga	-12.2073
▁Extension	-12.2076
gbW	-12.2078
dig	-12.2079
bGw	-12.208
ize	-12.208
------------+	-12.208
▁delimiter	-12.2082
ant	-12.2084
GUg	-12.2086
▁leak	-12.2091
coE	-12.2092
bN	-12.2093
DQp	-12.2094
ccess	-12.2095
▁Thi	-12.2095
1")	-12.2097
oken	-12.2102
IwDQYJKoZI	-12.2104
oCgg	-12.2105
wDAYDVQQ	-12.2105
▁expos	-12.2106
▁repeat	-12.2109
Yy	-12.211
cmUgY	-12.2111
gEA	-12.2115
FuZ	-12.2117
BDw	-12.2117
▁strs	-12.2121
ificate	-12.2121
DDE	-12.2123
Bt	-12.2127
▁documen	-12.213
PADCCA	-12.213
▁expire	-12.2132
WORD	-12.2133
epth	-12.2133
revoke	-12.2135
annot	-12.2136
▁enabl	-12.2139
aGVy	-12.2141
skip	-12.2143
PASSWORD	-12.2143
dw	-12.2144
lb	-12.2144
ieved	-12.2144
▁0.9.	-12.2148
mplementation	-12.2149
yntax	-12.2149
▁consider	-12.2149
▁extra	-12.215
gYW	-12.215
.680	-12.2153
OTkuMiBkYXRh	-12.2153
elimin	-12.2154
521	-12.2154
RXTLuji	-12.2154
klmnopqrstuvwxyz	-12.2155
SUPPORT	-12.2155
▁OpenS	-12.2155
XDTEzMDUwOTIzM	-12.2155
EFgQU	-12.2155
MDUwOTAzNTMzMlow	-12.2155
MDUwOTIzM	-12.2155
OBBYEF	-12.2155
arIyQjwwD	-12.2155
MBsxGTAXBgNVBAMT	-12.2155
MzMyW	-12.2155
VydmVy	-12.2155
zNTIwggEi	-12.2155
MultiByte	-12.2155
AUTHORIZ	-12.2155
▁OldWith	-12.2155
&'()*+,;="	-12.2155
1.3.132.0.34	-12.2155
1.3.6.1.1.1.1.22	-12.2155
13549.1.9.	-12.2155
5274]	-12.2155
="1368141352"	-12.2155
BACKTRACE	-12.2155
BCQcxEhMQ	-12.2155
BggqhkjOPQQDA	-12.2155
CHARS	-12.2155
EBAMCBLAw	-12.2155
Hypertext	-12.2155
KeZi	-12.2155
MzMx	-12.2155
POSTFIELDS	-12.2155
PROXYUSERNAME	-12.2155
REVISION	-12.2155
TRIBUT	-12.2155
WSAIoctl	-12.2155
WdkQOIbntC	-12.2155
WideChar	-12.2155
XDTEzMDUwOT	-12.2155
entities	-12.2155
jmYCSvwTnv	-12.2155
measures	-12.2155
rchitectur	-12.2155
wYDV	-12.2155
▁AttrOrOID	-12.2155
▁December	-12.2155
▁IDENTIFIER	-12.2155
▁IOCTL	-12.2155
▁MESSAGE	-12.2155
▁Publish	-12.2155
▁draft	-12.2155
▁flexibility	-12.2155
▁forgotten	-12.2155
▁immediately	-12.2155
▁interpret	-12.2155
▁overview	-12.2155
▁practice	-12.2155
▁properties	-12.2155
▁responsibility	-12.2155
▁vulnerab	-12.2155
▁Indication	-12.2155
▁mktime	-12.2155
▁Comment	-12.2155
▁NewWith	-12.2155
▁Service	-12.2155
▁absolute	-12.2155
▁constraint	-12.2155
▁traditional	-12.2155
HTTPPROXYTUNNEL	-12.2155
▁TODO	-12.2155
▁fixed	-12.2155
STREAM	-12.2155
▁6125	-12.2155
BAQDAg	-12.2155
DQEJBzA	-12.2155
▁decision	-12.2155
▁'=')	-12.2155
RXhhbXBsZUNBIE	-12.2155
▁master	-12.2155
▁Device	-12.2155
▁primar	-12.2155
UdIwQYMBaAF	-12.2155
▁'*'	-12.2155
▁INFORMATI	-12.2155
▁utilize	-12.2156
2585]	-12.2156
fqdn	-12.2156
▁Param	-12.2156
restrict	-12.2156
▁capability	-12.2156
arning	-12.2156
▁located	-12.2156
▁true	-12.2156
▁kno	-12.2156
jzY	-12.2156
2818	-12.2156
▁derive	-12.2156
▁guar	-12.2156
SHALL	-12.2156
QYDV	-12.2156
▁inherent	-12.2156
2307]	-12.2157
("[%	-12.2157
VQQDExBl	-12.2157
ZJs	-12.2157
gAwIBAgIBF	-12.2157
icated	-12.2157
String	-12.2157
OULD	-12.2157
▁Leve	-12.2157
HLFg	-12.2157
5929	-12.2158
wgSSd	-12.2158
▁Mail	-12.2158
▁De	-12.2158
mask	-12.2158
IHJlc	-12.2159
▁range	-12.2159
▁locked	-12.2159
legal	-12.2159
unction	-12.2159
▁template	-12.2159
▁poor	-12.2159
isdigit	-12.2159
▁secrecy	-12.2159
WITHPOP	-12.2159
.680]	-12.2159
ompliance	-12.2159
mUgbW	-12.216
▁lack	-12.216
LAST	-12.216
YEAR	-12.216
▁accordingly	-12.216
6454]	-12.2161
▁revo	-12.2161
QgdG	-12.2161
▁iteration	-12.2161
phase	-12.2162
BgNVH	-12.2162
SETFL	-12.2162
▁Profile	-12.2162
▁Issuer	-12.2162
lciB	-12.2162
hellman	-12.2162
BoY	-12.2163
Hjo	-12.2164
▁auto	-12.2164
▁tail	-12.2164
7030#10	-12.2164
tiation	-12.2165
▁0.9.6	-12.2165
▁Mode	-12.2165
▁'"'	-12.2165
leading	-12.2165
▁separated	-12.2166
Hpqj	-12.2166
PROXYPASSWORD	-12.2167
Aw	-12.2167
▁4.5.2	-12.2168
mulati	-12.2168
renegotiation	-12.2168
WITH	-12.2172
▁Sym	-12.2173
▁basis	-12.2174
PFL	-12.2174
pIo	-12.2175
▁repeated	-12.2175
▁DIS	-12.2176
ratio	-12.2177
▁mo	-12.2177
▁instan	-12.2178
▁approach	-12.2178
SION	-12.2179
▁allocation	-12.218
78	-12.218
IRS	-12.2181
EXPORT	-12.2181
dgP	-12.2182
KlS	-12.2183
DWORD	-12.2184
ISAL	-12.2184
▁strengthen	-12.2184
▁Inter	-12.2185
mday	-12.2186
▁says	-12.2186
hour	-12.2186
Uniform	-12.2186
BBQ	-12.2186
saved	-12.2187
ostring	-12.2187
▁understanding	-12.2187
commonName	-12.2187
▁tickets	-12.2187
ULT	-12.2188
▁Requirements	-12.2188
ig	-12.2189
GVz	-12.2189
disclose	-12.219
▁Additional	-12.219
2459	-12.2191
▁')'	-12.2192
2119]	-12.2192
6066]	-12.2192
6838]	-12.2193
EFE	-12.2193
▁incre	-12.2196
▁Register	-12.2196
▁initiated	-12.2197
enti	-12.2199
5-10	-12.22
lat	-12.2201
Rw	-12.2202
lk	-12.2203
AJ	-12.2207
▁'('	-12.2208
lBgOINw	-12.2209
▁strtol	-12.2209
MTC	-12.2212
erson	-12.2212
action	-12.2218
ryptograph	-12.2219
▁mis	-12.2219
compa	-12.222
gdG	-12.222
mB	-12.2221
nsure	-12.2224
seconds	-12.2225
▁5054	-12.2227
ALI	-12.2227
xqp	-12.2228
▁norma	-12.2228
▁goes	-12.2229
*60	-12.223
tered	-12.2232
▁leaks	-12.2236
KSS	-12.2237
Zbj	-12.2238
▁Det	-12.2239
9_	-12.224
AMC	-12.2242
LOCK	-12.2243
ujU	-12.2246
046	-12.2247
vdCB	-12.2247
▁bug	-12.225
cF	-12.2252
ZWF	-12.2256
▁conditions	-12.2257
VwI	-12.226
BEG	-12.226
ious	-12.2261
▁libr	-12.2265
Dwh	-12.2265
▁meaning	-12.2266
xposure	-12.2269
AfBg	-12.2275
afe	-12.2275
arg	-12.2277
passw	-12.2277
LR	-12.2277
SEGS	-12.2278
ails	-12.2278
YSR	-12.2279
PROXYTYPE	-12.2279
▁'+'	-12.2281
▁timestamp	-12.2281
▁Encrypted	-12.2281
▁suggest	-12.2281
▁ENROLLMENT	-12.2287
▁Cryptograph	-12.2287
tive	-12.229
niK	-12.2293
▁comma	-12.2295
Pig	-12.2296
OTku	-12.2299
▁communications	-12.23
ROL	-12.2305
▁succeeded	-12.2306
▁"2.993.8	-12.2308
LIC	-12.2309
5929].	-12.231
\"%	-12.2314
REC	-12.2317
ear	-12.2319
▁"-",	-12.2319
BBwGgggM	-12.2324
YGBysGAQEBARY	-12.2328
▁Types	-12.2331
29901	-12.2335
00:	-12.2335
rite	-12.2336
=\"	-12.2337
EYM	-12.2341
-1;	-12.2341
co	-12.2342
lIH	-12.2344
▁overrun	-12.2345
Connect	-12.2348
pp	-12.235
andle	-12.235
ODkwMTIz	-12.235
opp	-12.2355
ter	-12.2368
▁Seq	-12.2374
UDP	-12.2374
2.3	-12.2375
NOSEGMENT	-12.2376
Alternate	-12.2376
YMM	-12.2379
trip	-12.2386
9999	-12.2387
▁3.2.2	-12.2388
indate	-12.239
Jg	-12.2392
utf	-12.2396
7+5	-12.2397
voke	-12.2398
▁termi	-12.24
man	-12.2404
min	-12.2406
▁6.4	-12.2406
▁OB	-12.2411
2633	-12.2412
ocal	-12.242
CES	-12.2422
xff	-12.2422
ecause	-12.2422
jG	-12.2433
ish	-12.2442
yZSB	-12.2443
TQ	-12.2452
rekeyed	-12.2456
ages	-12.2458
her	-12.2462
▁1589	-12.2464
GQ	-12.2464
ring	-12.2464
▁Functions	-12.2473
==========+	-12.2481
▁slnum	-12.2486
▁storage	-12.2489
▁GEN	-12.2489
▁wdaynum	-12.249
yMF	-12.2495
DCB	-12.2497
▁Proof	-12.2499
AaN	-12.2501
▁suppo	-12.2514
4108	-12.2517
Jlc	-12.2519
Pa	-12.252
▁serve	-12.2522
Qgb	-12.2528
HXW	-12.2529
▁fa	-12.2531
Dj	-12.2538
BDwAwggEKAoIBAQC	-12.2542
▁("./	-12.2545
ZB	-12.2546
168	-12.2547
ndu	-12.2549
[12	-12.255
LW	-12.2555
ngo	-12.2558
ga	-12.257
gG	-12.257
WzE	-12.2571
week	-12.2575
_423,	-12.2578
calen	-12.2584
▁conta	-12.2584
lvdSB	-12.2587
handler	-12.2589
▁Anchors	-12.259
BkYXRhBg	-12.2593
▁detect	-12.2601
ZWH	-12.2603
oot	-12.2614
sive	-12.2615
▁Process	-12.2621
aLW	-12.2621
▁lval	-12.2622
EDE	-12.2628
OM	-12.2629
▁once	-12.2629
CBJJ	-12.263
cmUgDQ	-12.2649
▁3.6)	-12.2649
▁alternatives	-12.265
22))	-12.2654
▁Data	-12.2657
LON	-12.2657
290	-12.2657
IBA	-12.2673
WEL	-12.2696
DED	-12.2697
▁loggerfunc	-12.2711
ossession	-12.2712
issing	-12.2715
Is	-12.2721
jack	-12.273
14:	-12.2731
▁expecting	-12.2731
MW	-12.2736
wMD	-12.2738
Ggg	-12.2744
▁Encod	-12.2758
Ho	-12.2763
5:	-12.2767
▁knows	-12.2767
DAP	-12.2767
▁100	-12.2776
_202	-12.2776
par	-12.2777
wd	-12.2781
▁MUT	-12.2782
▁Or	-12.2789
ates	-12.279
▁Ga	-12.2798
▁3.3.3.	-12.2798
xg	-12.2803
vr	-12.2805
dCBo	-12.2806
ZI	-12.2815
PublicKey	-12.2816
▁404)	-12.2827
▁Af	-12.283
hB	-12.2836
Multi	-12.2838
Trans	-12.284
▁ba	-12.284
xpa	-12.2857
▁receives	-12.2873
non	-12.2875
WNl	-12.2875
risk	-12.2883
SA	-12.2889
Ax	-12.2901
ness	-12.2909
ncode	-12.2916
▁Algorithm	-12.2921
▁altnames	-12.2922
itu	-12.2934
fie	-12.2935
EAA	-12.2939
DQpPaC	-12.2941
ERI	-12.2949
RVE	-12.295
▁"1.2.840.10045.	-12.2959
▁Sa	-12.2965
▁slashes	-12.2967
nclud	-12.2971
jo	-12.2974
▁low	-12.2979
xq	-12.2983
▁cer	-12.2986
JK	-12.3
100-	-12.3004
db	-12.3027
gge	-12.3037
▁prove	-12.3042
Ze	-12.3047
▁{"	-12.3054
aptur	-12.3057
akes	-12.3058
OI	-12.3061
.0.1	-12.3065
29/	-12.3068
0/	-12.3072
.&	-12.3081
▁produc	-12.3087
TX	-12.3091
▁GENERAT	-12.3105
PW	-12.312
47,	-12.3124
served	-12.3128
▁fcntl	-12.3135
▁altptr	-12.3139
27.	-12.3139
WB	-12.314
Sm	-12.3142
OU	-12.3149
gkw	-12.315
xh	-12.3157
jpO	-12.3161
objs	-12.3168
DZ	-12.3172
▁ref	-12.3191
1.	-12.3199
Dhe	-12.3201
ply	-12.3203
▁skipp	-12.322
Jq	-12.3226
fJ	-12.3233
ej	-12.3234
ard	-12.3236
aH	-12.3245
YJ	-12.3251
QgaG	-12.3282
Vt	-12.3295
▁defe	-12.3325
Mmk	-12.3336
hs	-12.3348
KU	-12.3349
▁""	-12.3356
7.	-12.3357
▁Uri	-12.336
Eie	-12.3369
THE	-12.3381
▁Fi	-12.3408
lKK	-12.3414
YDVQQDE	-12.3422
15748	-12.3424
▁member	-12.3441
2009.	-12.3446
▁24	-12.3459
Hh	-12.347
************	-12.3476
▁prece	-12.3477
08	-12.3482
ieM	-12.3487
don	-12.3488
FQD	-12.3501
uV	-12.3518
▁3.2.	-12.352
▁alter	-12.3522
KC	-12.3524
net	-12.3527
red	-12.3534
rs	-12.3535
Bhbm	-12.3541
]"	-12.3565
DTLS	-12.3566
ciB	-12.3571
▁MIID	-12.3575
lation	-12.3592
ying	-12.3594
VuI	-12.3598
Ymx	-12.3598
MN	-12.3617
pecify	-12.3622
AiBgOI	-12.3631
FK	-12.3636
ations	-12.3637
899.	-12.3638
fB	-12.3638
Kz	-12.3646
lin	-12.3651
▁4:	-12.3654
▁Call	-12.3658
aI	-12.3676
▁Ad	-12.3681
BQ	-12.3686
▁callbacks	-12.3699
LL	-12.3712
Va	-12.3713
BAQUFAAOCAQEA	-12.3718
FU	-12.3718
gt	-12.3719
sy	-12.3724
ential	-12.3732
▁sort	-12.374
phe	-12.3753
HRvIG	-12.376
▁St	-12.377
64[	-12.3781
JIG	-12.3794
ession	-12.38
▁orig	-12.38
130	-12.3818
Je	-12.3818
GR	-12.3825
"/"	-12.3854
yB	-12.3863
rJ	-12.3864
▁rec	-12.3869
oM	-12.3871
▁cha	-12.3877
/5	-12.3885
idn	-12.3889
Ty	-12.3901
▁"="	-12.3905
qJ	-12.3925
[10	-12.3943
BL	-12.3949
PROXYPORT	-12.396
1122	-12.397
GZ	-12.3972
▁PO	-12.3977
pU	-12.4014
Sock	-12.4019
+6	-12.4028
YeK	-12.4036
▁toupper	-12.4044
Cm	-12.4046
pd	-12.4082
rap	-12.4082
clude	-12.4094
75	-12.4117
Ch	-12.4137
▁simplereenroll	-12.4142
70)	-12.4146
▁util	-12.417
VN	-12.4179
Df	-12.418
jH	-12.4182
▁man	-12.4183
▁IA	-12.4184
9)	-12.4187
RR	-12.4204
MK	-12.4217
rE	-12.422
vio	-12.4221
▁Li	-12.4221
ments	-12.4222
+3	-12.4222
▁**)	-12.425
509*	-12.4257
▁';	-12.4265
lici	-12.4267
Hn	-12.4278
SC	-12.4285
CF	-12.4291
UMg	-12.4296
ft	-12.4319
MX	-12.432
Receive	-12.4342
kb	-12.4354
▁bu	-12.4355
YU	-12.4366
▁sp	-12.4368
kek	-12.4369
oJ	-12.4379
▁bits	-12.4409
ZL	-12.4409
bZ	-12.4419
▁fal	-12.445
▁sources	-12.445
Jr	-12.4451
JI	-12.446
vY	-12.4475
rser	-12.4481
28,	-12.449
▁zk	-12.45
▁HEADER	-12.451
▁5,	-12.451
gi	-12.452
rec	-12.4544
lega	-12.4561
▁tz	-12.4565
ZN	-12.4575
Vz	-12.4597
AX	-12.4599
0]	-12.46
tain	-12.4629
acros	-12.4682
low	-12.4692
PRO	-12.4695
KM	-12.4699
▁6)	-12.4708
▁"1.	-12.4732
98	-12.4745
go	-12.4797
addrs	-12.4802
BAQUF	-12.4808
▁pur	-12.4819
ndf	-12.4822
GhlcmUgY	-12.4837
ement	-12.4837
Yx	-12.4842
tting	-12.4851
edA	-12.4862
▁BA	-12.4886
ANC	-12.4887
▁redu	-12.4889
BS	-12.489
▁Sch	-12.4892
AQY	-12.4916
LN	-12.4939
iO	-12.4943
4020	-12.495
jh	-12.4958
ptionally	-12.4979
MRo	-12.5
JQ	-12.5002
BCD	-12.5026
QPu	-12.5036
wDQYJKoZIhvcN	-12.5067
ving	-12.5069
uo	-12.5072
▁func	-12.5122
▁3))	-12.5124
De	-12.5124
▁certif	-12.513
Ve	-12.5131
yf	-12.5156
▁11)	-12.5156
▁ciphers	-12.5165
▁push	-12.5175
-----------+	-12.5175
Ck	-12.5188
jl	-12.5198
dU	-12.5207
zy	-12.5224
\"	-12.5253
▁1:	-12.5258
JKoZIhvcNAQk	-12.5286
Dw	-12.5292
TET	-12.5294
▁5;	-12.5303
Cf	-12.5308
dit	-12.5335
sbw	-12.5336
tot	-12.5343
AC	-12.5345
▁KEY	-12.5355
▁obj	-12.539
4.3.3	-12.5398
Ya	-12.5416
cu	-12.5426
ski	-12.5428
gsI	-12.5433
▁fact	-12.5468
kd	-12.5468
ho	-12.5472
hM	-12.5486
AQEFBQADggEBAC	-12.5502
MIT	-12.5503
wZw	-12.5507
qH	-12.5518
MAN	-12.5528
rG	-12.5543
▁(1)	-12.5553
▁General	-12.5571
TED	-12.5573
qN	-12.5597
▁(1.2.840.10045.	-12.5618
RH	-12.5628
▁paths	-12.5635
Tx	-12.5653
ure	-12.5654
▁"0123456789	-12.5657
▁tested	-12.5694
▁Bo	-12.5715
31060	-12.5716
vH	-12.5742
▁com	-12.5745
mR	-12.5749
llows	-12.575
Fw	-12.5752
23))	-12.58
▁dict	-12.5838
lvc	-12.5842
PKIX	-12.5857
52	-12.5864
▁Pri	-12.5871
41060	-12.5892
ating	-12.5893
8:	-12.5928
Tj	-12.5935
▁./	-12.5943
▁encou	-12.5943
Wt	-12.5963
14)	-12.5966
▁ce	-12.5969
TCC	-12.5982
rom	-12.5992
ens	-12.5999
DN	-12.6039
GNs	-12.6051
AzNTMzMloX	-12.6065
▁seg	-12.6092
fH	-12.6115
HK	-12.6147
-1	-12.6161
...	-12.6167
▁(12	-12.6169
ash	-12.6177
tional	-12.6178
sq	-12.6197
dB	-12.6206
VX	-12.6222
Lb	-12.6239
UK	-12.6241
fs	-12.625
01	-12.6265
CC	-12.628
kN	-12.629
tj	-12.6303
ning	-12.6304
4/	-12.6306
▁Th	-12.6315
2"	-12.6318
***********	-12.6345
6403	-12.6352
ority	-12.6356
TL	-12.6392
▁SO	-12.6417
YQ	-12.6447
eg	-12.6452
hv	-12.6457
aWx	-12.6483
▁Dist	-12.649
Vo	-12.6515
BgG	-12.6569
xIGRhdGEG	-12.6597
▁defaults	-12.6605
wE	-12.6606
"")	-12.6618
Sj	-12.6628
Sx	-12.6629
Ab	-12.6644
BoYX	-12.6647
496	-12.6654
xW	-12.669
bET	-12.6706
▁Fr	-12.6716
hz	-12.6738
Hj	-12.6744
cQ	-12.6745
AwMT	-12.6756
yz	-12.6768
sary	-12.6773
Ii	-12.6781
DL	-12.6789
▁((*	-12.6813
CM	-12.682
rence	-12.6831
dZ	-12.6836
DK	-12.6854
ox	-12.6869
Np	-12.6921
jQ	-12.6926
fO	-12.6931
Kf	-12.6946
wN	-12.6952
eer	-12.6961
gs	-12.6962
▁mal	-12.6969
Ap	-12.6974
ZH	-12.6974
DTE	-12.6981
Gg	-12.7029
ss	-12.706
WRl	-12.7083
Ht	-12.7087
Hl	-12.7092
ja	-12.7115
▁Retriev	-12.7121
77	-12.7125
▁hel	-12.713
rg	-12.7149
▁times	-12.7228
CONS	-12.7233
2),	-12.7272
FER	-12.7291
TW	-12.7307
Corrupt	-12.7337
▁Fa	-12.7338
202	-12.7358
]=	-12.7385
60	-12.7391
50,	-12.7435
bs	-12.7438
▁triv	-12.7442
Yq	-12.7449
3)))	-12.7457
_64)	-12.7474
BK	-12.7488
wp	-12.7523
Kg	-12.7524
56,	-12.7539
203	-12.7551
nM	-12.7552
oR	-12.7553
-------------+	-12.7557
201	-12.7565
▁calculat	-12.7568
▁cho	-12.7628
nder	-12.7629
kh	-12.7669
vo	-12.7677
rough	-12.7694
iq	-12.7723
QDQ	-12.7728
SBm	-12.7736
▁527	-12.7751
Wv	-12.7757
15)	-12.7768
EZ	-12.7768
7890123456789"	-12.7774
BAQU	-12.7823
▁h	-12.7869
ush	-12.7877
▁tmp	-12.7877
▁multi	-12.7883
QYHKwYBAQEBFgY	-12.792
Zk	-12.7923
NOP	-12.7924
8"	-12.7935
my	-12.794
DQE	-12.7941
kc	-12.7948
lc	-12.7949
.1",	-12.7954
▁Zh	-12.7961
▁contexts	-12.7962
▁Na	-12.798
ist	-12.8018
can	-12.8019
rity	-12.8036
[0]);	-12.8068
ols	-12.8072
Hp	-12.8126
yD	-12.8142
ssion	-12.8161
▁clean	-12.8178
▁36	-12.8178
Mq	-12.8185
▁RETRY	-12.8191
Sv	-12.8227
▁exp	-12.8231
▁Si	-12.8239
sG	-12.8266
dX	-12.8269
UR	-12.8276
▁exclu	-12.8289
Mu	-12.8297
▁cr	-12.8326
hvc	-12.8365
VS	-12.8368
▁br	-12.837
gk	-12.8395
AN	-12.8411
rZ	-12.8427
**********	-12.8431
oF	-12.8437
bSB	-12.8464
▁DI	-12.8496
2.0.	-12.8509
gAwIBAgI	-12.8535
strs	-12.8539
[0])	-12.8553
CCAW	-12.8559
Ov	-12.8562
▁Ioctl	-12.857
25,	-12.8615
ile	-12.8631
ort	-12.8671
Dan	-12.8722
Vn	-12.8725
fD	-12.874
Max	-12.8769
67890123456789"	-12.8771
IHRvIG	-12.8782
ook	-12.8782
yp	-12.8813
used	-12.884
ERRNO	-12.888
100)	-12.892
kf	-12.8928
AQUFAAOCAQEAR	-12.8963
▁42	-12.8999
▁Optional	-12.9004
▁4,	-12.9006
yZ	-12.9014
oncept	-12.9035
▁Failed	-12.904
KF	-12.9042
alled	-12.9068
Bl	-12.907
▁Ha	-12.9076
Me	-12.917
cer	-12.9182
MgY	-12.9195
fG	-12.92
Mn	-12.9262
▁binary	-12.9279
IH	-12.9295
Blk	-12.9324
mX	-12.9341
Dp	-12.9345
▁serv	-12.9353
iate	-12.9394
bS	-12.943
pto	-12.9435
▁Uni	-12.9439
+2	-12.9441
tion	-12.9456
▁manag	-12.9486
DVQQDE	-12.9489
Eq	-12.951
wDQY	-12.9511
that	-12.9534
*********	-12.9577
NP	-12.9581
ck	-12.9583
Nlo	-12.96
IW	-12.9601
Ql	-12.9604
▁wi	-12.9608
layers	-12.9611
fl	-12.9624
▁notif	-12.9639
Kt	-12.9645
.4.	-12.9645
QZ	-12.9677
kR	-12.9682
▁cp	-12.9692
▁Update	-12.9748
aGl	-12.975
Zbo	-12.9759
12,	-12.9765
▁Pro	-12.977
▁beha	-12.9786
fe	-12.9812
yr	-12.9841
XR	-12.9871
▁298	-12.9901
▁lengths	-12.9904
--;	-12.9927
jr	-12.9938
xt	-12.9945
bb	-12.9947
6789012345678	-12.9947
vv	-12.9957
********	-12.9961
uQ	-12.9969
Retr	-13.0001
nC	-13.0011
back	-13.0013
Qnh	-13.0015
pOp	-13.0038
not	-13.0049
▁Con	-13.0067
*******	-13.0068
oS	-13.0085
TRU	-13.009
Kb	-13.0104
▁21	-13.0122
rre	-13.0128
Enabl	-13.0134
mut	-13.0153
4)	-13.0161
97	-13.0177
▁Provi	-13.019
▁uni	-13.0194
Dm	-13.0203
wS	-13.0228
Oi	-13.0234
but	-13.0235
sen	-13.0238
sed	-13.0251
qI	-13.0267
5054	-13.03
22"	-13.0321
Hu	-13.0343
kq	-13.0358
HzEdMBsG	-13.0359
bU	-13.0392
gv	-13.0401
▁dis	-13.044
Qd	-13.0447
Compar	-13.0449
iBy	-13.0463
▁bound	-13.048
******	-13.0491
57	-13.0515
LH	-13.0543
YA	-13.0579
gle	-13.0621
RATION	-13.063
late	-13.0656
nN	-13.068
▁Te	-13.0694
986,	-13.0698
Jo	-13.07
▁move	-13.0701
1883	-13.0723
pip	-13.0727
▁comm	-13.0731
▁STRING	-13.0736
-201	-13.0738
ITE	-13.0767
||	-13.0786
▁59	-13.0803
ABLE	-13.0806
24:	-13.0807
▁acc	-13.0837
▁4.5	-13.0849
SH	-13.0904
▁distin	-13.0908
▁2909	-13.0909
FOR	-13.0914
AgE	-13.0929
IDAQABo	-13.0944
Yf	-13.0953
ttrs	-13.0963
6217	-13.0985
OO	-13.1017
QKBg	-13.1019
TM	-13.1028
ively	-13.1039
old	-13.1054
roduce	-13.1056
21)	-13.1072
How	-13.1085
msd	-13.112
▁fr	-13.1133
edu	-13.1134
pf	-13.1171
23_	-13.1205
▁embed	-13.1208
tn	-13.1209
RUC	-13.1221
DwAwggEKAoIBAQC	-13.1224
Pz	-13.1234
kx	-13.1239
um	-13.125
Hw	-13.1262
layer	-13.1269
commendation	-13.1271
mr	-13.1285
failed	-13.1293
passed	-13.131
ive	-13.1324
12345	-13.1324
5678901234567890	-13.1325
spaces	-13.135
With	-13.1353
kday	-13.1382
VY	-13.1383
joQ	-13.1386
cD	-13.1397
provided	-13.14
IJ	-13.1404
CD	-13.1408
hav	-13.1451
eng	-13.15
blo	-13.1523
aM	-13.1529
specified	-13.1532
Gw	-13.1548
▁ensur	-13.1555
configured	-13.1562
di	-13.1576
Process	-13.1592
ange	-13.1592
▁quote	-13.1592
▁ident	-13.1597
▁complet	-13.1605
specific	-13.1618
wJ	-13.1622
▁999	-13.1627
Qb	-13.1647
▁doubl	-13.1661
Names	-13.1665
TjCCASIw	-13.1666
▁ECDH	-13.167
authenticate	-13.167
▁Author	-13.1677
tp	-13.1691
parameter	-13.1691
ND	-13.1708
Qjg	-13.1711
imezone	-13.1716
*****	-13.1717
DQYJKoZI	-13.1728
some	-13.173
Optional	-13.1734
BBwGggg	-13.1736
Cleanup	-13.1752
suffix	-13.1753
8/	-13.1754
Initial	-13.1755
Go	-13.1769
memcpy	-13.1771
herefore	-13.1773
algorithm	-13.1774
etwork	-13.1783
obtain	-13.1784
general	-13.1792
Copy	-13.1797
refer	-13.1802
common	-13.1818
register	-13.1826
locally	-13.1827
CQY	-13.1828
RECOMMENDED	-13.1836
work	-13.1837
suggest	-13.1839
timestamp	-13.184
grep	-13.1843
'+'	-13.1848
otherwise	-13.1849
placed	-13.1859
nmemb	-13.1859
description	-13.186
memmove	-13.1861
Operation	-13.1861
iResult	-13.1861
nulstr	-13.1863
▁Bu	-13.1863
member	-13.1863
secure	-13.1865
encrypted	-13.1865
recognize	-13.1865
frames	-13.1867
Bearer	-13.1868
integer	-13.1869
Protocols	-13.187
ignored	-13.187
similar	-13.187
Cryptograph	-13.1871
colon	-13.1875
cannot	-13.1876
]);	-13.1877
delta	-13.1885
changed	-13.1886
Look	-13.1888
BT	-13.1889
▁clos	-13.1895
append	-13.1903
processing	-13.1908
WSA	-13.191
ECDH	-13.1918
global	-13.1923
fM	-13.1926
passes	-13.1927
anted	-13.1927
Successful	-13.193
OCf	-13.1931
knows	-13.1934
indicat	-13.1934
PKI	-13.1946
graph	-13.1947
ETFL	-13.1947
jAbMRkwFwYD	-13.1949
▁bootstrap	-13.1951
▁qua	-13.1954
▁4.4.1	-13.1956
1400	-13.1959
like	-13.197
lea	-13.1971
truct	-13.1974
continue	-13.1976
▁desir	-13.1979
got	-13.1983
xxxxxxxx	-13.199
invalid	-13.199
hem	-13.1991
RvIG	-13.1991
cates	-13.1998
ADEA	-13.2001
LTI	-13.2012
HX	-13.2019
Defin	-13.202
/9	-13.2022
jCC	-13.2029
BCz	-13.203
chtype	-13.2033
conf	-13.2034
2045]	-13.2035
IZE	-13.2041
wg	-13.2042
UEAw	-13.2043
ensur	-13.2056
2.1)	-13.2056
▁Wit	-13.2062
rrupted	-13.2063
corrupted	-13.2068
▁ticket	-13.2073
▁Requirement	-13.2074
/4	-13.2074
▁Out	-13.2077
nor	-13.2081
2119	-13.2093
pending	-13.2099
wML	-13.21
pproach	-13.2101
▁challen	-13.2101
5280	-13.2103
BysGAQEBARY	-13.2103
dvance	-13.2104
efinitions	-13.2104
▁trace	-13.2104
ntity	-13.2105
lM	-13.2105
6066	-13.2106
AMCAQ	-13.2108
ekr	-13.2115
PAgMB	-13.212
enegotiation	-13.2122
ctual	-13.2124
identifier	-13.2128
▁separate	-13.2128
▁submi	-13.2129
▁verif	-13.2129
▁mix	-13.2132
ipher	-13.2132
▁negotiate	-13.2132
▁exce	-13.2132
404,	-13.2133
pplies	-13.2133
elimiters	-13.2134
7030#	-13.2135
ellman	-13.2136
oq	-13.2137
▁Issue	-13.2137
efault	-13.2138
▁trans	-13.2139
quire	-13.2139
ficate	-13.2139
4346	-13.214
▁Revo	-13.214
_404	-13.2142
Suite	-13.2142
ley	-13.2142
6838	-13.2143
ropagate	-13.2144
equence	-13.2144
bject	-13.2144
▁conve	-13.2144
IGRhdGE	-13.2145
UNC	-13.2145
▁secrec	-13.2146
▁encrypt	-13.2147
▁employ	-13.2147
famil	-13.2147
ibrary	-13.2148
▁chang	-13.2148
mportant	-13.2149
▁slash	-13.215
xtract	-13.2151
crypt	-13.2151
127.0.0.1	-13.2151
roblem	-13.2151
onfiguration	-13.2151
atrix	-13.2152
▁graceful	-13.2152
CgKCAQEA	-13.2153
asses	-13.2153
opulate	-13.2153
▁descripti	-13.2153
CAwEA	-13.2154
inimum	-13.2154
Comp	-13.2154
aximum	-13.2154
indows	-13.2154
hAgMBAA	-13.2154
esumption	-13.2154
GCSskAwMCCAEBC	-13.2155
▁HEAD	-13.2155
▁ioctl	-13.2155
AoIBAQ	-13.2155
qhkjOPQ	-13.2155
thentication	-13.2155
▁renegot	-13.2155
"1.3.6.1.	-13.2155
CggEBA	-13.2155
arbitrary	-13.2155
xGTAXBgNVBA	-13.2155
▁IDENTI	-13.2155
▁minim	-13.2155
ypical	-13.2155
Number	-13.2155
AwggE	-13.2155
▁RecipientI	-13.2155
COMM	-13.2156
▁writ	-13.2156
purp	-13.2156
ATIVE	-13.2156
▁archi	-13.2157
AAGg	-13.2157
CKET	-13.2157
onfigure	-13.2158
gYDV	-13.2158
▁Windo	-13.2158
ecipient	-13.2158
import	-13.2159
QYJKoZIhvcN	-13.2159
rigin	-13.2159
▁appli	-13.2159
▁communi	-13.2159
possess	-13.2159
▁CSRAttr	-13.216
BzdG	-13.216
5751	-13.2161
QpO	-13.2161
asymm	-13.2161
▁shut	-13.2161
YYY	-13.2161
▁extensi	-13.2162
gIBAD	-13.2162
▁appen	-13.2164
ferred	-13.2165
▁delimi	-13.2166
▁posses	-13.2166
eaders	-13.2167
EgT	-13.2168
xpect	-13.2168
▁advan	-13.2172
BAQEFAA	-13.2173
lves	-13.2174
ponse	-13.2176
AgMBAAG	-13.2178
ality	-13.2178
ock	-13.2178
5652	-13.2178
irect	-13.2179
ization	-13.218
ecau	-13.218
unning	-13.2182
▁gai	-13.2186
IBAQC	-13.219
QcC	-13.219
▁para	-13.2193
2307	-13.2196
.1.2	-13.2201
ail	-13.2204
EBAMC	-13.2204
alue	-13.2204
▁happ	-13.2206
umbe	-13.2208
rule	-13.221
Bvb	-13.2211
▁deli	-13.2213
aylo	-13.2214
iled	-13.2217
mk	-13.2217
▁exam	-13.2217
AgEA	-13.2218
▁cou	-13.2219
xlc	-13.2219
▁repeate	-13.2221
dCd	-13.2221
▁plac	-13.2223
wise	-13.2226
▁shou	-13.2229
▁deci	-13.223
btain	-13.2232
ase	-13.2234
gains	-13.2234
ntil	-13.2236
5958	-13.2236
alho	-13.2238
arsing	-13.2241
uote	-13.2245
PF	-13.2245
gment	-13.2246
▁conti	-13.2249
andom	-13.2253
5967	-13.2253
lkZ	-13.2255
ical	-13.2259
▁Sub	-13.2261
▁fla	-13.2267
▁70	-13.2267
5785	-13.2272
5246	-13.2274
utes	-13.2278
arge	-13.228
Addr	-13.228
App	-13.2282
typedef	-13.2284
ized	-13.2284
uot	-13.2286
TEXT	-13.2286
rev	-13.2288
BACK	-13.2292
nown	-13.2299
ibcurl	-13.23
qual	-13.23
ENROLLMENT	-13.2305
bL	-13.2305
ETF	-13.2307
METH	-13.2309
null	-13.2314
4648	-13.232
SV	-13.2324
utput	-13.2333
3.3).	-13.2338
ELF	-13.234
Gn	-13.2343
ful	-13.2351
▁syn	-13.2351
▁Defin	-13.2354
▁invo	-13.2356
YLZ	-13.2358
aft	-13.2362
▁Han	-13.2364
▁bootstrapp	-13.2364
▁clie	-13.2365
▁boo	-13.2367
▁usa	-13.2368
WjAbMRkwFwYD	-13.2369
IwQ	-13.2371
▁compo	-13.2372
aL	-13.2373
Of	-13.238
arch	-13.2384
CONN	-13.2388
▁prev	-13.2389
cked	-13.2406
uff	-13.2408
omething	-13.2411
All	-13.2413
lict	-13.2415
cNA	-13.2419
▁reco	-13.2421
hpj	-13.2428
KHl	-13.2429
fx	-13.2429
▁earl	-13.2432
HNo	-13.2432
▁convers	-13.2438
tions	-13.2444
lag	-13.2448
ect	-13.2452
cating	-13.246
END	-13.2465
6454	-13.2476
nature	-13.248
UPT	-13.2485
FMT	-13.2493
▁Validat	-13.2498
▁say	-13.2499
▁speci	-13.2503
FTA	-13.2506
▁suffix	-13.2508
192	-13.2514
Eg	-13.252
7(	-13.2529
▁3.3	-13.2531
exis	-13.2535
laye	-13.2542
AMIIB	-13.2544
▁compli	-13.2546
57/	-13.2547
Mem	-13.2555
▁refer	-13.2556
POS	-13.2563
Last	-13.2565
rked	-13.2566
▁Initial	-13.2571
icates	-13.2586
CER	-13.2591
▁priori	-13.2592
1883.	-13.2606
CSv	-13.2607
▁memor	-13.2608
ition	-13.2618
Rkw	-13.2619
GOO	-13.2624
xE	-13.2629
reat	-13.2637
▁recei	-13.2643
eration	-13.2643
Use	-13.2645
fff	-13.2657
orward	-13.2663
LMC	-13.2663
roll	-13.2679
ctions	-13.2706
LI	-13.2708
4210	-13.2709
butes	-13.2715
come	-13.2723
hints	-13.2727
▁conf	-13.2728
GDA	-13.2739
▁*(	-13.2741
hoz	-13.2769
50))	-13.2773
▁CON	-13.2777
JF	-13.2781
SAP	-13.2786
Ghh	-13.2786
Nt	-13.2787
▁finds	-13.2799
ILA	-13.2801
eck	-13.2812
29093	-13.2813
▁3.2.3	-13.2818
▁fall	-13.2831
_204	-13.2835
▁cap	-13.2841
▁well	-13.2845
▁Tra	-13.2853
Nd	-13.2865
413	-13.2868
uct	-13.2877
▁2990	-13.2878
▁MII	-13.2882
958	-13.2886
doe	-13.2888
counter	-13.2889
isal	-13.2894
nopo	-13.2899
Not	-13.29
IxX	-13.2908
▁2009	-13.2914
how	-13.2915
Co	-13.2916
▁Att	-13.2917
ywh	-13.2918
23:	-13.2924
▁Co	-13.2925
DU	-13.2936
ormat	-13.2938
roy	-13.2948
rust	-13.2959
▁origina	-13.2972
XAg	-13.2972
▁spe	-13.2973
bag	-13.2985
▁NO	-13.2987
TAN	-13.2993
turn	-13.2996
7.0	-13.2998
DEy	-13.2999
WS	-13.3008
ork	-13.3017
▁Prot	-13.3032
▁521	-13.3038
enum	-13.3038
clu	-13.3044
986]	-13.305
urns	-13.3052
hile	-13.3065
lB	-13.3076
▁7,	-13.3087
CgY	-13.309
remem	-13.3102
SAGE	-13.3106
▁4.4.	-13.3128
yj	-13.3129
mented	-13.3148
kk	-13.315
mal	-13.3157
RBg	-13.316
cr	-13.3161
mcR	-13.3177
/80	-13.3178
IM	-13.3181
XoB	-13.3181
▁Alt	-13.3181
-9	-13.3188
.3.2	-13.32
dcrl	-13.3205
909	-13.3216
HOR	-13.3219
▁memo	-13.3219
ere	-13.3225
128)	-13.323
_401	-13.3231
CWCGSAFlAwQCAg	-13.3243
Im	-13.3257
789012345678	-13.3263
OB	-13.327
zZ	-13.3273
QGBysGAQEBARYG	-13.3282
524	-13.3283
▁505	-13.3292
▁Info	-13.3298
▁ga	-13.3299
rapping	-13.3302
dj	-13.3335
Kj	-13.3335
PTH	-13.3359
▁q	-13.3362
▁LI	-13.3368
DIG	-13.3369
42.	-13.337
LP	-13.3373
gic	-13.3382
pect	-13.3388
GNA	-13.3389
mic	-13.3397
▁fra	-13.3398
ETR	-13.341
nVuI	-13.3431
Zt	-13.3452
system	-13.3454
lv	-13.3466
▁MA	-13.347
CHE	-13.3476
5.4.	-13.3498
▁sur	-13.3502
RRN	-13.3504
LS	-13.3524
EW	-13.3534
▁4.5.	-13.3535
▁expl	-13.3551
EIb	-13.3565
SMA	-13.3573
▁vi	-13.3584
Ow	-13.3592
▁Z	-13.3596
vJ	-13.3601
bh	-13.3613
UA	-13.3615
requi	-13.3616
ADC	-13.3616
zj	-13.3618
wID	-13.3626
unk	-13.3636
▁203	-13.366
▁attri	-13.3667
YK	-13.3696
ignature	-13.3698
xxx	-13.3698
qp	-13.3698
tively	-13.3698
BM	-13.3699
jw	-13.3706
GO	-13.3712
memset	-13.3721
▁bear	-13.3735
beh	-13.3738
cpy	-13.3755
lenp	-13.376
▁nonc	-13.3761
Pw	-13.3766
TIAL	-13.377
ep	-13.3772
▁"2.	-13.3778
246	-13.3782
Om	-13.3817
2016	-13.3832
▁rout	-13.3845
KeyInfo	-13.3869
moved	-13.387
EGCS	-13.3887
▁prefix	-13.3906
▁opp	-13.3908
KBg	-13.3918
hib	-13.3939
▁dec	-13.3945
egin	-13.3951
186	-13.3968
nr	-13.4009
ERATION	-13.4031
EAwD	-13.4038
▁"1	-13.4047
vat	-13.4056
mand	-13.407
ains	-13.4104
'))	-13.4129
FB	-13.4129
ompare	-13.4149
oundary	-13.4161
▁8)	-13.4165
VG	-13.4167
Jv	-13.4174
fg	-13.4174
jp	-13.4175
3\	-13.4175
ite	-13.4183
wh	-13.4183
ePa	-13.419
56:	-13.4191
xK	-13.4202
Len	-13.4206
aK	-13.4225
drs	-13.4229
DW	-13.4239
Yt	-13.4247
00)	-13.4254
54]	-13.4266
wHzEdMBsG	-13.4292
."	-13.4293
doz	-13.431
▁le	-13.4321
Em	-13.4325
QQ	-13.4349
▁Su	-13.4357
596	-13.4357
Du	-13.4358
Ol	-13.4364
▁ever	-13.4418
ixl	-13.4424
567	-13.445
Ps	-13.4477
0-6	-13.4537
▁tr	-13.4539
DT	-13.4542
AyA	-13.4546
ored	-13.456
fy	-13.4577
▁DES	-13.4613
33]	-13.4614
EGA	-13.4615
ibEST	-13.4623
dsh	-13.4627
DC	-13.4636
ISS	-13.4637
his	-13.4639
▁Win	-13.4646
nted	-13.4714
77,	-13.4716
tup	-13.4717
▁liste	-13.4723
hcN	-13.4723
▁14	-13.4726
▁repl	-13.473
Za	-13.475
Jb	-13.4752
35	-13.4755
bw	-13.4765
zed	-13.4793
▁San	-13.4798
oW	-13.4814
fpr	-13.4844
TUA	-13.4857
PH	-13.4882
hos	-13.4886
zU	-13.4892
▁submitt	-13.4921
ven	-13.4975
1[	-13.499
NLY	-13.4999
qE	-13.5018
Tr	-13.5047
▁her	-13.5059
▁9	-13.507
rin	-13.508
▁vo	-13.5088
="1	-13.512
▁pointe	-13.5156
XW	-13.5158
DX	-13.5162
273	-13.518
▁distributi	-13.5199
SIC	-13.5211
16-	-13.5226
9]	-13.5244
"17	-13.5245
rate	-13.5253
EEN	-13.5262
rma	-13.5278
By	-13.5293
XM	-13.5304
-11	-13.5311
lic	-13.5313
2048)	-13.532
rusted	-13.5336
lar	-13.5342
2]	-13.5347
5272	-13.5366
yID	-13.5367
Rpb	-13.5391
BC	-13.5392
successful	-13.5415
ron	-13.5439
YPO	-13.5451
BAU	-13.5459
▁Fe	-13.5466
▁Ho	-13.5479
23)	-13.5479
ADD	-13.5485
Gl	-13.5486
▁03	-13.5492
tera	-13.5492
JO	-13.5547
Qg	-13.5553
5273	-13.5557
ner	-13.5571
qT	-13.5571
Sa	-13.5579
(1	-13.56
▁sep	-13.5604
YD	-13.5615
cc	-13.5649
wx	-13.5656
kU	-13.5657
My	-13.5658
amode	-13.5689
▁Cr	-13.57
ali	-13.5707
ESS	-13.5709
▁acco	-13.5713
llengePassword	-13.5717
bV	-13.5717
▁unre	-13.5756
Ff	-13.5758
IDk	-13.5827
gl	-13.5835
ily	-13.5853
xp	-13.5866
tt	-13.5877
▁inform	-13.5895
RTA	-13.5899
XK	-13.5903
tY	-13.5904
handled	-13.5922
lose	-13.5932
ot	-13.5994
Bo	-13.603
%4	-13.6038
DG	-13.6041
GENERAT	-13.605
oPC	-13.6051
▁"")	-13.6054
TV	-13.6107
PB	-13.6137
▁4.3.	-13.6139
iA	-13.614
tgo	-13.6158
tM	-13.6172
aE	-13.6205
contents	-13.6209
AQEBBQAD	-13.6222
)|	-13.623
bg	-13.6243
▁Bi	-13.6264
▁lock	-13.6266
dle	-13.6272
VI	-13.6287
xF	-13.6292
4.4	-13.6314
bj	-13.6318
▁chars	-13.6336
NwEx	-13.6343
du	-13.6369
eb	-13.6373
---------+	-13.6376
▁ju	-13.6384
kgD	-13.6437
▁Suc	-13.6439
Cu	-13.6461
Kh	-13.6495
any	-13.6511
pens	-13.6511
aWR	-13.6522
ows	-13.6545
://127.0.0.1:1	-13.6549
▁ro	-13.6583
Ms	-13.659
ILE	-13.6612
ling	-13.6636
hl	-13.666
▁GM	-13.667
RpbicNCkFuZCBJJ	-13.667
▁ecd	-13.6693
Ep	-13.6701
fw	-13.6704
gH	-13.6741
▁pla	-13.6773
gEPADCCAQoCggEBA	-13.6784
qs	-13.6798
nage	-13.68
▁si	-13.6818
EFB	-13.6841
tS	-13.685
fa	-13.6875
▁assu	-13.6894
isti	-13.6899
TZ	-13.6914
delimite	-13.6938
▁wr	-13.6978
xN	-13.698
▁MI	-13.7049
Bgk	-13.7072
GBysGAQEBARYG	-13.7085
pz	-13.7112
dE	-13.7137
BpdC	-13.7178
tv	-13.7193
TER	-13.7213
ust	-13.7232
pted	-13.7236
14,	-13.7263
▁buil	-13.7272
vn	-13.7277
tV	-13.7297
cnV	-13.7386
alt	-13.7394
BJ	-13.7394
aN	-13.7402
octlsocket	-13.7421
fY	-13.7431
ATTRS	-13.7433
times	-13.7446
▁ho	-13.7454
rix	-13.7481
uk	-13.7493
gAwIBAgIB	-13.7499
ases	-13.7501
oA	-13.7503
2585	-13.7511
Vh	-13.7513
▁Ca	-13.7519
▁AI	-13.7534
genc	-13.7547
cZ	-13.7568
NJ	-13.7581
Fs	-13.7617
▁2.2.	-13.7617
ech	-13.7639
3]	-13.7669
nding	-13.7714
URIs	-13.773
xy	-13.7749
YR	-13.7775
-1,	-13.7777
allengePassword	-13.7783
zd	-13.7794
oQ	-13.7807
24,	-13.7807
mI	-13.7817
hy	-13.782
0123456789",	-13.782
Jx	-13.787
%0	-13.7923
dM	-13.7947
▁5)	-13.7962
ONS	-13.7976
▁pu	-13.799
LCA	-13.7998
▁pub	-13.8004
nf	-13.8035
--------+	-13.8036
▁CS	-13.8038
4]	-13.8044
▁33	-13.8057
▁Multi	-13.8114
Lz	-13.821
▁logge	-13.8228
Wz	-13.8248
Zz	-13.8252
MwA	-13.8312
▁resp	-13.8359
Hk	-13.8398
▁52	-13.8416
igh	-13.8438
vD	-13.8479
AW	-13.8537
▁Ja	-13.859
▁(0	-13.8627
uv	-13.8631
td	-13.8712
bq	-13.8804
qq	-13.8822
OPQ	-13.8849
au	-13.8859
ine	-13.8869
dx	-13.8872
ics	-13.8883
▁initiat	-13.8892
Ag	-13.8895
Ks	-13.8906
ore	-13.892
07,	-13.8933
"",	-13.8944
Nx	-13.8955
NI	-13.8955
jd	-13.8992
tected	-13.9038
lon	-13.9112
▁Rest	-13.9192
oI	-13.922
Cx	-13.9279
gate	-13.929
10000	-13.9347
hr	-13.9366
ges	-13.9376
Mg	-13.9382
sE	-13.9405
mi	-13.9417
riParse	-13.9434
su	-13.9434
6789012345	-13.9448
ero	-13.9543
hrough	-13.9572
▁AP	-13.9591
4.	-13.9649
ix	-13.9653
Pat	-13.9668
Da	-13.9739
42	-13.9843
Ao	-13.9881
crBgEBAQEW	-14.0006
Wo	-14.0029
▁mi	-14.0034
pen	-14.0046
TAs	-14.0087
▁Cl	-14.0094
jEg	-14.0097
▁Prop	-14.0098
sC	-14.0142
sbG	-14.0169
Wb	-14.0171
▁integ	-14.0171
anu	-14.0213
Ay	-14.0367
▁em	-14.0371
GBysGAQEBARYGC	-14.044
qY	-14.0522
isable	-14.0525
calculate	-14.063
▁15	-14.0645
UL	-14.0659
▁UT	-14.0659
Qga	-14.0689
OPE	-14.0727
authorized	-14.081
ByaW	-14.0817
jaG	-14.0838
addrlen	-14.0902
ENDED	-14.0927
▁MIIC	-14.1031
sources	-14.1055
ZGUg	-14.107
▁Cha	-14.1089
Se	-14.1105
fn	-14.1134
-------+	-14.1137
HZ	-14.1149
opu	-14.1164
Ra	-14.1208
pX	-14.1231
bk	-14.1271
hw	-14.1323
eyAgree	-14.1324
yG	-14.135
IU	-14.1381
tor	-14.139
ction	-14.1559
At	-14.1564
▁ve	-14.1582
KL	-14.1631
37	-14.1672
93/	-14.1777
ested	-14.1814
aZ	-14.1838
Wr	-14.1899
59)	-14.1902
cR	-14.1942
Xu	-14.1961
pO	-14.2036
yl	-14.2064
▁z	-14.2157
▁22	-14.2202
rary	-14.2213
">	-14.2239
hap	-14.2393
Gq	-14.243
je	-14.2457
46	-14.2461
▁EIN	-14.2503
pbi	-14.2509
05	-14.2602
ISA	-14.2603
UTI	-14.2658
ZS	-14.2661
▁4.	-14.2679
▁(2	-14.2699
Fp	-14.2707
hain	-14.2708
QY	-14.2713
ining	-14.2758
▁39	-14.2777
&	-14.2824
3)	-14.2899
eo	-14.2936
Gd	-14.298
▁occurre	-14.3096
ds	-14.3118
vN	-14.3134
ten	-14.319
res	-14.3195
▁una	-14.322
oft	-14.3262
estart	-14.3277
AwI	-14.3341
xcU	-14.3377
Vi	-14.34
Fe	-14.3411
hbm	-14.3415
av	-14.3474
iX	-14.3527
STRE	-14.3529
ance	-14.3544
lX	-14.3553
----	-14.36
lS	-14.3639
AwM	-14.3653
▁ab	-14.3676
PADD	-14.3682
5)	-14.3762
xB	-14.3844
our	-14.3877
010	-14.3936
▁di	-14.4004
▁Genera	-14.4025
wj	-14.4049
rw	-14.4063
12(	-14.42
vIH	-14.426
▁expo	-14.4405
▁51	-14.4518
DAgE	-14.4553
bility	-14.4563
Bgc	-14.4616
ertification	-14.4633
▁prec	-14.4708
Non	-14.4712
yQj	-14.4795
.)	-14.4839
LC	-14.4887
▁fi	-14.4958
eturned	-14.5023
6-	-14.5057
▁57	-14.5196
qK	-14.5227
zo	-14.5249
FIN	-14.5259
suc	-14.5275
owG	-14.5297
dQ	-14.5301
aC	-14.5435
▁pS	-14.5456
sV	-14.546
yo	-14.5508
fine	-14.551
▁Ba	-14.5559
alr	-14.5631
86]	-14.5687
nde	-14.5733
mJ	-14.576
AzNTMzMlo	-14.5775
YE	-14.5817
▁ENROLL	-14.5835
▁supp	-14.5891
Yb	-14.5902
Wh	-14.597
