<unk>	0
<s>	0
</s>	0
.	-2.70174
▁	-3.47535
▁(	-3.62509
▁*	-3.83545
▁=	-3.9386
;	-3.96131
(	-4.13864
▁/	-4.22585
,	-4.23138
);	-4.28307
)	-4.42974
_	-4.48272
▁the	-4.57338
▁}	-4.76931
▁new	-4.84639
▁{	-4.84796
▁p	-4.86535
▁@	-4.8798
▁"	-4.96828
▁)	-5.04996
s	-5.05497
▁import	-5.07476
();	-5.18746
BagConstraints	-5.20681
ublic	-5.20784
▁+	-5.21005
▁if	-5.25072
▁of	-5.39258
'	-5.45408
▁java	-5.53799
5,	-5.60873
▁Grid	-5.6226
▁return	-5.68616
▁null	-5.70096
o	-5.71723
("	-5.75595
get	-5.77933
i	-5.78888
▁1,	-5.80208
▁void	-5.82322
▁di	-5.83162
");	-5.84167
e	-5.87916
()	-5.88116
▁0,	-5.88588
:	-5.94999
>	-5.96357
▁()	-5.96715
new	-5.9949
▁**	-6.03788
▁e	-6.03835
▁String	-6.04695
▁();	-6.08587
▁a	-6.10053
▁i	-6.13158
▁to	-6.14598
▁for	-6.16179
▁int	-6.16716
▁//	-6.1812
▁il	-6.18801
x	-6.19549
ate	-6.1965
add	-6.20554
a	-6.21173
▁Return	-6.22237
▁priv	-6.23351
",	-6.25458
▁in	-6.26118
▁smos	-6.26287
";	-6.27838
▁l	-6.28249
A	-6.30147
Utils	-6.30844
Exception	-6.31163
0.0,	-6.35099
▁*/	-6.35653
catch	-6.36036
▁<	-6.36179
▁SQLException	-6.36357
▁this	-6.37631
▁Param	-6.38003
▁==	-6.40423
▁/**	-6.42068
constrain	-6.43988
▁grid	-6.47019
▁throws	-6.47131
panel	-6.47194
▁la	-6.49373
gps	-6.49605
▁un	-6.49647
int	-6.51224
set	-6.51309
etour	-6.52249
▁errorMessage	-6.52397
▁unisa	-6.535
▁data	-6.53637
▁gotoPage	-6.57651
otFoundException	-6.58162
re	-6.60662
WEST	-6.61675
▁panel	-6.63359
▁RemoteException	-6.63675
"	-6.63676
jsp	-6.63801
▁L	-6.63879
▁value	-6.65799
▁"./	-6.65919
error	-6.67177
▁al	-6.67735
this	-6.68712
▁throw	-6.7005
param	-6.7021
())	-6.70628
▁del	-6.71439
NONE	-6.72785
false	-6.74209
▁-	-6.74851
DEF	-6.76625
ULT	-6.77847
▁pResponse	-6.77917
1,	-6.78017
ValueException	-6.78608
printStackTrace	-6.81625
MESSAGE	-6.8214
▁result	-6.83848
▁testo	-6.84481
ERROR	-6.85506
▁boolean	-6.86158
▁Connection	-6.86281
▁connection	-6.86763
▁per	-6.87445
▁and	-6.87582
bean	-6.87604
N	-6.87884
▁1.0,	-6.88369
getMessage	-6.89364
▁Environment	-6.90424
NORTH	-6.92175
▁•	-6.92176
▁true	-6.92353
▁static	-6.92487
▁else	-6.93224
/	-6.93748
true	-6.94303
setText	-6.94632
▁false	-6.94773
’	-6.96549
▁5	-6.98638
swing	-6.99577
▁ioException	-7.00196
▁della	-7.00284
String	-7.01559
▁pRequest	-7.02093
throws	-7.02453
());	-7.03529
y	-7.04072
.*	-7.04465
utente	-7.04746
▁class	-7.04973
▁che	-7.05313
util	-7.06173
▁sistema	-7.06904
getText	-7.08919
▁());	-7.08957
Connection	-7.09132
HttpServlet	-7.09929
L	-7.10058
!	-7.10599
▁una	-7.1098
▁0)	-7.13144
▁method	-7.13795
▁dell	-7.13967
▁Utility	-7.15161
id	-7.16794
ackage	-7.18237
▁database	-7.18468
setEnabled	-7.1883
-	-7.18845
▁session	-7.19011
▁msg	-7.19207
▁2	-7.19562
connect	-7.19987
▁is	-7.20276
▁C	-7.20278
▁The	-7.20427
5);	-7.22722
PuntoDiRistoro	-7.23055
exception	-7.23809
SQLException	-7.23832
▁JLabel	-7.24022
ing	-7.24784
▁Label	-7.27071
▁label	-7.27158
▁id	-7.27366
▁ArrayList	-7.27859
Attribute	-7.28598
▁g	-7.29149
▁Date	-7.29841
▁list	-7.29883
▁0;	-7.30083
=	-7.30275
2	-7.30525
▁set	-7.31779
▁le	-7.32358
sql	-7.34014
ervlet	-7.34482
http	-7.34521
▁query	-7.34983
1	-7.36343
length	-7.37135
MessaggiErrore	-7.37171
▁try	-7.37176
▁by	-7.372
ivate	-7.3765
▁Il	-7.38542
ERRORE	-7.38602
▁da	-7.3909
or	-7.39097
▁non	-7.39764
Y	-7.40268
This	-7.40816
1.	-7.40818
d	-7.41794
BeneCulturale	-7.42144
p	-7.42861
3	-7.42985
▁M	-7.43778
ItemListener	-7.44675
S	-7.45377
ActionEvent	-7.45567
Connessione	-7.46167
Date	-7.46243
ends	-7.46323
▁</	-7.46506
▁stat	-7.46831
▁cultural	-7.47247
▁ActionListener	-7.47473
▁server	-7.47668
▁actionPerformed	-7.4803
▁Throw	-7.4853
▁P	-7.48741
▁name	-7.49029
elenco	-7.49244
▁I	-7.49835
awt	-7.50045
▁that	-7.50046
se	-7.50285
storage	-7.50556
▁final	-7.50677
▁dati	-7.5106
▁etich	-7.51258
loggedUser	-7.51567
▁ext	-7.52644
▁4	-7.52899
▁JPanel	-7.53575
LE	-7.53652
2,	-7.54009
▁get	-7.54058
▁ha	-7.54151
grid	-7.54568
setEditable	-7.55815
ddActionListener	-7.55927
▁2,	-7.56195
▁Entity	-7.56332
is	-7.56584
▁initialize	-7.57437
▁TR	-7.58051
▁con	-7.58593
▁stanza	-7.59091
▁cas	-7.59312
▁");	-7.59432
IOException	-7.60215
setLayout	-7.60215
▁System	-7.60386
));	-7.60468
▁ImageIcon	-7.60603
▁all	-7.60661
▁etichetta	-7.60825
(),	-7.6099
<	-7.61017
▁MessageDialog	-7.61188
4,	-7.61884
zione	-7.62099
▁degli	-7.62494
null	-7.62871
iamo	-7.64065
▁TextField	-7.64249
[	-7.64625
yN	-7.6495
Request	-7.65194
Response	-7.6525
ta	-7.65257
User	-7.65763
▁entit	-7.66061
E	-7.66371
▁delle	-7.67117
▁0	-7.67268
▁1.	-7.6799
▁number	-7.68539
▁HttpServlet	-7.69651
stanza	-7.69871
▁pr	-7.69938
ed	-7.70309
▁banner	-7.70475
f	-7.70491
setFont	-7.72175
to	-7.72393
return	-7.72922
▁be	-7.73288
TAB	-7.73448
▁Button	-7.73479
▁not	-7.7358
Principale	-7.74092
ected	-7.74719
setVisible	-7.74742
Null	-7.74839
getId	-7.75032
level	-7.75427
▁invalid	-7.75448
▁case	-7.75777
rot	-7.76076
▁Font	-7.76128
▁lista	-7.76429
▁from	-7.77155
▁Invalid	-7.77265
▁D	-7.77318
▁classe	-7.77343
▁Method	-7.77382
▁nome	-7.7776
▁DBConnection	-7.78179
))	-7.7841
▁User	-7.78875
▁JButton	-7.79152
▁(!	-7.79166
source	-7.80094
out	-7.80642
CENTER	-7.80784
▁Frame	-7.80837
Instance	-7.81479
▁connect	-7.82121
IdPuntoDiRistoro	-7.82193
▁dei	-7.82205
▁conn	-7.82567
▁padre	-7.83506
▁with	-7.83619
scelta	-7.84062
▁Statement	-7.8448
{	-7.84957
▁form	-7.85033
condizioni	-7.85543
▁pIdTurista	-7.85658
png	-7.8575
3,	-7.85797
▁o	-7.85807
▁Visualizza	-7.85885
▁nel	-7.86215
▁Get	-7.8642
0,	-7.87194
direct	-7.87196
ndRe	-7.87258
io	-7.8748
▁S	-7.87569
▁system	-7.87955
▁getRe	-7.87958
▁Panel	-7.87969
▁super	-7.88247
us	-7.88908
▁Set	-7.89201
▁|	-7.90211
▁s	-7.90351
Cre	-7.90546
▁1	-7.91039
▁3,	-7.91144
▁eventi	-7.91147
▁alla	-7.91396
config	-7.93264
Mandatory	-7.93301
testo	-7.93402
FieldException	-7.9408
▁Bean	-7.94405
[0].	-7.94897
▁(),	-7.94903
▁3	-7.95263
▁Se	-7.95337
▁eTour	-7.95695
▁&	-7.95742
▁scelta	-7.95959
Invalid	-7.96629
pRequest	-7.9672
▁[]	-7.96954
▁Operator	-7.97025
")	-7.9727
right	-7.973
▁long	-7.97343
Entity	-7.97401
▁Sistema	-7.98565
▁essere	-7.98948
")));	-7.9943
▁d	-8.00438
opy	-8.00628
▁on	-8.00673
▁Checkbox	-8.00744
▁New	-8.01051
▁ManagerUser	-8.01364
user	-8.01591
anno	-8.01721
font	-8.01727
Version	-8.01777
▁DataBase	-8.02193
▁tag	-8.02527
db	-8.02536
sogg	-8.02645
Sistema	-8.02719
Configurazione	-8.02742
▁metodo	-8.03195
gridbag	-8.03517
▁1;	-8.03551
Dialog	-8.04014
▁conditions	-8.04062
getClass	-8.04095
▁checkboxes	-8.04143
Prenotazione	-8.04253
gridx	-8.04395
getStat	-8.04428
▁F	-8.04517
Bean	-8.04709
UID	-8.0493
▁table	-8.05021
Grid	-8.05386
▁deve	-8.05816
▁doPost	-8.07614
▁you	-8.0762
▁Annulla	-8.07822
▁Version	-8.08191
▁elenco	-8.08384
HttpSession	-8.08519
▁Definizione	-8.08535
▁SE	-8.08715
▁stringa	-8.08794
D	-8.08932
▁modifica	-8.09119
▁search	-8.09435
▁item	-8.09687
▁point	-8.09765
▁come	-8.10402
2.	-8.10448
HER	-8.10615
▁Query	-8.11297
repository	-8.11299
▁b	-8.11401
▁selected	-8.11681
OM	-8.1223
▁Variable	-8.12241
ItemEvent	-8.12241
▁common	-8.12241
ized	-8.12298
Gestione	-8.1232
BeniCulturali	-8.12792
Model	-8.12873
▁numero	-8.12941
▁doGet	-8.12982
▁ID	-8.13135
operazione	-8.13194
▁Interru	-8.13216
equals	-8.13331
toString	-8.13965
next	-8.14154
▁toReturn	-8.14162
▁init	-8.14188
▁operation	-8.14478
▁'	-8.14589
▁[	-8.1463
control	-8.14893
disp	-8.14909
▁se	-8.15096
println	-8.15125
erial	-8.15195
2007	-8.15231
managerUser	-8.15969
▁refreshment	-8.16105
▁JOptionPane	-8.16154
▁codice	-8.16248
▁Of	-8.16252
agenzia	-8.16853
tateChanged	-8.16914
▁Auth	-8.17095
Illegal	-8.17096
▁feedback	-8.17142
▁GridBagLayout	-8.17239
▁utente	-8.17691
("",	-8.17928
Integer	-8.1798
BConnessionePool	-8.18097
rgumentException	-8.18102
Error	-8.18809
query	-8.19052
Home	-8.19118
▁BorderLayout	-8.19285
▁an	-8.19614
conn	-8.20083
result	-8.20108
Flag	-8.20199
[1].	-8.20422
▁tourist	-8.20599
▁Pro	-8.20672
▁BeneServizio	-8.20862
extra	-8.2117
▁Partecipa	-8.22204
▁Salerno	-8.22317
Code	-8.22896
▁frame	-8.22997
ject	-8.23251
▁DMI	-8.23251
▁University	-8.23251
▁Lab	-8.23263
▁compos	-8.23289
Insets	-8.23888
▁Exception	-8.23975
▁ETOUR	-8.24315
gui	-8.24318
operatoreagenzia	-8.24334
▁returns	-8.25071
▁E	-8.25286
SELECT	-8.2539
▁connessione	-8.2539
▁Check	-8.25476
event	-8.2554
▁managerUser	-8.25578
SA	-8.25632
▁jContentPane	-8.25866
nsets	-8.25911
▁1.0	-8.26164
ron	-8.26306
▁sql	-8.26463
URL	-8.26479
▁<=	-8.27215
▁JTextField	-8.27269
▁contain	-8.27276
ManagerClassroom	-8.27641
index	-8.27778
▁password	-8.28199
="	-8.28205
▁"<	-8.28334
▁has	-8.28601
▁otherwise	-8.28687
nch	-8.28714
▁sqlException	-8.28888
BeanTag	-8.28944
▁20	-8.29324
▁FR	-8.29441
▁pannello	-8.29525
▁prenotazione	-8.29571
▁W	-8.29698
▁collegat	-8.29811
width	-8.29812
etodo	-8.29817
▁sy	-8.30014
3.	-8.30806
ondizioni	-8.30861
IMAGES	-8.30948
▁finally	-8.31088
▁jLabel	-8.31926
▁SMOS	-8.32007
▁run	-8.32097
▁ottieni	-8.32386
close	-8.3244
getConnection	-8.32481
connection	-8.32483
▁Conferma	-8.32674
P	-8.32707
▁visualizza	-8.33009
▁Pr	-8.33031
DBMS	-8.3326
▁implements	-8.33317
[1]	-8.34035
Classroom	-8.34297
getParameter	-8.34438
Id	-8.34504
▁Descrizione	-8.34808
▁ricerca	-8.35019
Stanza	-8.35338
Session	-8.35627
▁cui	-8.35627
Cursor	-8.35627
"),	-8.35798
▁num	-8.3593
▁Collection	-8.36102
!=	-8.36192
addItem	-8.36647
▁tags	-8.37737
▁news	-8.37844
DateUtils	-8.37878
data	-8.37997
Operation	-8.38051
size	-8.38083
▁0.1	-8.38089
release	-8.3811
>"	-8.38393
▁Amministratore	-8.38624
gotoPage	-8.3994
n	-8.40042
Teaching	-8.40346
▁conferma	-8.40535
[]	-8.40571
ottieni	-8.40575
▁c	-8.40701
j	-8.40862
▁j	-8.41146
▁Create	-8.41814
▁"+	-8.41833
▁Ricerca	-8.42424
pRs	-8.42554
▁ad	-8.42686
10,	-8.43061
HORIZONTAL	-8.43083
▁rappresenta	-8.43083
▁Utente	-8.43263
▁10	-8.4348
▁nuova	-8.43565
!"	-8.44089
utility	-8.44386
▁or	-8.44723
▁Ritorna	-8.45698
▁dall	-8.45957
▁annulla	-8.46002
pren	-8.46192
▁si	-8.46419
▁ResultSet	-8.46885
▁Integer	-8.47168
6,	-8.47204
▁instance	-8.47227
▁Dimension	-8.47269
▁6	-8.47348
▁pren	-8.47472
▁button	-8.47542
setIcon	-8.47917
▁sul	-8.48214
Bounds	-8.4835
▁pulsante	-8.48388
].	-8.48726
▁start	-8.49114
4	-8.49337
▁stanze	-8.49503
Sogg	-8.49752
valueOf	-8.49784
W	-8.49881
ndo	-8.50176
aDiRicerca	-8.50254
▁""	-8.50599
Name	-8.50698
Agenzia	-8.51163
▁ManagerTeaching	-8.51979
▁event	-8.52056
▁Pre	-8.52109
fine	-8.52256
ArrayList	-8.52322
TitledBorder	-8.5255
▁restitui	-8.52575
▁bean	-8.52841
▁List	-8.52985
r	-8.53062
▁#	-8.53132
▁Nome	-8.53278
es	-8.53697
rilascia	-8.53713
titolo	-8.53978
[0]	-8.54516
Utente	-8.55021
isAdministrator	-8.55458
getString	-8.56052
▁as	-8.56097
▁Tourist	-8.56322
▁tourists	-8.56457
checkboxes	-8.56757
++)	-8.56958
▁studente	-8.57016
▁conto	-8.57245
getInt	-8.57329
]	-8.57501
▁cliente	-8.57594
State	-8.5775
▁Use	-8.58154
Post	-8.58207
teaching	-8.58241
▁La	-8.58801
▁dispose	-8.591
I	-8.59295
▁pId	-8.59768
▁Attor	-8.59888
SCONOSCIUTO	-8.59906
AND	-8.59958
T	-8.60408
▁btnModifica	-8.60503
▁extra	-8.60709
▁object	-8.6082
▁JComboBox	-8.60868
▁interfacce	-8.6137
comm	-8.61404
▁loggato	-8.61446
▁nuovo	-8.61457
▁informazioni	-8.61482
▁modulo	-8.61756
so	-8.62498
▁change	-8.628
VERTICAL	-8.63007
▁which	-8.63007
▁while	-8.63007
▁JScrollPane	-8.63033
▁&&	-8.63037
▁containing	-8.6311
▁inizializza	-8.6314
▁pool	-8.63296
sce	-8.63498
ting	-8.63823
▁U	-8.63953
▁Modifica	-8.63957
BOLD	-8.64594
▁interrotta	-8.64596
parse	-8.64609
▁date	-8.64869
care	-8.65253
of	-8.65483
▁inserisci	-8.65819
▁text	-8.66069
Time	-8.6641
▁float	-8.66438
▁user	-8.66721
▁results	-8.66949
▁modul	-8.67518
Exit	-8.67853
'!	-8.679
▁Iscrizione	-8.6798
ManagerUser	-8.68055
▁error	-8.68584
News	-8.69127
O	-8.69156
▁accesso	-8.69329
▁successful	-8.69505
▁Agency	-8.69513
application	-8.69513
▁selezionato	-8.69526
▁category	-8.69543
▁input	-8.69614
Disponibilita	-8.69737
en	-8.69758
()).	-8.70751
▁model	-8.70778
▁())	-8.70957
JPanel	-8.71119
▁Entry	-8.71208
▁usci	-8.71208
▁Flow	-8.71208
createStatement	-8.71226
▁Cultural	-8.71292
▁Maschera	-8.71351
4.	-8.71446
Environment	-8.71542
[2]	-8.71689
t	-8.71705
){	-8.71852
▁"/	-8.72068
▁12,	-8.72279
Management	-8.72343
▁pid	-8.72345
▁voto	-8.72924
author	-8.72932
▁Quality	-8.72932
▁requirements	-8.72932
▁Actor	-8.72933
setPreferredSize	-8.72958
▁Point	-8.73176
inizio	-8.73268
doGet	-8.73317
errorMessage	-8.73332
rmi	-8.73689
▁dal	-8.73991
ion	-8.74
▁Refreshment	-8.74043
▁stato	-8.7407
weight	-8.74687
▁parent	-8.75001
equenza	-8.75003
setName	-8.75108
▁display	-8.75202
▁pack	-8.75783
▁Punto	-8.76036
htm	-8.76458
dEntityException	-8.76472
▁SQL	-8.76508
BeneServizio	-8.76986
▁double	-8.77025
Absence	-8.7703
▁call	-8.77263
[3]	-8.77578
b	-8.7803
▁errore	-8.78039
▁interface	-8.7829
▁clicca	-8.783
stat	-8.78347
read	-8.78601
able	-8.78601
insegnamento	-8.78823
pIdTurista	-8.78911
Turista	-8.79189
alità	-8.79512
▁index	-8.79801
k	-8.79952
Listener	-8.79968
▁sono	-8.80175
▁intero	-8.80218
▁accademico	-8.80269
▁tipo	-8.80294
one	-8.80492
▁In	-8.80753
▁ManagerRegister	-8.81141
Int	-8.81864
▁invia	-8.81995
BorderFactory	-8.82029
roblemi	-8.82037
▁associato	-8.82045
▁site	-8.82047
▁options	-8.82063
▁/*	-8.82309
JButton	-8.82325
assenza	-8.82583
OK	-8.82649
mod	-8.82692
classroom	-8.82705
▁nell	-8.82987
▁Delete	-8.83018
eGeneriche	-8.83194
li	-8.83211
Data	-8.83239
"./	-8.83784
ption	-8.83954
▁loggedUser	-8.84042
▁image	-8.84403
PuntiDiRistoro	-8.85105
▁pTurista	-8.85106
▁cancella	-8.85193
▁(5,	-8.85804
▁Class	-8.85897
Border	-8.85913
▁True	-8.85913
Java	-8.85923
▁dettagli	-8.8601
▁Remote	-8.86084
6.	-8.86217
[2].	-8.86962
▁sogg	-8.8707
getNumStanz	-8.87271
▁BeanTag	-8.87505
("")	-8.87716
▁provided	-8.87918
)));	-8.88036
▁J	-8.88113
▁check	-8.88387
1);	-8.8858
▁funzion	-8.88694
▁indirizzo	-8.88717
IGestione	-8.88804
▁BeanVisitaBC	-8.88961
▁Fl	-8.89055
7,	-8.89178
▁Re	-8.89338
Rs	-8.89604
Nome	-8.89839
CLASSROOM	-8.89954
▁passato	-8.89963
BeanVisitaBC	-8.90068
h	-8.90088
▁use	-8.90095
9	-8.90432
Ricerca	-8.9074
à	-8.90787
▁message	-8.90875
BeanVisitaPR	-8.90988
BeanTurista	-8.91061
ionManagement	-8.91618
▁file	-8.91974
FormatException	-8.92037
▁delete	-8.923
▁","	-8.92356
▁string	-8.92426
▁BeanPreferenz	-8.92617
▁it	-8.9282
possibile	-8.9316
html	-8.93164
▁A	-8.936
utilizzata	-8.93639
▁Restaurant	-8.94203
▁Object	-8.94281
▁Color	-8.94407
operatore	-8.94939
▁Refreshments	-8.94991
"))	-8.95124
UserListItem	-8.95317
▁exception	-8.9547
C	-8.95572
funzionalit	-8.95644
5.	-8.95987
▁(0,	-8.96298
▁constructor	-8.96338
▁insegnamenti	-8.96339
▁setupPanel	-8.96339
▁take	-8.96339
▁tSql	-8.96341
▁Avviso	-8.96425
▁punto	-8.96428
getNome	-8.96525
anch	-8.96543
▁Inv	-8.9673
▁fine	-8.96826
▁gli	-8.97052
];	-8.97585
indirizzo	-8.97649
Collection	-8.97674
pIdBeneCulturale	-8.98057
▁giustifica	-8.9851
▁nella	-8.9855
BOTH	-8.98561
▁will	-8.98561
way	-8.98564
▁You	-8.98565
▁associated	-8.98571
▁distance	-8.98618
px	-8.98723
Address	-8.98787
▁setId	-8.98801
▁disp	-8.99061
(""))	-8.99117
▁h	-8.9919
▁Prepar	-8.99293
▁insert	-8.99411
TION	-8.99579
#	-8.99621
▁Data	-8.99891
tRs	-9.00005
▁parameter	-9.00179
▁menu	-9.00813
l	-9.00813
▁Us	-9.00846
def	-9.00854
Non	-9.00873
idth	-9.00899
16.	-9.01111
▁puntodiristoro	-9.01244
▁login	-9.01268
▁Servlet	-9.01502
er	-9.02137
▁turista	-9.02143
Soggiornante	-9.02201
manager	-9.02238
address	-9.02335
addebiti	-9.02344
▁ris	-9.02396
create	-9.02399
RemoteException	-9.0242
Errore	-9.02996
▁1)	-9.03155
pBeneCulturaleID	-9.0318
▁mandat	-9.03181
▁btnElimina	-9.03238
▁aRow	-9.03423
see	-9.03497
fill	-9.03551
str	-9.03888
▁m	-9.03983
▁Qu	-9.04139
▁attiva	-9.04279
▁20)	-9.04619
no	-9.05102
Im	-9.05522
▁notifica	-9.05536
=0;	-9.05544
ryFieldException	-9.05591
PR	-9.05654
▁pagella	-9.05822
▁T	-9.06394
doc	-9.06808
getColumn	-9.07179
aus	-9.0726
Addebito	-9.07262
num	-9.07313
BeanPreferenz	-9.07329
▁interro	-9.07397
The	-9.07976
▁Pnom	-9.07979
▁other	-9.0798
▁due	-9.07982
▁datiPR	-9.08157
▁3.	-9.08183
▁visualizzare	-9.08269
▁username	-9.08496
Statement	-9.08705
Visualizza	-9.08795
▁Errore	-9.08901
▁We	-9.08921
R	-9.09282
Of	-9.09321
te	-9.09382
▁="	-9.09425
▁comment	-9.09446
u	-9.09557
▁anno	-9.09658
++	-9.09719
Float	-9.09721
▁[1]	-9.09742
▁B	-9.09798
Annulla	-9.09889
setLast	-9.09958
▁column	-9.10085
mpe	-9.10125
▁Al	-9.10431
▁Connect	-9.10463
▁effettuato	-9.10505
(""+	-9.10521
▁block	-9.10525
getSelectedIndex	-9.10585
▁row	-9.10589
▁inserire	-9.10604
▁btnAzzera	-9.10767
InternalFrame	-9.10823
▁Note	-9.1092
▁ManagerVotes	-9.11097
▁nota	-9.11324
▁2.	-9.11464
▁are	-9.11619
Commento	-9.11768
all	-9.1227
▁To	-9.12284
eph	-9.1272
▁+)	-9.12755
PuntoDiRistoroID	-9.12844
DATI	-9.13042
piatto	-9.13043
▁||	-9.13043
▁management	-9.13043
▁confirmation	-9.13044
▁initialization	-9.13055
▁insertion	-9.13062
▁Verifica	-9.13066
▁root	-9.13133
▁figlio	-9.13169
▁su	-9.13283
▁Elimina	-9.13507
▁settare	-9.13564
▁[0]	-9.14998
th	-9.15111
puntodiristoro	-9.15201
▁Requisit	-9.15341
idPuntoDiRistoro	-9.15463
▁registro	-9.15675
eccezione	-9.15687
getInizio	-9.15711
sione	-9.15773
▁description	-9.15892
▁Otten	-9.16065
▁Cerca	-9.1615
▁t	-9.16305
▁Search	-9.16325
0)	-9.16527
)){	-9.16817
st	-9.16864
▁JDesktopPane	-9.1764
Value	-9.17667
▁position	-9.17728
Lista	-9.17895
remove	-9.17945
year	-9.17963
float	-9.17989
conto	-9.18014
BeanNews	-9.18063
▁th	-9.18121
used	-9.18185
lease	-9.18276
▁information	-9.18378
▁requisiti	-9.18399
▁ritardo	-9.18513
▁remove	-9.18656
Note	-9.19188
32.	-9.19257
▁close	-9.19491
▁active	-9.19848
2;	-9.20322
setId	-9.2064
()))	-9.2067
class	-9.20813
Color	-9.20843
finally	-9.20858
▁pTags	-9.20895
lista	-9.20967
▁8	-9.20993
▁sia	-9.21049
▁brea	-9.21094
images	-9.21135
▁Heritage	-9.21155
▁research	-9.21155
▁property	-9.21155
primo	-9.21158
5	-9.21176
▁TODO	-9.21294
▁setta	-9.21392
▁rest	-9.21416
▁textGuida	-9.21659
▁Gestione	-9.2173
c	-9.22033
▁tRs	-9.22235
▁svolt	-9.22301
▁getId	-9.22636
▁BeanTurista	-9.22637
[11]	-9.22985
Auto	-9.22991
ive	-9.23066
,"	-9.23205
▁pRs	-9.23482
▁Seleziona	-9.23942
▁connessioni	-9.24012
OPTION	-9.24014
▁datiBC	-9.24053
▁pPosizione	-9.2411
▁btnSalva	-9.24156
▁102,	-9.24184
▁And	-9.2426
▁preferences	-9.24394
generate	-9.24397
ag	-9.24555
:"	-9.24685
▁getClass	-9.24853
test	-9.25074
V	-9.25681
up	-9.25788
▁ne	-9.25812
▁JToolBar	-9.25861
▁test	-9.2593
loc	-9.25942
▁Vector	-9.26051
▁trova	-9.26406
Extra	-9.2649
archivio	-9.26568
+"	-9.26659
java	-9.26845
Comune	-9.26924
▁parametro	-9.26954
▁richiesta	-9.26954
height	-9.26964
Column	-9.2697
▁attori	-9.26973
getFine	-9.26987
userManagement	-9.27018
▁Azione	-9.27059
▁<0)	-9.27161
▁Requisito	-9.27328
os	-9.27362
▁G	-9.27589
▁visit	-9.27914
▁ca	-9.28402
▁extract	-9.28412
▁ee	-9.28613
[3].	-9.2899
From	-9.29333
▁fa	-9.2945
JScrollPane	-9.29545
ActionListener	-9.29669
▁compren	-9.29845
BeanBanner	-9.29976
bevanda	-9.29984
contorno	-9.29984
Duplicate	-9.29984
HashMap	-9.29984
▁request	-9.29984
▁lettura	-9.29984
▁messaggio	-9.2999
▁Preferences	-9.29995
▁piu	-9.29997
persist	-9.30013
▁cancel	-9.30132
▁sito	-9.30136
▁btnRicerca	-9.30235
▁pEvent	-9.30778
6	-9.30899
▁exceptions	-9.3106
▁IGestione	-9.31235
11	-9.31342
name	-9.31601
▁gi	-9.32012
▁activate	-9.32285
▁JInternalFrame	-9.32373
▁Result	-9.32437
8	-9.3256
rid	-9.32637
mente	-9.32803
Banner	-9.32831
[4]	-9.32842
corr	-9.32938
version	-9.33033
▁gestione	-9.33076
Commissionamento	-9.33109
EAST	-9.33109
▁inseriti	-9.33109
▁pulsanti	-9.33109
Line	-9.3312
servizio	-9.33138
H	-9.33156
▁setup	-9.33186
Utility	-9.33188
ctors	-9.33267
▁sta	-9.33305
DiRicerca	-9.33491
Tag	-9.3392
▁oggetto	-9.34018
Votes	-9.34225
Event	-9.3433
▁Aggiungi	-9.34402
Object	-9.34485
7	-9.34512
▁no	-9.34663
▁term	-9.35151
▁JTable	-9.35347
▁Turista	-9.35353
▁ex	-9.35702
▁clos	-9.35976
▁cell	-9.36158
8,	-9.36272
nexpected	-9.36319
Hashtable	-9.36335
getItemCount	-9.36335
▁CheckboxGroup	-9.36335
▁False	-9.36335
▁remote	-9.36335
▁Mart	-9.36336
▁page	-9.36381
Serializable	-9.36473
▁7	-9.36501
ca	-9.36767
tables	-9.36792
▁pUsername	-9.36811
▁char	-9.36923
▁crea	-9.36962
▁PPuntoDiRistoro	-9.36977
▁pStr	-9.37066
▁base	-9.37192
co	-9.37417
date	-9.37502
▁Id	-9.3808
▁Stanza	-9.38286
▁Absence	-9.38742
▁Verif	-9.38748
ID	-9.38816
Frame	-9.38894
▁(12	-9.39194
48	-9.39221
table	-9.39248
Location	-9.39555
JTextPane	-9.39668
▁agency	-9.39668
Double	-9.39671
▁given	-9.39673
10	-9.39697
room	-9.39748
give	-9.39764
▁='"	-9.39802
student	-9.39893
text	-9.39953
▁0.	-9.4001
▁It	-9.40019
▁quell	-9.40031
insert	-9.40164
▁year	-9.4018
▁create	-9.4049
▁managerTeaching	-9.40519
ly	-9.41041
br	-9.41533
▁gridbag	-9.41778
▁Pi	-9.41825
▁operations	-9.41951
()));	-9.42302
ResultSet	-9.4265
▁room	-9.42864
le	-9.42932
▁Serializable	-9.42969
▁classi	-9.42977
TEACHING	-9.43056
SwingConstants	-9.43116
Type	-9.43116
▁Constructor	-9.43116
▁caratteri	-9.43116
▁submit	-9.43116
▁recuperare	-9.43116
▁viene	-9.43117
prox	-9.43117
▁scherma	-9.43225
PerPagina	-9.43233
]);	-9.43234
▁location	-9.43337
▁cambio	-9.43403
7.	-9.43438
▁manager	-9.43448
quantita	-9.4349
padre	-9.43536
▁control	-9.43739
▁terms	-9.43822
▁pIdPreferenza	-9.43884
▁Confirm	-9.44088
▁ManagerAddress	-9.44095
▁array	-9.44205
▁addebiti	-9.44344
da	-9.44377
▁!	-9.44432
Advertisement	-9.44494
▁validit	-9.44733
▁html	-9.44813
albergo	-9.45198
Justify	-9.45517
▁temp	-9.45857
[5].	-9.45895
eDiRicerca	-9.46035
▁pRow	-9.46201
▁quantita	-9.46308
▁teaching	-9.46358
OR	-9.46419
3;	-9.46597
▁statistiche	-9.46669
addMouse	-9.46688
executeQuery	-9.46688
▁Convention	-9.46688
▁Interface	-9.46688
▁PKeyword	-9.46688
▁rightPanel	-9.46688
executeUpdate	-9.46689
▁type	-9.46692
▁255)	-9.46697
▁bene	-9.467
▁carica	-9.46712
stag	-9.46821
NumeroElementi	-9.46822
justify	-9.4686
▁datiTurista	-9.46863
▁Add	-9.4687
▁tableBC	-9.47015
votes	-9.47167
pTags	-9.47199
DataBase	-9.4724
jLabel	-9.4724
accesso	-9.47257
managerClassroom	-9.47525
▁>	-9.47668
▁pResultSet	-9.47675
▁back	-9.477
ValueAt	-9.48174
▁BeanVisitaPR	-9.48581
▁student	-9.48738
12	-9.49035
▁prima	-9.49148
ce	-9.49274
Delay	-9.49506
ono	-9.49517
▁(18	-9.49601
▁arg	-9.49758
g	-9.4978
soggiornanti	-9.50239
ContentPane	-9.50348
","	-9.5037
lang	-9.50391
Salva	-9.50391
ipad	-9.50391
▁comm	-9.50397
▁successfully	-9.50409
Letto	-9.50423
show	-9.50434
▁btnAttiva	-9.5046
sente	-9.50469
▁deleted	-9.50507
▁H	-9.50539
▁edit	-9.50633
amministratore	-9.50974
[12]	-9.50988
exists	-9.51013
getAcademicYear	-9.51029
stanze	-9.51076
▁Con	-9.51206
▁Classe	-9.51349
==	-9.51427
execute	-9.51478
ask	-9.51482
▁3;	-9.52088
▁presente	-9.52272
▁classroom	-9.52302
[0],	-9.52335
ir	-9.52389
▁out	-9.52483
BC	-9.52767
ul	-9.52782
▁ask	-9.53485
▁Operatore	-9.53882
▁-1	-9.53886
Comm	-9.53923
▁allow	-9.54198
▁who	-9.54219
Pos	-9.54227
▁Database	-9.54235
UtentiRegistrati	-9.54237
VOTES	-9.54237
removeAll	-9.54242
▁dialog	-9.54309
▁tableTuristi	-9.54313
▁pensione	-9.54415
[4].	-9.54427
DI	-9.5446
▁giorno	-9.54559
▁dato	-9.5465
▁str	-9.54812
▁province	-9.54815
▁modificare	-9.54843
TEST	-9.54868
▁card	-9.54987
▁!(	-9.54996
▁(0)	-9.55003
clienti	-9.55017
pVotes	-9.55018
▁pColumn	-9.55073
prenotazione	-9.55079
▁View	-9.55202
gisterManagement	-9.55251
▁pPassword	-9.5544
ario	-9.55716
getName	-9.55883
Year	-9.55893
▁lo	-9.55899
Cod	-9.56123
▁present	-9.56268
▁tot	-9.56285
getNum	-9.56602
▁do	-9.56773
bc	-9.56779
▁Classroom	-9.56906
+1	-9.57387
tf	-9.57452
▁inizio	-9.57463
▁add	-9.57472
▁Ma	-9.5754
nte	-9.57651
▁note	-9.57653
ical	-9.57795
▁Un	-9.57886
)))	-9.57974
▁Lista	-9.58119
▁function	-9.58226
Valuta	-9.58237
▁orarioApertura	-9.58237
▁orarioChiusura	-9.58237
group	-9.58238
pId	-9.58242
▁duplicate	-9.58263
▁good	-9.58441
▁today	-9.58492
ElementiRicerca	-9.58695
▁setPreferred	-9.58707
Longitudine	-9.58714
base	-9.59047
getDescrizione	-9.59118
supp	-9.5917
JInternalFrame	-9.59216
▁desk	-9.59231
Punto	-9.59233
pannello	-9.59237
pRow	-9.59245
OperatoreAgenzia	-9.59575
▁'"	-9.59685
▁component	-9.59713
IdTurista	-9.60061
▁Tourists	-9.60255
▁was	-9.60728
▁insegnamento	-9.6119
setNome	-9.61316
▁IdTurista	-9.61408
14	-9.61724
Preferit	-9.62083
Empty	-9.62348
licca	-9.62387
Form	-9.62395
Commissioni	-9.62404
pDistanzaMassima	-9.62404
▁docente	-9.62404
Specifi	-9.62405
▁notify	-9.62405
▁identifier	-9.62406
▁finestra	-9.62409
▁reg	-9.6245
RSO	-9.62477
pg	-9.62488
secondo	-9.62509
0	-9.62533
▁btnAnnulla	-9.62616
▁sh	-9.6266
▁aver	-9.62665
▁relativo	-9.62724
▁count	-9.6288
▁2009	-9.62906
▁Insert	-9.62947
delay	-9.62949
absence	-9.6295
▁logged	-9.62984
▁account	-9.63171
loadRecord	-9.63382
▁rating	-9.63449
JDesktopPane	-9.6357
JTextField	-9.63601
MessageDialog	-9.63605
has	-9.63643
pTeaching	-9.63752
▁mostra	-9.63859
▁condizioni	-9.63949
▁pMessage	-9.64065
▁5)	-9.6409
▁JTabbedPane	-9.64286
▁images	-9.64366
▁sup	-9.64522
▁font	-9.64587
▁Uni	-9.64986
+	-9.65281
ena	-9.65297
▁day	-9.65344
▁relat	-9.65377
Latitudine	-9.65828
▁bc	-9.65839
▁validi	-9.65893
eparator	-9.65895
▁Tag	-9.65974
Provincia	-9.66057
FORMAT	-9.66107
tel	-9.66171
AcademicYear	-9.66207
▁values	-9.66586
ackground	-9.66727
Count	-9.66746
▁jPanel	-9.6675
BEAN	-9.66752
antipasto	-9.66752
cibo	-9.66752
▁heritage	-9.66752
▁FinteVisite	-9.66752
▁desktop	-9.66752
▁richiesto	-9.66752
▁corretta	-9.66753
▁writeDati	-9.66754
▁searchPanel	-9.66767
▁Carica	-9.66833
PRE	-9.66848
="./	-9.66937
al	-9.66948
IdJustify	-9.66991
▁tutti	-9.67009
DE	-9.67156
▁Change	-9.6718
▁thrown	-9.67205
▁Select	-9.67443
▁startA	-9.67546
▁address	-9.67596
put	-9.67679
sFrom	-9.677
▁Pnews	-9.67715
▁Name	-9.67786
▁sull	-9.6783
Username	-9.6784
cambiare	-9.67888
▁relativ	-9.67889
▁phone	-9.67994
Iterator	-9.68024
Vector	-9.68111
JTable	-9.68127
ImageIcon	-9.68148
▁Cancella	-9.68226
idClassroom	-9.68316
▁12)	-9.68573
▁Boolean	-9.68596
addS	-9.68596
▁pBanner	-9.68648
▁--	-9.68737
M	-9.68912
▁15	-9.69257
▁pi	-9.69282
▁TableModel	-9.69365
aximum	-9.69452
string	-9.69573
20	-9.69686
▁absence	-9.69962
KeyEvent	-9.70452
▁Util	-9.70628
Disp	-9.70696
1;	-9.70807
▁corrispondent	-9.71011
MediaVoti	-9.71138
OrarioApertura	-9.71207
Cour	-9.7123
JUSTIF	-9.71232
ADDRESS	-9.71297
TEACHER	-9.71297
TuristaClient	-9.71297
▁functionality	-9.71297
▁pannelli	-9.71297
▁want	-9.71297
▁layer	-9.71298
Pren	-9.71299
ICA	-9.71303
CU	-9.71306
▁soggiorno	-9.71307
▁maximum	-9.71309
Attac	-9.7131
gif	-9.7131
alb	-9.71314
▁issued	-9.71335
▁toolbar	-9.71364
▁desc	-9.71383
▁dataVisita	-9.71383
▁(107	-9.71414
TE	-9.71436
▁can	-9.71447
▁k	-9.71546
▁cap	-9.71605
▁Input	-9.71848
▁pStringa	-9.71862
ier	-9.71909
▁esiste	-9.72131
▁presenti	-9.72198
Dati	-9.72222
amo	-9.72293
▁managerRegister	-9.72293
▁indirizzoPR	-9.72318
▁have	-9.72324
▁days	-9.7238
note	-9.72551
Teacher	-9.72665
▁whe	-9.72721
9,	-9.72724
FR	-9.72726
pClassroom	-9.72814
Inserimento	-9.72845
prima	-9.72861
▁teachingList	-9.72911
@	-9.72917
else	-9.72939
▁14	-9.73077
13	-9.73085
▁objects	-9.73278
▁Address	-9.73294
▁Inserisc	-9.73344
getDate	-9.73417
getP	-9.74011
▁Prenotazione	-9.7405
▁current	-9.74129
errore	-9.74221
ListSelection	-9.74265
▁Inserimento	-9.74464
▁Compila	-9.74572
▁valid	-9.74595
POS	-9.74846
IdPreferenz	-9.7501
▁tabella	-9.7533
llo	-9.75372
ch	-9.75891
Tel	-9.76057
hasNext	-9.76059
SOUTH	-9.76059
▁riposo	-9.76059
Amora	-9.7606
▁collection	-9.7606
▁Giu	-9.76065
▁altrimenti	-9.76066
▁(51,	-9.76066
▁qualità	-9.76066
▁passed	-9.76095
="+	-9.7611
▁particular	-9.76149
in	-9.76152
▁prezzo	-9.76199
OrarioChiusura	-9.76229
▁deskSize	-9.76308
▁accetta	-9.76315
▁inComune	-9.76384
▁email	-9.76476
▁accademic	-9.76759
▁Inserisci	-9.76934
▁end	-9.76948
▁Cri	-9.76975
lio	-9.77011
day	-9.77133
Prepar	-9.7753
▁12),	-9.77597
write	-9.777
▁setIcon	-9.77715
NUM	-9.77721
Edit	-9.77816
current	-9.77841
academicYear	-9.77841
▁Stabil	-9.77855
boolean	-9.77915
numero	-9.77923
JToolBar	-9.77946
JComboBox	-9.77987
▁!((	-9.78144
▁possibile	-9.78375
▁addebito	-9.78395
To	-9.7848
▁pos	-9.78523
▁rilascia	-9.78823
0.	-9.79093
▁academicYear	-9.79123
AL	-9.79185
▁Crea	-9.79804
▁res	-9.80032
▁clienti	-9.80058
ON	-9.80107
Conto	-9.80163
AS	-9.80171
▁getName	-9.80248
TabbedPane	-9.80266
▁Delay	-9.80315
▁frames	-9.80685
▁votes	-9.80896
etSelectedIndex	-9.80995
▁par	-9.8102
▁dovr	-9.81024
STAGIONE	-9.81059
▁Display	-9.81059
▁supplied	-9.81059
▁view	-9.81059
Savepoint	-9.8106
▁Load	-9.8106
▁soggiornante	-9.8106
▁poter	-9.81061
defined	-9.81061
▁ogni	-9.81063
▁questa	-9.81086
▁elements	-9.81111
▁default	-9.81153
MascheraAddebiti	-9.81216
▁tableNews	-9.81253
▁changed	-9.81262
▁MODIFICA	-9.81305
▁TablePr	-9.81316
▁inserito	-9.81316
▁flag	-9.81316
▁treeBanner	-9.81317
appen	-9.81326
pr	-9.81382
Component	-9.81515
getCognome	-9.81528
Description	-9.81529
▁nomePR	-9.81911
setColumn	-9.81985
▁Attore	-9.82041
▁File	-9.82152
Modifica	-9.82192
Scheda	-9.82275
▁3),	-9.82532
▁Addebito	-9.82565
▁newVotes	-9.82781
▁pTeaching	-9.82867
1)	-9.82968
temp	-9.82975
list	-9.83001
SchedaBC	-9.83113
was	-9.83118
nome	-9.83159
ManagerTeaching	-9.83161
JLabel	-9.83177
Visualizzazione	-9.8318
pAbsence	-9.83265
ally	-9.83585
▁40	-9.83608
▁turn	-9.839
▁returned	-9.83991
age	-9.84024
▁Categoria	-9.84089
▁Edit	-9.84394
">	-9.84801
▁px	-9.84988
Convenzione	-9.85203
▁necessari	-9.85614
▁exists	-9.85668
15,	-9.85742
▁Release	-9.85938
Addebiti	-9.86122
▁tutt	-9.86135
Numero	-9.86245
▁exceed	-9.86268
▁there	-9.86306
▁preferenze	-9.86317
Cancel	-9.86319
ntDataManagement	-9.86322
MutableTreeNode	-9.86322
castRemoteObject	-9.86322
izable	-9.86322
▁btnVisualizza	-9.86322
▁etichette	-9.86322
▁inserita	-9.86322
▁chiede	-9.86323
▁each	-9.86323
▁frequency	-9.86326
▁transaction	-9.86327
QU	-9.86329
▁cancellation	-9.86334
terio	-9.86342
NTO	-9.8638
isEmpty	-9.86394
tramite	-9.86417
▁giornoChiusura	-9.86423
▁periodo	-9.86426
▁city	-9.8643
▁selezionata	-9.86467
▁0.3	-9.86471
▁prSlider	-9.86486
3>	-9.86492
▁BeanBanner	-9.86544
▁pref	-9.86631
▁aLabel	-9.86702
8.	-9.86716
Categoria	-9.86936
Operatore	-9.86981
▁statistics	-9.87142
▁pannelloTag	-9.87168
▁For	-9.8733
DataVisita	-9.87463
▁pDescrizione	-9.87554
Email	-9.87602
▁ric	-9.87728
▁Stat	-9.87734
▁parameters	-9.87877
TableModel	-9.87916
▁Final	-9.88053
image	-9.88066
Number	-9.88221
BeniServizi	-9.88295
alunno	-9.88512
prepare	-9.88546
File	-9.88662
pTermine	-9.88674
turista	-9.88689
password	-9.8872
▁stata	-9.88725
▁aggiorna	-9.88748
▁associati	-9.88759
getT	-9.88839
update	-9.8888
▁((!	-9.88895
selectedRow	-9.88973
▁Not	-9.89145
getBtn	-9.89603
▁News	-9.89918
INSER	-9.90465
TagComune	-9.90504
Dettagli	-9.9053
▁Scegli	-9.90587
Turn	-9.90958
ensionamento	-9.91009
▁Parameter	-9.91132
▁preference	-9.91238
ER	-9.91257
Warning	-9.91551
▁Priorit	-9.91773
▁Votes	-9.91841
▁Category	-9.91855
CH	-9.91863
▁Genera	-9.91864
BANNER	-9.91878
Stagionalita	-9.91878
TIMEOUT	-9.91878
▁again	-9.91878
▁particolare	-9.91878
▁ELIMINA	-9.91878
Output	-9.91878
0,0,0,0	-9.91879
▁jButton	-9.9188
▁numeroVoti	-9.91881
▁ristorante	-9.91887
JToggleButton	-9.91889
Supplemento	-9.91889
▁startConferma	-9.91897
▁entered	-9.91898
▁should	-9.91904
▁ottieniNumero	-9.91918
▁select	-9.9192
▁valore	-9.91954
▁identificat	-9.91985
▁campi	-9.91993
▁disponibilita	-9.92025
▁fields	-9.92033
▁categories	-9.92088
▁banners	-9.92142
▁cancellazione	-9.92303
▁correct	-9.92305
▁Tipo	-9.92379
ne	-9.92563
getS	-9.92577
▁month	-9.92619
pPosizioneUtente	-9.92657
▁qual	-9.92705
▁modifiche	-9.92802
▁tmp	-9.92819
ove	-9.92836
▁caratteristiche	-9.92917
▁testoNews	-9.92918
▁BeanNews	-9.92935
Changed	-9.92949
▁getBtn	-9.92994
▁alto	-9.93053
Selezionare	-9.93064
ableCellRenderer	-9.93228
▁conf	-9.93409
▁seleziona	-9.93426
immagine	-9.93975
2>	-9.94013
iterator	-9.94232
Attiva	-9.94306
checkbox	-9.94495
inserimento	-9.94499
caller	-9.94518
active	-9.94585
ManagerRegister	-9.94591
an	-9.94606
Menu	-9.94686
▁load	-9.94781
")),	-9.95544
G	-9.95566
▁points	-9.95997
unzionale	-9.96176
▁car	-9.96747
izzare	-9.96785
▁Banner	-9.96818
▁2)	-9.96825
AccademicYear	-9.96849
Via	-9.96909
▁delay	-9.96942
▁14))	-9.96953
▁line	-9.9708
▁Justify	-9.97128
ora	-9.97239
-1;	-9.97282
()+"	-9.97292
Delete	-9.97369
24.	-9.97518
10.	-9.97531
▁confirm	-9.97619
▁disponibili	-9.97684
▁obtain	-9.97714
tml	-9.97743
convert	-9.97757
Modify	-9.97759
BAR	-9.9776
CULTURALE	-9.9776
Phnom	-9.9776
Registry	-9.9776
▁managing	-9.9776
▁parametri	-9.9776
BENE	-9.9776
egorianCalendar	-9.9776
▁Where	-9.97763
▁precedente	-9.97763
▁toolbarSchedaBC	-9.97769
▁notification	-9.97769
▁stagione	-9.97771
VER	-9.97774
▁momento	-9.97774
▁PTags	-9.97788
▁eliminare	-9.97804
▁obtained	-9.97807
▁PPosizione	-9.97816
etSelectedItem	-9.97861
▁content	-9.97872
▁jTextPane	-9.97872
locale	-9.97883
▁inserted	-9.97888
▁btnEliminaBC	-9.97891
mot	-9.97893
setBackground	-9.97923
▁servizio	-9.98012
▁spes	-9.98039
ottieniPreferenz	-9.9805
▁controllo	-9.98129
▁corrispondente	-9.98143
B	-9.98187
▁pNumeroPagina	-9.98233
▁myCheckbox	-9.98263
▁tempo	-9.98326
▁30	-9.98423
OG	-9.98508
▁min	-9.98656
▁cognome	-9.98846
▁3)	-9.98884
SI	-9.99199
***************	-9.99248
▁',	-9.99294
▁we	-9.99504
▁Cancellazione	-9.9954
Compilato	-9.99636
▁JTextArea	-9.99877
▁stub	-10.001
▁getColumn	-10.0013
(0)	-10.0038
Scroll	-10.0039
canc	-10.0056
▁All	-10.0057
showInternal	-10.007
mr	-10.0071
load	-10.0072
Const	-10.0075
Conferma	-10.0083
ricerca	-10.0084
selected	-10.0084
pNote	-10.0086
session	-10.0086
unisa	-10.0087
▁-1)	-10.0088
BeanConvenzione	-10.009
9.	-10.0113
spettat	-10.0115
pBC	-10.0168
m	-10.0175
▁[3]	-10.0194
▁mod	-10.0213
23	-10.0221
▁mo	-10.0263
▁tra	-10.0287
▁modifi	-10.0295
Posizione	-10.0315
▁Disponibilita	-10.0316
▁pass	-10.0333
▁vote	-10.0336
rial	-10.0355
lo	-10.0359
▁pPreferenza	-10.0365
ze	-10.0366
lementiPerPagina	-10.038
▁Implement	-10.0386
▁btnReset	-10.0396
setSelected	-10.0398
▁support	-10.0399
▁pane	-10.0401
Upload	-10.0401
▁success	-10.0401
▁Etichetta	-10.0401
Rectangle	-10.0401
oftware	-10.0401
▁assenze	-10.0401
Room	-10.0401
▁inesistente	-10.0401
▁LIKE	-10.0401
▁communicat	-10.0401
DATE	-10.0401
▁attive	-10.0401
▁authenticated	-10.0401
ROLL	-10.0401
▁fornito	-10.0402
reparedStatement	-10.0404
▁modification	-10.0404
figura	-10.0404
▁esistente	-10.0405
▁record	-10.0408
▁panelHelp	-10.0408
▁later	-10.041
▁Per	-10.041
▁btnSchedaBC	-10.0413
16	-10.0413
=1;	-10.0413
▁Activate	-10.0414
stituisc	-10.0425
▁bread	-10.0426
▁config	-10.043
▁cre	-10.0437
▁corrente	-10.0455
▁cancellaTag	-10.0457
istaSoggiornanti	-10.0466
▁Immagine	-10.047
▁textbox	-10.0477
whi	-10.0488
▁>=	-10.0488
18	-10.0489
▁path	-10.0498
▁Richiest	-10.0504
▁pTagID	-10.0519
▁scadenza	-10.0519
▁conta	-10.0522
▁pVia	-10.0539
▁[5]	-10.0541
lic	-10.0554
▁modella	-10.0566
▁getTime	-10.0571
it	-10.0572
IdAddress	-10.0605
▁ControlloDati	-10.0606
scheda	-10.0613
▁pIdUser	-10.0641
12.	-10.0648
ri	-10.0662
>();	-10.0668
▁choice	-10.0671
tale	-10.0704
▁UserListItem	-10.0707
)).	-10.0726
City	-10.0732
▁tu	-10.0733
▁Const	-10.074
▁Li	-10.0742
▁setText	-10.0742
check	-10.0744
addebito	-10.0748
btnModifica	-10.0749
▁Teaching	-10.075
cliente	-10.0751
Amministratore	-10.0752
label	-10.0753
dispose	-10.0755
▁checkbox	-10.0757
allo	-10.0758
▁Attiva	-10.0759
DBPuntoDiRistoro	-10.0797
ct	-10.0808
▁ed	-10.0826
sup	-10.089
ato	-10.0947
▁justify	-10.0954
▁autentica	-10.0973
mail	-10.0984
▁desidera	-10.0986
▁feature	-10.1
▁")"	-10.1024
▁insufficient	-10.1036
▁messag	-10.1039
▁Err	-10.1061
IST	-10.1061
▁err	-10.1062
K	-10.1064
Case	-10.1064
▁abbia	-10.1067
Bar	-10.1067
isVisible	-10.1068
▁Otherwise	-10.1068
▁transazione	-10.1068
convenien	-10.1068
Agg	-10.1068
▁btnInsertModify	-10.1068
▁helpPanel	-10.1068
PoolDataSource	-10.1068
YES	-10.1068
UP	-10.1068
ontoRistorazione	-10.1068
▁but	-10.1068
ManagerException	-10.1068
▁genStat	-10.1068
anda	-10.1068
▁elimination	-10.1069
▁eseguito	-10.1069
▁(80	-10.107
▁massimo	-10.1071
ORD	-10.1077
completa	-10.1077
▁editing	-10.1081
▁toolbarPR	-10.1082
▁btnModificaBC	-10.1084
ESTION	-10.1084
▁formNews	-10.1084
▁[2]	-10.1088
▁pIdTag	-10.1091
▁Nel	-10.1092
▁pAbsence	-10.1094
Fields	-10.1098
▁insufficienti	-10.1099
idStudent	-10.1101
▁BCToolbar	-10.1103
▁figli	-10.1114
▁desiderat	-10.1124
▁Indietro	-10.1125
▁Assegna	-10.1125
Row	-10.1125
▁one	-10.1155
▁pTelefono	-10.1163
PID	-10.1173
▁questo	-10.1177
▁classroomList	-10.1195
▁ottieniTag	-10.1196
▁totale	-10.1223
GiornoChiusura	-10.1239
▁help	-10.124
▁DeskManager	-10.124
▁pProvincia	-10.1248
▁time	-10.1286
isDirector	-10.1287
▁Default	-10.1289
▁costo	-10.1308
▁title	-10.131
Po	-10.1332
RegisterLine	-10.1344
con	-10.1368
SC	-10.1369
auro	-10.1385
▁pAcademicYear	-10.1385
▁BeanOperatore	-10.1386
start	-10.1415
▁200	-10.1433
turn	-10.1439
Inseri	-10.1442
azione	-10.1451
call	-10.1451
report	-10.1454
▁caller	-10.1456
Stringa	-10.1464
Cognome	-10.147
jContentPane	-10.1471
▁qua	-10.15
▁Component	-10.1505
tabilit	-10.1506
Termine	-10.1509
▁funzionalit	-10.1535
WA	-10.1536
▁total	-10.1545
mo	-10.1553
▁pTermine	-10.1553
21	-10.1554
▁(3,	-10.1572
JTabbedPane	-10.1575
▁Value	-10.1596
▁im	-10.1663
Tab	-10.1665
▁tr	-10.1684
serisciPreferenz	-10.1688
],	-10.169
▁ServletShow	-10.1694
▁equal	-10.17
▁co	-10.1719
Selection	-10.1728
Document	-10.1744
▁ruol	-10.1749
Size	-10.1757
▁execut	-10.1779
DesktopPane	-10.178
▁outStream	-10.1782
Holdability	-10.1782
YetException	-10.1782
pologi	-10.1782
witch	-10.1782
▁"','"	-10.1782
▁INSERISCI	-10.1782
▁Identifie	-10.1782
▁alunni	-10.1782
▁mediaVoti	-10.1782
▁selezione	-10.1782
▁anni	-10.1782
eight	-10.1782
▁readDati	-10.1782
substring	-10.1782
▁renderer	-10.1782
▁statTotali	-10.1783
getSelectedItem	-10.1783
▁included	-10.1785
▁evdStat	-10.1785
▁Controllo	-10.1795
▁btnSostituisci	-10.1796
▁managerVotes	-10.1798
▁eliminazione	-10.1798
DBTurista	-10.18
opened	-10.1802
Option	-10.1804
foundSoggiornant	-10.1819
▁btnInserisci	-10.1819
▁scroll	-10.182
▁headers	-10.1832
getYear	-10.184
17	-10.1862
▁NewsTableModel	-10.1869
▁Fine	-10.1872
getData	-10.1876
YS	-10.1877
▁Man	-10.1891
▁PBC	-10.1904
24	-10.1914
▁Open	-10.1934
statMeseCorrente	-10.1936
Posti	-10.194
▁closes	-10.1978
otice	-10.1985
("",4	-10.1993
▁42	-10.1996
CalcoloConto	-10.2013
VisitaBC	-10.202
ose	-10.2071
▁Feedback	-10.2073
VisitaPR	-10.2076
warning	-10.2101
NumeroVoti	-10.2109
▁pu	-10.2112
13.	-10.2114
Boolean	-10.2159
frame	-10.2166
di	-10.2177
▁so	-10.2195
Telefonate	-10.2195
▁inserimento	-10.2196
12,	-10.2202
▁De	-10.221
getCap	-10.2212
▁(1)	-10.2217
[];	-10.2218
bar	-10.2218
BeanPiatto	-10.2222
border	-10.2225
choice	-10.2227
Aggiungi	-10.2233
message	-10.2234
BeanMenu	-10.2243
14.	-10.2247
pAddress	-10.2247
OL	-10.2253
13,	-10.2275
getTime	-10.2283
▁statement	-10.2285
//	-10.2299
volta	-10.2326
ning	-10.2331
▁pAddress	-10.2367
▁supp	-10.2389
Close	-10.2407
ataRegistrazione	-10.2408
▁pDate	-10.2429
etAcademicYear	-10.243
▁amministratore	-10.243
204	-10.2446
▁()!	-10.2458
Prezzo	-10.2463
▁pPuntoDiRistoro	-10.2477
F	-10.249
sso	-10.2503
Statistiche	-10.2506
▁oggett	-10.2518
ById	-10.2524
▁tab	-10.2539
RI	-10.2541
ostra	-10.2551
NEWS	-10.2551
PreferenzaGene	-10.2551
▁Access	-10.2551
▁Inizializza	-10.2551
▁PVIS	-10.2551
▁Root	-10.2551
▁Vincen	-10.2551
▁contenente	-10.2551
▁finteVisite	-10.2551
▁utenti	-10.2551
Upper	-10.2551
▁internalFrame	-10.2551
▁keyword	-10.2551
▁jPanelUp	-10.2552
div	-10.2552
▁generata	-10.2552
abio	-10.2552
▁frameIcon	-10.2552
▁Permette	-10.2552
DISPONIBILE	-10.2552
Aggiornamento	-10.2553
▁risultato	-10.2553
cancella	-10.2553
▁certa	-10.2554
ket	-10.2554
▁entering	-10.2556
▁registrato	-10.2558
▁convenzione	-10.256
▁pcap	-10.2561
GES	-10.2565
▁variabili	-10.2565
▁flow	-10.2566
relli	-10.2568
▁General	-10.2568
▁open	-10.257
▁Controlla	-10.2576
setVertical	-10.2579
▁btnEliminaN	-10.2587
▁pIdMenu	-10.259
▁place	-10.2592
▁nNote	-10.2592
▁btnModificaN	-10.2606
▁136	-10.2609
getUserBy	-10.2609
▁rid	-10.2617
▁pStatementSql	-10.2618
▁param	-10.263
▁st	-10.2633
▁nomeBC	-10.2654
Voto	-10.2661
▁Calcolo	-10.2662
Adapter	-10.2663
▁val	-10.2671
TA	-10.2687
List	-10.27
▁pCognome	-10.2707
▁pages	-10.2707
30,	-10.2713
▁33	-10.2715
▁DB	-10.2728
▁first	-10.2734
▁agenzia	-10.2735
11.	-10.2784
▁de	-10.2784
▁(!(	-10.2792
▁border	-10.28
tion	-10.2809
Visita	-10.2864
inserisci	-10.2869
▁pValue	-10.2882
▁1]	-10.2905
Password	-10.2906
ve	-10.2931
All	-10.2942
26.	-10.2963
▁Configurazione	-10.297
▁bas	-10.2972
▁Is	-10.2976
abili	-10.2979
stub	-10.2988
Default	-10.2992
la	-10.2998
comitiva	-10.3021
key	-10.3033
coperti	-10.304
pParoleChiave	-10.304
Phone	-10.304
scatti	-10.3045
teacher	-10.3055
cre	-10.3058
Property	-10.3059
Class	-10.3059
▁state	-10.3064
(!	-10.3064
pMessage	-10.3065
▁calculat	-10.3066
▁te	-10.3067
banner	-10.3069
etich	-10.307
▁pName	-10.3077
pColumn	-10.3077
▁ai	-10.3094
▁(4)	-10.3108
▁OK	-10.3109
29	-10.313
▁Iterator	-10.314
pUser	-10.3146
getTeaching	-10.3147
▁verificar	-10.3169
▁addebita	-10.3179
[10]	-10.3182
IdUser	-10.3192
▁controlli	-10.3199
▁ottieniLista	-10.3211
4;	-10.3253
sSelected	-10.3253
Piatto	-10.326
▁methods	-10.326
eme	-10.3294
17.	-10.3318
▁verr	-10.3348
Editable	-10.3373
▁find	-10.3379
ame	-10.3379
▁alert	-10.3384
Cliente	-10.3385
scanVector	-10.3385
Concurrency	-10.3385
▁btnReimposta	-10.3385
StringTokenizer	-10.3385
details	-10.3385
repeat	-10.3385
tractTableModel	-10.3385
▁genitore	-10.3385
▁indirizzi	-10.3385
▁notifiche	-10.3385
▁pKeyword	-10.3385
▁similarity	-10.3385
▁specified	-10.3385
▁filter	-10.3385
▁tasto	-10.3385
▁assert	-10.3385
▁toolbarTuristi	-10.3385
TUR	-10.3385
()+"."+	-10.3385
▁basso	-10.3387
▁gestioneBC	-10.3387
▁GridLayout	-10.3387
▁Stor	-10.3387
-04	-10.3388
errori	-10.339
▁panelSearch	-10.3394
RicercaStanza	-10.3395
▁dura	-10.3397
▁general	-10.3397
▁controllare	-10.3398
▁unique	-10.3401
▁past	-10.3402
▁Mich	-10.3403
▁Favorites	-10.3405
▁inserisciTag	-10.3406
▁avvis	-10.3406
▁risultati	-10.341
emorizza	-10.3413
▁Aggiorna	-10.3426
▁access	-10.3428
▁jScrollPane	-10.3429
▁statMeseC	-10.3429
▁made	-10.3429
▁ottieniTuristi	-10.343
ING	-10.3433
ataPubblicazione	-10.3436
▁servizi	-10.3453
()==	-10.3456
▁RicercaPanel	-10.3458
▁studenti	-10.3462
▁statt	-10.3478
21.	-10.3484
▁ToolbarSchedaPR	-10.3487
▁PRNode	-10.3487
▁senza	-10.3488
ere	-10.3495
▁visited	-10.35
Text	-10.3512
SOL	-10.3512
▁(3)	-10.3516
▁giorni	-10.3545
▁chbx	-10.3545
▁managerAddress	-10.3549
row	-10.3554
▁9	-10.3567
▁Ga	-10.3568
IN	-10.3573
La	-10.3599
▁No	-10.3599
19	-10.3686
▁pE	-10.3716
Pro	-10.3791
etColumn	-10.3799
20.	-10.3809
▁Initializ	-10.3843
Feedback	-10.3849
▁BeanConvenzione	-10.385
pPuntoDiRistoro	-10.3857
▁Mo	-10.386
DB	-10.3904
IDBNews	-10.3909
▁selectedRow	-10.3914
found	-10.3918
▁culturale	-10.3921
adin	-10.393
maxPoolSize	-10.3942
▁pro	-10.3946
Values	-10.3964
tmp	-10.3966
setSize	-10.3969
title	-10.3969
Cancella	-10.3969
un	-10.397
JTextArea	-10.3973
▁Quest	-10.3973
change	-10.3974
teachingList	-10.3975
display	-10.3977
pDelay	-10.3978
del	-10.3982
are	-10.3994
Point	-10.3998
▁move	-10.4022
pos	-10.4038
▁idClassroom	-10.4086
MeseCorrente	-10.4099
controllaId	-10.4104
z	-10.4121
Registrazione	-10.4125
quenza	-10.4125
sing	-10.4172
Parent	-10.4179
intera	-10.4215
▁then	-10.4215
DataNascita	-10.4217
getJ	-10.4239
ytes	-10.4245
NO	-10.4256
▁Cambi	-10.4256
▁operator	-10.4262
▁inserisc	-10.4263
Administrator	-10.4274
▁Control	-10.4281
Corr	-10.4285
ti	-10.4286
▁disable	-10.4287
Enter	-10.4293
q	-10.4293
CONNE	-10.4294
▁voti	-10.4294
LocateRegistry	-10.4294
▁associazionepr	-10.4294
ristiDisattivati	-10.4294
ABSENCE	-10.4294
DesktopManager	-10.4294
GestioneRicerche	-10.4294
RISTORO	-10.4294
allineato	-10.4294
langelo	-10.4294
▁consistency	-10.4294
▁notizie	-10.4294
▁telefonico	-10.4294
▁window	-10.4294
nstruction	-10.4294
▁commissionate	-10.4294
▁desktopManager	-10.4294
HelpManager	-10.4294
▁through	-10.4294
▁cache	-10.4294
▁activation	-10.4294
▁Comp	-10.4294
writeB	-10.4295
▁forniti	-10.4295
▁campo	-10.4295
-1]	-10.4295
▁gui	-10.4296
getMonth	-10.4296
-02	-10.4297
▁btnModificaDati	-10.4298
Closing	-10.4298
▁rimuovere	-10.4298
▁posizione	-10.4299
colazione	-10.43
minutes	-10.43
▁same	-10.43
DBTag	-10.4306
▁Birth	-10.4311
▁btnNuovoBC	-10.4311
▁turistiAttivati	-10.4311
▁SitoTableModel	-10.4312
▁btnStorico	-10.4312
▁minAP	-10.4312
▁mycheckboxes	-10.4312
Here	-10.4312
1998	-10.4315
▁dob	-10.4315
▁allowed	-10.4318
▁Contain	-10.432
setTitle	-10.4327
▁[4]	-10.4328
zo	-10.4329
▁counter	-10.4336
nterfacceAgenzia	-10.434
▁range	-10.4342
▁last	-10.4343
▁nuove	-10.435
▁via	-10.4358
▁cancellare	-10.4359
Storico	-10.436
18.	-10.437
▁citta	-10.4372
▁profiloTurista	-10.4374
▁sourceStr	-10.4374
▁any	-10.438
HA	-10.4383
▁controlla	-10.439
rendo	-10.4391
23.	-10.4396
[8].	-10.4408
▁PPreferenza	-10.4415
▁them	-10.4428
▁up	-10.4428
▁store	-10.4431
Implemented	-10.4434
▁qualcun	-10.4438
▁pNumeroVoti	-10.4442
▁pGiornoChiusura	-10.4451
▁getID	-10.4454
▁properties	-10.4471
▁pCategoria	-10.4482
▁creates	-10.449
▁pOrarioChiusura	-10.4498
setCognome	-10.4503
▁pMediaVoti	-10.4507
▁pRaggioMax	-10.4508
▁pVisitaPR	-10.4517
▁pTable	-10.4517
▁pVisitaBC	-10.4518
▁visual	-10.4535
addebitare	-10.4544
ConnectionString	-10.4561
</	-10.4567
▁cerca	-10.457
▁0.0	-10.4584
▁supporto	-10.4588
▁pIdAddress	-10.4592
▁pPreferenz	-10.4619
[9].	-10.4623
▁found	-10.4636
▁Soggiornante	-10.4658
▁Fil	-10.4662
▁teacher	-10.4667
▁Si	-10.467
▁Password	-10.4672
Descrizione	-10.4678
▁report	-10.4734
30.	-10.4742
▁chiudi	-10.4761
▁getJ	-10.477
getCitta	-10.4777
▁update	-10.481
▁indicate	-10.4816
27.	-10.4827
PartitaIva	-10.4845
addebitati	-10.4851
campoCompilato	-10.4852
SIZE	-10.4852
Province	-10.4853
Position	-10.4859
atore	-10.488
time	-10.4889
rtisementAgenzia	-10.4892
Role	-10.4922
Cambio	-10.4929
registry	-10.4931
tmpRegisterLine	-10.4931
im	-10.4933
▁stati	-10.4936
Preferenz	-10.4948
▁Visualizzazione	-10.4963
ControlloDati	-10.4969
costo	-10.4971
delete	-10.4972
array	-10.4974
double	-10.4977
System	-10.4979
val	-10.4984
getPre	-10.4985
rica	-10.4987
getPassword	-10.4988
22.	-10.4991
▁li	-10.4995
▁11	-10.5
)"	-10.5008
tot	-10.5018
▁db	-10.5032
19.	-10.5056
frames	-10.5061
2(	-10.5069
electedRow	-10.5087
▁pNote	-10.5089
▁startVedi	-10.5098
getBtnModifica	-10.5151
file	-10.516
▁Table	-10.5189
▁aggiornat	-10.5195
▁personal	-10.5231
,1.0,0.0,	-10.5243
[5]	-10.5243
▁Manager	-10.5243
▁Location	-10.5245
ma	-10.5251
Period	-10.5257
Pers	-10.5265
PuntoDiRistoroId	-10.5266
▁Desk	-10.5288
artecipa	-10.5288
prec	-10.5291
Element	-10.5292
Path	-10.5292
ME	-10.5293
Server	-10.5293
ticipat	-10.5294
Commissionamenti	-10.5294
Dichiar	-10.5294
attivaDisattiva	-10.5294
▁membership	-10.5294
▁segnalibri	-10.5294
▁tipi	-10.5294
eedDayBeforeExam	-10.5294
stella	-10.5294
ScrollableTable	-10.5294
▁GPS	-10.5294
▁calendar	-10.5294
getDispAnno	-10.5294
getIni	-10.5294
tParameter	-10.5294
SingoloRegistro	-10.5294
BASS	-10.5294
▁Napoli	-10.5294
▁devo	-10.5294
rave	-10.5294
▁jJToolBarBar	-10.5294
▁bannerToolbar	-10.5294
entro	-10.5294
anticipato	-10.5295
ttawa	-10.5295
▁searchFor	-10.5295
TagPanel	-10.5295
▁deskMenu	-10.5295
Riduzione	-10.5295
▁positivo	-10.5296
▁scolastico	-10.5296
lean	-10.5296
setHorizontal	-10.5297
Supp	-10.5297
▁fail	-10.5299
icola	-10.5299
▁stored	-10.5301
▁parte	-10.5301
▁26))	-10.5303
▁homes	-10.5304
▁analyzed	-10.5304
santi	-10.5305
▁inclusion	-10.5305
IDI	-10.5306
labInt	-10.5309
▁empty	-10.5313
▁btnSkeda	-10.5313
▁priority	-10.5314
▁Confirmation	-10.5314
▁modal	-10.5314
▁ElencoCategorie	-10.5316
▁interest	-10.5317
ListaBeniServizi	-10.5322
▁personali	-10.5326
▁ac	-10.5327
/04/	-10.5328
RED	-10.5336
▁Par	-10.5341
▁(100	-10.5346
▁RICERCA	-10.5348
▁tokenizer	-10.5348
▁pTagId	-10.5348
▁BannerNode	-10.5348
▁idTemp	-10.535
▁tableFeedback	-10.5352
pt	-10.5353
▁era	-10.5355
▁pVotes	-10.5366
▁gia	-10.5367
Preferiti	-10.5368
▁pCitta	-10.5369
▁man	-10.537
checkdate	-10.5371
PL	-10.5373
▁byte	-10.5378
siti	-10.5381
▁node	-10.5383
mmon	-10.5385
▁indicat	-10.5396
setCap	-10.5396
insi	-10.54
▁orarioApMinPR	-10.5419
ANN	-10.5424
▁commento	-10.544
lus	-10.5446
▁pPrezzo	-10.5455
▁pDataVisita	-10.5503
▁com	-10.5504
▁pModifica	-10.5511
▁Results	-10.5519
▁father	-10.5527
▁combo	-10.5527
il	-10.5533
▁oral	-10.5566
▁caption	-10.5569
25	-10.5581
▁VALUES	-10.5599
▁4)	-10.5648
▁checks	-10.565
▁"+(	-10.5652
▁its	-10.5658
15	-10.5666
▁PR	-10.5674
▁32	-10.5674
▁idUser	-10.5697
▁BeanMenu	-10.5752
DO	-10.5758
▁100	-10.5776
on	-10.5821
▁getBtnModifica	-10.5828
NA	-10.5831
*	-10.5838
CO	-10.5852
▁showInternal	-10.5859
uggerimenti	-10.5882
ily	-10.5902
▁cost	-10.5908
gli	-10.5908
▁pDelay	-10.591
Testo	-10.5934
▁Tr	-10.5952
bannerHelp	-10.5966
avvenuta	-10.5966
bcHelp	-10.5967
▁n	-10.5969
ico	-10.6
ottieniTag	-10.6012
New	-10.6019
▁GetR	-10.6022
▁(2)	-10.6027
Label	-10.6031
repaint	-10.6043
15.	-10.6043
Registro	-10.6054
IDBConvenzione	-10.6055
oral	-10.606
▁(30	-10.6063
RightPanel	-10.6066
Call	-10.6066
color	-10.607
VALUES	-10.6076
▁ora	-10.6077
▁mostrat	-10.6077
pPagina	-10.6078
getTelefono	-10.6079
Select	-10.6079
lencoCategorie	-10.6081
pJustify	-10.6082
phone	-10.6084
Confirm	-10.6085
back	-10.6085
modifica	-10.6085
ManagerAddress	-10.6085
login	-10.6087
Cancellazione	-10.6088
server	-10.609
max	-10.6093
pAcademicYear	-10.6096
Gr	-10.6104
tare	-10.6115
Giustifica	-10.6138
ts	-10.617
()),	-10.618
22	-10.6187
sure	-10.6194
29.	-10.6212
pDate	-10.6235
Localita	-10.6247
7;	-10.6267
be	-10.6276
ure	-10.6292
▁Co	-10.6303
Written	-10.6308
Laboratory	-10.6308
uto	-10.6309
PercorsoFile	-10.631
Pagina	-10.6313
etPreferred	-10.6329
Avanzata	-10.6333
▁character	-10.6337
ress	-10.6341
getMax	-10.6345
0,5,0	-10.6346
ByIDUserAnd	-10.6356
etween	-10.6356
(10,	-10.6366
▁prezz	-10.6371
<=0)	-10.6372
▁punt	-10.6373
Norm	-10.6376
Generiche	-10.6378
ramite	-10.6384
ger	-10.6388
Source	-10.6392
▁ci	-10.6393
▁corre	-10.6401
▁Ask	-10.6401
Alb	-10.6403
Risultat	-10.6404
SSION	-10.6405
JSlider	-10.6405
COMMISSIONATA	-10.6405
OCCUPATA	-10.6405
PENSIONE	-10.6405
Variabil	-10.6405
arattereCorrente	-10.6405
effettiva	-10.6405
▁Current	-10.6405
▁Effettua	-10.6405
▁Research	-10.6405
▁StringBuffer	-10.6405
▁bookmarks	-10.6405
▁changing	-10.6405
▁disponibile	-10.6405
▁mappaRitorno	-10.6405
▁registri	-10.6405
▁richieste	-10.6405
aratteriPermessi	-10.6405
PATH	-10.6405
▁modify	-10.6405
▁anticipata	-10.6405
▁amendment	-10.6405
▁sosta	-10.6405
▁quadrimestre	-10.6405
gnore	-10.6405
PUNTO	-10.6405
▁deletion	-10.6405
▁ListaStanze	-10.6405
▁Cancellation	-10.6406
Totale	-10.6406
▁five	-10.6406
ferenzediricerca	-10.6406
▁guidainlinea	-10.6406
▁apriFile	-10.6406
▁online	-10.6407
▁beanTags	-10.6407
sub	-10.6408
-01	-10.6408
DBVisitaPR	-10.6409
bassa	-10.6409
▁modificati	-10.6409
▁received	-10.6409
URA	-10.6409
▁assegnata	-10.6409
▁editable	-10.641
▁16	-10.641
scrivi	-10.6411
98	-10.6412
▁disponibilit	-10.6412
▁alcuni	-10.6414
▁DIS	-10.6416
▁previous	-10.6418
▁PIdTurista	-10.6422
+"&	-10.6422
<10)	-10.6422
▁oreAP	-10.6427
▁closeAll	-10.6429
▁durataNews	-10.6429
▁setValueAt	-10.6429
▁persone	-10.6432
▁performs	-10.6433
EMail	-10.6438
▁closed	-10.6451
▁toPut	-10.6465
▁listaRisultati	-10.6466
▁ATA	-10.6467
▁aColumn	-10.6468
▁characters	-10.6473
▁iscrizione	-10.6475
DBBeneCulturale	-10.6475
▁pGiorno	-10.648
Map	-10.6483
ter	-10.6487
Oral	-10.6494
SER	-10.6495
solo	-10.6503
▁DateFormat	-10.6505
▁Properties	-10.6505
▁Thread	-10.6505
▁orarioCHMinPR	-10.6505
▁glass	-10.6506
▁descrizioneBC	-10.6506
IDBBeneCulturale	-10.6513
▁favorites	-10.6518
▁features	-10.6521
▁accord	-10.6523
▁Tal	-10.6525
▁posGeo	-10.6539
modificaFeedback	-10.654
▁pPiatto	-10.6544
tatisticheTotali	-10.6544
Teachings	-10.6546
▁pLocalita	-10.6547
▁posGeoZ	-10.6548
▁passata	-10.6551
▁Enable	-10.6551
▁posGeoY	-10.6552
▁icon	-10.6563
▁suo	-10.6566
GestioneTag	-10.6581
▁searchBuffer	-10.6586
▁pMenu	-10.6589
▁[6]	-10.66
if	-10.6602
setDescrizione	-10.6603
mento	-10.6608
▁frameBounds	-10.6611
:30",	-10.6611
▁col	-10.6617
▁ab	-10.6635
▁pEmail	-10.6641
▁pD	-10.6649
▁passa	-10.6665
▁Stampa	-10.6667
▁video	-10.6667
TimeDelay	-10.6671
▁setPassword	-10.6677
ALT	-10.6684
w	-10.6708
▁us	-10.6709
indi	-10.6724
setDate	-10.6726
▁qu	-10.6737
totali	-10.6745
setP	-10.6752
▁verifica	-10.6763
▁Float	-10.6764
izzazione	-10.6764
▁(0	-10.6779
▁digitat	-10.6782
DateJustify	-10.6828
▁ma	-10.6832
▁pPagina	-10.6833
[6].	-10.6833
▁Are	-10.6843
<=	-10.6906
▁bar	-10.6917
▁changes	-10.6924
▁forma	-10.6931
at	-10.6935
▁ottieniFeedback	-10.6941
▁12))	-10.6945
TableTuristi	-10.6951
▁...	-10.6967
▁(""))	-10.7004
▁me	-10.7013
▁mr	-10.7052
MascheraC	-10.7053
ill	-10.7057
▁inter	-10.7072
▁beans	-10.7077
insertNew	-10.7097
▁alle	-10.7111
▁prepare	-10.7135
Are	-10.7137
rie	-10.7146
▁interval	-10.7148
45	-10.7157
▁errori	-10.7162
▁MA	-10.7183
▁NUM	-10.7215
newsHelp	-10.7219
istanza	-10.7221
▁write	-10.7222
com	-10.7222
specifica	-10.7241
Stanze	-10.7241
ris	-10.7242
Uni	-10.7248
month	-10.7248
ione	-10.7253
ric	-10.7253
Telefono	-10.7258
▁pUser	-10.7262
▁assenza	-10.7277
pStr	-10.7298
RE	-10.7304
pan	-10.7304
pTipologiaSito	-10.7312
scelto	-10.7316
CostantiGlobali	-10.7316
look	-10.7316
▁Username	-10.732
Search	-10.7321
aNews	-10.7322
visual	-10.7326
first	-10.7327
tenere	-10.7327
DeskManager	-10.733
help	-10.733
caption	-10.733
supporto	-10.7333
desk	-10.7334
View	-10.7335
oggetto	-10.7336
ManagerVotes	-10.7337
aggiorna	-10.7339
annulla	-10.734
CAP	-10.7342
managerTeaching	-10.7349
lab	-10.7351
pIdUser	-10.7356
rating	-10.7357
DateAbsence	-10.7381
MA	-10.7383
▁items	-10.7409
[10].	-10.7433
the	-10.7483
Tags	-10.7491
idUser	-10.7504
▁implement	-10.7545
27	-10.7547
ment	-10.7549
Sql	-10.7559
▁url	-10.7562
▁variable	-10.7572
Min	-10.7579
CI	-10.7584
▁person	-10.7587
ostruttore	-10.7588
▁ul	-10.7591
▁continu	-10.7605
▁Inseri	-10.7608
▁vi	-10.7609
ation	-10.7611
SelectionModel	-10.7621
immagin	-10.7626
/1998	-10.7626
aggiore	-10.7632
Nasc	-10.7636
CT	-10.7639
▁enter	-10.7643
▁ritorna	-10.7643
hould	-10.7649
▁descrizione	-10.7653
Pannello	-10.7653
ondi	-10.7654
trieve	-10.7654
Insegnamento	-10.7655
SITO	-10.7655
FullPathDatabase	-10.7655
Millis	-10.7655
Catalog	-10.7655
ReadOnly	-10.7655
VISUALIZZASCHEDA	-10.7655
▁criteri	-10.7655
▁pArg	-10.7655
CANCEL	-10.7655
DefaultTreeModel	-10.7655
DiUnaPagella	-10.7655
PDistanzaMassima	-10.7655
PUNTODIRISTORO	-10.7655
PaginaRisultati	-10.7655
PagineRisultati	-10.7655
getRich	-10.7655
messi	-10.7655
scoltatore	-10.7655
▁Abilita	-10.7655
▁Chied	-10.7655
▁Guest	-10.7655
▁SubGestione	-10.7655
▁determinat	-10.7655
▁interesse	-10.7655
▁margin	-10.7655
▁notizia	-10.7655
▁soddisfa	-10.7655
▁tRis	-10.7655
1970)	-10.7655
appartenenzapr	-10.7655
▁eateries	-10.7655
ULL	-10.7655
getTot	-10.7655
▁esclus	-10.7655
▁possibilit	-10.7655
▁prenotazioni	-10.7655
Office	-10.7655
▁papa	-10.7655
▁Convert	-10.7655
▁camere	-10.7655
GROU	-10.7655
▁represent	-10.7655
eDiRicercaDel	-10.7655
oppo	-10.7655
▁longitude	-10.7655
magg	-10.7655
▁required	-10.7655
center	-10.7656
▁selezionati	-10.7656
▁Categories	-10.7656
▁great	-10.7656
▁southPanel	-10.7656
▁bloccata	-10.7656
<13;	-10.7656
homeP	-10.7657
bassissima	-10.7657
-03	-10.7657
▁jPanelHelp	-10.7657
▁selectionModel	-10.7657
ICI	-10.7657
▁occupata	-10.7657
▁price	-10.7657
▁storico	-10.7657
▁MODIFICADATI	-10.7658
-05	-10.7658
DBVisitaBC	-10.7659
▁vecchia	-10.7659
▁Visited	-10.7659
▁effettuare	-10.766
▁reading	-10.766
howUserList	-10.7662
▁Sim	-10.7662
TuristaComune	-10.7662
setForeground	-10.7662
KeyListener	-10.7663
ness	-10.7664
▁dovranno	-10.7664
▁Exce	-10.7664
tering	-10.7666
▁within	-10.7667
COL	-10.7668
idTeachingList	-10.7669
▁12	-10.7671
JUSTIFY	-10.7673
▁servi	-10.7675
▁Pass	-10.7676
TEACHINGS	-10.7678
▁frequenza	-10.768
▁ctrl	-10.768
▁limit	-10.768
▁pBene	-10.768
▁riduciTutti	-10.768
▁totTermini	-10.768
▁ghh	-10.768
▁ripristinaTutti	-10.768
▁partenza	-10.768
▁coordinate	-10.768
▁ptagi	-10.768
PO	-10.768
▁side	-10.7681
▁maxBanner	-10.7681
▁DESC	-10.7682
box	-10.7683
▁richiede	-10.7685
amente	-10.7711
▁assets	-10.7714
▁visualizzazione	-10.7715
ElencoClassi	-10.7718
▁relativa	-10.7719
▁licenza	-10.7724
▁NewsToolbar	-10.7724
▁EastPanel	-10.7724
▁txtNomeBene	-10.7724
risultatiRicerca	-10.7725
▁descrizionePR	-10.7725
▁comune	-10.7726
▁tmpDelay	-10.7726
▁register	-10.7733
▁(-1	-10.7733
VisualizzaElenco	-10.7736
▁panelTag	-10.7738
▁prem	-10.7743
▁aggiungi	-10.7755
▁inviare	-10.7756
▁save	-10.7765
▁camera	-10.777
▁riferit	-10.777
▁Image	-10.7771
Help	-10.7774
ini	-10.7776
▁status	-10.7781
▁turisti	-10.7796
▁pCol	-10.7797
▁area	-10.7807
▁JOIN	-10.7815
▁latitude	-10.7815
▁iconifiedFrames	-10.7823
ies	-10.7832
xtract	-10.7839
▁modificaTurista	-10.7839
00	-10.7847
31.	-10.7848
▁(40	-10.7856
▁Comment	-10.7863
za	-10.7865
uristiTableModel	-10.7867
▁mR	-10.7868
▁adc	-10.7873
▁Avvio	-10.7876
ad	-10.7877
▁months	-10.7883
▁pConvenzione	-10.7883
▁commissione	-10.7908
LO	-10.7909
▁students	-10.7909
▁link	-10.7911
▁ottieniBanner	-10.7919
▁hours	-10.7922
▁pVoto	-10.7922
▁letto	-10.7925
gc	-10.7926
Is	-10.7939
userId	-10.7939
▁visits	-10.7953
ottieniLista	-10.7954
▁HelpPanel	-10.7955
▁clear	-10.7955
▁pOrarioApertura	-10.7959
▁dai	-10.796
DispOf	-10.7962
cover	-10.7965
▁usa	-10.7966
▁30)	-10.7969
▁ottieniTurista	-10.7974
:00",	-10.7982
▁24)	-10.8
▁tenere	-10.8001
setNum	-10.8007
▁Gr	-10.8007
▁columns	-10.802
ION	-10.8026
▁PO	-10.8037
pText	-10.8041
▁max	-10.8076
getNews	-10.8084
IRicerca	-10.8105
ando	-10.8114
▁30;	-10.8115
DateDelay	-10.8119
2)	-10.8122
ata	-10.8135
▁pCommento	-10.8151
▁4.	-10.8162
▁connections	-10.8229
pool	-10.8235
DateNote	-10.8286
▁specific	-10.8296
[7]	-10.8334
alta	-10.8341
▁City	-10.8342
Student	-10.8435
Renderer	-10.8462
,1,1,	-10.8474
▁alunno	-10.8486
▁Visit	-10.8511
▁ri	-10.8518
rsi	-10.8527
Indirizzo	-10.8532
▁pParent	-10.8551
DimensioneFont	-10.8553
▁ch	-10.8559
../	-10.8579
Register	-10.8583
▁format	-10.8588
25.	-10.8611
On	-10.8624
▁N	-10.8646
▁assegna	-10.8647
Clear	-10.8651
getClassroomBy	-10.8651
aNewsModificata	-10.8651
Timestamp	-10.8651
▁execute	-10.8658
Clos	-10.8666
isTeacher	-10.867
*/	-10.8689
Array	-10.8696
work	-10.8701
pVBC	-10.8702
accademicYear	-10.8703
▁gesti	-10.8709
26	-10.8717
Calendar	-10.8722
Save	-10.8723
Abs	-10.8729
waitTimeout	-10.8733
Insegnamenti	-10.8734
▁loadRecord	-10.8738
getDescription	-10.8743
At	-10.8743
clear	-10.8748
HelpPanel	-10.8748
video	-10.8751
Stampa	-10.8751
pPreferenz	-10.8751
Open	-10.8751
father	-10.8753
combo	-10.8753
pRaggioMax	-10.8755
pTable	-10.8756
accademic	-10.8761
managerRegister	-10.8763
Pnews	-10.8765
ottieniTurista	-10.8767
indirizzoPR	-10.877
pPassword	-10.8775
setPassword	-10.8779
username	-10.8783
have	-10.8788
("",3	-10.8791
▁TEST	-10.8841
▁32)	-10.8863
po	-10.8869
▁utilizz	-10.8871
ga	-10.8894
SE	-10.8896
ins	-10.8899
Field	-10.8901
cos	-10.8903
Mail	-10.8904
▁custom	-10.8905
▁enable	-10.8916
getAbsence	-10.8952
CellRenderer	-10.8985
Priorita	-10.8988
CittaResidenza	-10.8988
Altitudine	-10.8993
zza	-10.8997
AutoCommit	-10.9007
▁convention	-10.9015
▁favorite	-10.9016
▁vuo	-10.9018
▁exist	-10.902
▁Ri	-10.904
CittaNascita	-10.9046
▁pre	-10.905
alberg	-10.905
Background	-10.9051
atti	-10.9055
▁190	-10.906
ranno	-10.9061
Corrett	-10.9062
howClassroomList	-10.9068
setOp	-10.907
▁complete	-10.9079
▁insegna	-10.9083
spond	-10.9083
Caparra	-10.9083
fullPathDatabase	-10.9083
nowledge	-10.9083
▁prefGenTurista	-10.9083
Giustifiche	-10.9083
JMenuItem	-10.9083
LimitedDocument	-10.9083
Lower	-10.9083
Pagelle	-10.9083
Quantita	-10.9083
SoftBevelBorder	-10.9083
Token	-10.9083
Vecchi	-10.9083
anufacturer	-10.9083
osCorrente	-10.9083
ratteriNecessari	-10.9083
▁Information	-10.9083
▁Instantiate	-10.9083
▁ancora	-10.9083
▁btnExit	-10.9083
▁cittaResidenza	-10.9083
▁contenut	-10.9083
▁costoBiglietto	-10.9083
▁genitori	-10.9083
▁restaurant	-10.9083
▁street	-10.9083
▁suggestions	-10.9083
EURO	-10.9083
▁optionPane	-10.9083
▁stampa	-10.9083
▁zero	-10.9083
DELAY	-10.9083
MYSQL	-10.9083
DATABASE	-10.9083
▁Costanti	-10.9083
▁dfDate	-10.9083
▁memoria	-10.9083
▁whether	-10.9083
▁dimensioneFont	-10.9083
Viewport	-10.9083
esistenza	-10.9083
▁commissioni	-10.9083
calcolaConto	-10.9083
▁cittaNascita	-10.9083
Verd	-10.9084
▁quanto	-10.9084
left	-10.9084
▁opp	-10.9084
Tick	-10.9084
NAME	-10.9084
aDiRicercaDel	-10.9084
▁StartDate	-10.9084
▁previously	-10.9084
mezza	-10.9084
Way	-10.9085
aque	-10.9085
▁singol	-10.9085
▁feed	-10.9086
▁ServletDelete	-10.9087
telephone	-10.9087
▁Mess	-10.9087
maxUnitIncrement	-10.9087
UN	-10.9088
▁EndDate	-10.9088
NOTE	-10.9089
▁formatta	-10.9089
▁registered	-10.9089
▁rimane	-10.9089
Hours	-10.9089
▁dataScadenza	-10.9089
!=""	-10.9092
▁mu	-10.9092
datatable	-10.9095
▁btnResetta	-10.9095
DBConvenzione	-10.9097
▁carta	-10.9097
▁advanced	-10.9097
▁ricevut	-10.9098
messo	-10.9098
TIN	-10.9101
tIconifi	-10.9101
▁PIdPreferenza	-10.9102
▁attribute	-10.9102
▁idMenu	-10.9104
align	-10.9105
▁modificate	-10.9105
▁trovato	-10.9106
▁retrieve	-10.9108
lunghezzaStringa	-10.9109
Prima	-10.9109
▁telefono	-10.9111
▁localitaPR	-10.9113
▁ristorazione	-10.9113
▁ACTIVE	-10.9113
▁mediaVotoBC	-10.9113
▁seguente	-10.9113
▁centralPanel	-10.9114
▁buf	-10.9114
▁style	-10.9114
TH	-10.9114
org	-10.9115
setSelection	-10.9117
▁capPR	-10.9117
soc	-10.9119
▁reset	-10.912
▁datiTesto	-10.9121
30	-10.9124
Z	-10.9125
▁displayed	-10.9126
▁poi	-10.9129
▁references	-10.9131
▁pVal	-10.9132
sible	-10.9135
▁aggiornaA	-10.9138
▁Remove	-10.9143
▁giustificata	-10.9148
▁',"	-10.9148
▁ruoli	-10.9152
▁conventions	-10.9152
▁***	-10.9155
▁toString	-10.9159
[5];	-10.9162
▁CenterPanel	-10.9164
▁Nessun	-10.9164
▁timeStamp	-10.9164
▁Test	-10.9165
▁order	-10.9165
▁cittaBC	-10.9166
▁IDBPreferenze	-10.9166
▁pIdBanner	-10.9174
AC	-10.9193
▁asset	-10.9196
▁pAltitudine	-10.9196
▁pImmagine	-10.9205
▁pDataFine	-10.9209
code	-10.921
05/	-10.921
▁Management	-10.9215
▁CentrePanel	-10.9217
blocco	-10.9217
▁oralInt	-10.922
▁13	-10.9227
▁Characters	-10.9231
▁toChange	-10.9234
getH	-10.9257
Selected	-10.9267
▁notenew	-10.9268
▁(200	-10.9273
())+	-10.9276
▁"15	-10.928
▁18)	-10.9289
ITI	-10.9309
ero	-10.931
aggio	-10.9313
▁orarioAPOrePR	-10.9325
▁idBeneCulturale	-10.9337
35.	-10.9353
38.	-10.937
ref	-10.9372
▁Classi	-10.9375
▁idAddress	-10.9378
▁pNomeCategoria	-10.9386
et	-10.9389
▁MascheraC	-10.939
:#	-10.9394
▁pLatitudine	-10.9401
41	-10.9422
▁pLongitudine	-10.9425
▁SMOSConnection	-10.9448
azioni	-10.9461
▁(!((	-10.9481
▁getT	-10.9486
▁CostantiGlobali	-10.9489
▁look	-10.949
▁scelto	-10.9503
eanTemp	-10.953
glie	-10.953
36	-10.9537
▁RightPanel	-10.9544
el	-10.9548
▁color	-10.9554
▁pConnection	-10.9583
▁getPre	-10.96
33.	-10.9623
▁rows	-10.9629
28.	-10.964
▁18	-10.9648
▁calculate	-10.9671
UserName	-10.9694
ensione	-10.9702
▁scatti	-10.9713
▁stats	-10.9723
Report	-10.974
ples	-10.9775
▁informazion	-10.9781
Visitato	-10.9782
▁16)	-10.9814
ListaVisitaPR	-10.9818
nic	-10.9821
▁RegisterLine	-10.9835
setM	-10.9888
[7].	-10.9893
rovare	-10.9908
▁ore	-10.9915
ListaVisitaBC	-10.9939
▁(30)	-10.996
])	-10.9965
▁eliminat	-10.9979
selectedStudent	-11.002
▁21	-11.0046
▁send	-11.0054
IT	-11.0067
col	-11.0102
▁Description	-11.0117
tree	-11.013
alla	-11.0163
getVot	-11.0169
▁ListSelection	-11.017
ted	-11.0228
tag	-11.0238
▁assegnar	-11.0248
Login	-11.0277
▁txt	-11.0279
vis	-11.0286
▁blocc	-11.029
Su	-11.0292
▁fornir	-11.0293
▁cambiare	-11.0307
were	-11.0314
value	-11.0315
unico	-11.0319
jdbc	-11.0321
JComponent	-11.0321
home	-11.0323
isStudent	-11.0328
Elenco	-11.0334
▁Vie	-11.0346
Wrapper	-11.0351
media	-11.0356
datenow	-11.037
IDBBanner	-11.0371
getDelay	-11.038
idClass	-11.0386
isAttiva	-11.0387
CategoryName	-11.0389
scatto	-11.0389
Telefonata	-11.039
replace	-11.0391
writeInt	-11.0395
pIDJustify	-11.04
indice	-11.0401
setMaxim	-11.0402
toIterate	-11.0407
azzera	-11.0407
pNomeCategoria	-11.0412
Remote	-11.0415
SQL	-11.0415
link	-11.0415
letto	-11.0416
commissione	-11.0418
Statistics	-11.042
properties	-11.0421
giorni	-11.0422
chbx	-11.0422
cognome	-11.0424
Elimina	-11.0425
pTagID	-11.0426
scadenza	-11.0426
Inserisci	-11.0427
caratteristiche	-11.0427
ottieniBanner	-11.0428
classroomList	-11.0429
account	-11.043
card	-11.0431
esiste	-11.0431
char	-11.0432
textGuida	-11.0432
▁getDescrizione	-11.0433
managerAddress	-11.0433
Cerca	-11.0433
Seleziona	-11.0433
parent	-11.0434
Dimension	-11.0434
hours	-11.0434
BorderLayout	-11.0435
number	-11.0436
conf	-11.0439
eMail	-11.0443
pIdAddress	-11.0444
DBConnection	-11.0452
▁off	-11.0464
pBanner	-11.0464
getDisp	-11.0469
▁R	-11.0474
RicercaAvanzata	-11.0475
pTurista	-11.0495
▁destina	-11.0498
Cap	-11.0539
Giorno	-11.0544
▁show	-11.0548
▁Invia	-11.0553
-32	-11.0558
525	-11.0564
setT	-11.0566
▁Entit	-11.0577
▁go	-11.0587
▁period	-11.0589
▁second	-11.0589
getJScrollPane	-11.0596
▁startAvvi	-11.0625
Pubblicazione	-11.0643
DriverMySql	-11.065
▁albergo	-11.0651
Tema	-11.0654
MaxPoolSize	-11.0657
FirstName	-11.066
MaxDist	-11.0667
OutputStream	-11.068
▁getCitta	-11.0694
▁categorie	-11.0699
▁2.0	-11.0702
Da	-11.0711
▁"'"	-11.0717
▁variabil	-11.0718
hav	-11.072
ToolBar	-11.0721
ura	-11.0728
▁cultura	-11.0738
ATI	-11.0739
▁ServletInsert	-11.0741
istics	-11.0742
▁receive	-11.0744
ok	-11.0744
nc	-11.0744
earchPanel	-11.0745
omitiva	-11.0747
MaxBanner	-11.0748
▁pConnect	-11.0748
ransaction	-11.0749
▁mouse	-11.0749
UNT	-11.0749
etSelectionMode	-11.075
▁VISUALIZZA	-11.075
scade	-11.075
neonato	-11.075
Scanner	-11.075
roll	-11.075
smtp	-11.075
AdaptorException	-11.075
BLOCCATA	-11.075
COMPLETA	-11.075
CONVENZION	-11.075
CORRENTE	-11.075
Enumeration	-11.075
ImageIO	-11.075
Occur	-11.075
PREFER	-11.075
PagineRicerca	-11.075
PointerException	-11.075
PoolCloseTimeout	-11.075
SSIMA	-11.075
STUDENT	-11.075
activeMaxTimeout	-11.075
advertisement	-11.075
escrittoreStanze	-11.075
latitudine	-11.075
maxDayBeforeExam	-11.075
onnessioniLibere	-11.075
ttavio	-11.075
▁Execut	-11.075
▁Giuseppe	-11.075
▁SubStanze	-11.075
▁aggiuntivo	-11.075
▁appear	-11.075
▁bevande	-11.075
▁bisogn	-11.075
▁contorni	-11.075
▁designat	-11.075
▁dynamic	-11.075
▁emerg	-11.075
▁exhibition	-11.075
▁focus	-11.075
▁pHasFocus	-11.075
▁popera	-11.075
▁ritardi	-11.075
▁semestre	-11.075
▁spot	-11.075
▁submission	-11.075
▁verify	-11.075
articolari	-11.075
▁Direzione	-11.075
▁money	-11.075
▁prefRicTurista	-11.075
▁seguenti	-11.075
▁valTerm	-11.075
▁visibleRect	-11.075
▁week	-11.075
Click	-11.075
PRIORITY	-11.075
justifiedAbsence	-11.075
oolTi	-11.075
▁newStringBuffer	-11.075
FEEDBACK	-11.075
▁quer	-11.075
▁relevance	-11.075
▁CambioPassword	-11.075
trapan	-11.075
var	-11.075
▁situa	-11.075
Mezza	-11.075
inistra	-11.075
ltipl	-11.075
teratoreVisitaPR	-11.075
agg	-11.075
▁grado	-11.075
bambino	-11.075
▁loop	-11.075
NOT	-11.0751
▁RicercaSito	-11.0751
▁belonging	-11.0751
generiche	-11.0751
LMN	-11.0751
eroCaratteriMax	-11.0751
Aggiornato	-11.0751
Back	-11.0751
typ	-11.0751
▁must	-11.0752
beautiful	-11.0752
▁incorrect	-11.0752
▁inside	-11.0752
▁selection	-11.0752
▁entry	-11.0753
▁include	-11.0753
HING	-11.0753
▁positive	-11.0753
▁output	-11.0754
▁partire	-11.0754
▁tenta	-11.0754
DeleteC	-11.0754
▁tempTag	-11.0755
▁stagionalita	-11.0756
DettagliUtente	-11.0756
▁associate	-11.0757
▁startConto	-11.0758
▁pNumPagina	-11.0758
▁pManager	-11.0759
ragazzo	-11.076
▁gestioneNews	-11.0761
▁sola	-11.0761
eTable	-11.0762
sortable	-11.0762
▁25))	-11.0762
StudentsByClass	-11.0763
ComboBox	-11.0766
Ok	-11.0767
puntoTemp	-11.0769
▁Proce	-11.0769
EAR	-11.077
▁vari	-11.0771
lastName	-11.0772
▁sar	-11.0773
getBtnElimina	-11.0773
HE	-11.0775
COM	-11.0778
firstName	-11.0779
▁trovata	-11.0779
▁pIdOperatore	-11.078
pers	-11.0783
▁getLocal	-11.0785
▁puntoDiRistoro	-11.0785
▁supplemento	-11.0785
▁chiusura	-11.0785
▁labelCaratteri	-11.0785
▁provBC	-11.0785
▁maxSimilarity	-11.0785
▁teachingTemp	-11.0786
▁cittaPR	-11.0788
▁pBannerID	-11.0789
setRow	-11.0789
▁cancellaP	-11.079
▁tmpAbsence	-11.0791
Enabled	-11.0793
Link	-11.0795
very	-11.0796
▁modificaTag	-11.0804
nd	-11.0818
▁(140	-11.0818
UserId	-11.0822
hi	-11.0822
▁visualizzato	-11.0825
getIndirizzo	-11.0827
rre	-11.083
Frames	-11.0832
▁pMaxDist	-11.0834
▁personale	-11.0842
▁PKEY	-11.0847
▁columnClasses	-11.0847
▁salva	-11.0847
▁valTotTerm	-11.0847
▁Messaggio	-11.0847
▁telefonoBC	-11.0848
▁votesList	-11.0848
▁telefonoPR	-11.0848
▁DBPreferenze	-11.0849
▁costoBC	-11.0849
▁capBC	-11.0853
▁pCostoBiglietto	-11.0854
▁listaPreferiti	-11.0855
▁pens	-11.0856
▁rig	-11.086
▁idParent	-11.0862
▁loaded	-11.0862
kb	-11.0869
▁pMaxPoolSize	-11.0869
estoNewsRenderer	-11.0869
▁getDati	-11.088
▁secondi	-11.0881
▁locationY	-11.0882
"0"	-11.0885
getAll	-11.0888
▁Show	-11.0888
▁entrat	-11.0898
orale	-11.0905
Rimuov	-11.0905
▁loginException	-11.0907
▁(25	-11.0909
▁puntoRistoro	-11.091
▁Beniculturali	-11.091
▁With	-11.0911
▁controllaDati	-11.0912
▁vedi	-11.0912
5;	-11.0915
▁eventuali	-11.0917
ativo	-11.0918
▁IDBVisitaPR	-11.092
RO	-11.0922
min	-11.0929
attivazione	-11.095
▁120	-11.0961
▁pDataInizio	-11.0964
▁Recuper	-11.0975
▁Be	-11.0979
venue	-11.098
▁abilita	-11.0982
▁archivio	-11.0987
▁setDefault	-11.0991
itare	-11.0998
lation	-11.1006
▁rag	-11.1011
▁ev	-11.1013
cell	-11.1036
▁PASSWORD	-11.104
▁Cell	-11.105
▁IDBTag	-11.1052
oreDat	-11.1052
▁IDBTurista	-11.1055
xUnit	-11.1075
▁(60	-11.1087
VediPrenotazione	-11.1097
▁azzera	-11.1105
▁toIterate	-11.1105
etMonth	-11.1118
getClassroomsBy	-11.112
▁pScheda	-11.1131
▁eMail	-11.1138
▁getJScrollPane	-11.1141
▁cells	-11.1143
estra	-11.1151
llowed	-11.1153
▁Array	-11.1167
todo	-11.1179
▁Register	-11.1183
89	-11.1197
<5;	-11.122
red	-11.1234
▁divers	-11.1235
▁80	-11.124
▁pTipologiaSito	-11.1247
66	-11.125
▁comments	-11.1265
end	-11.1265
am	-11.1271
▁ms	-11.1289
ngle	-11.1295
932	-11.1298
ssing	-11.1342
"+	-11.1355
ediaVotiRenderer	-11.136
▁Call	-11.1361
statements	-11.1381
▁lab	-11.1386
▁getPassword	-11.1386
▁handl	-11.1431
eating	-11.1447
OP	-11.1452
In	-11.1454
▁setSize	-11.146
HO	-11.1461
▁Text	-11.147
▁getBtnElimina	-11.1479
▁Phone	-11.1509
▁coperti	-11.1509
▁pParoleChiave	-11.1509
txts	-11.1521
term	-11.1526
▁Tags	-11.1539
▁opera	-11.1539
ferenzaDiRicerca	-11.1545
▁elimina	-11.1563
▁dates	-11.1583
▁BeanPiatto	-11.1586
pParentException	-11.1586
sManagement	-11.1588
▁visita	-11.1588
olPropertiesPath	-11.1606
36.	-11.1649
[6]	-11.1658
▁(8)	-11.1662
▁+".	-11.1707
▁pTime	-11.1738
▁MediaVoti	-11.1741
Set	-11.176
▁pJustify	-11.176
▁40)	-11.1779
▁canc	-11.1792
Avvio	-11.1804
ven	-11.1809
FF	-11.1835
▁10)	-11.1863
PanelHelp	-11.1915
▁BeniServizi	-11.1924
▁rilasci	-11.1956
▁tal	-11.1958
28	-11.1965
▁Convenzione	-11.1967
edBackTableModel	-11.1969
Reset	-11.1992
▁WA	-11.2005
[9]	-11.2024
componenti	-11.2026
ior	-11.2052
▁Dati	-11.2095
ome	-11.2117
▁70	-11.213
ddressManagement	-11.2173
▁(50	-11.2185
ble	-11.2187
setNumStanz	-11.2191
Nuovo	-11.2194
Cell	-11.2197
icon	-11.2201
nt	-11.2218
▁disabilit	-11.2223
****************	-11.2225
Change	-11.224
▁Int	-11.2241
J	-11.2247
pPuntoDiRistoroI	-11.2268
ava	-11.227
▁pBeneCulturale	-11.228
CE	-11.2291
▁render	-11.2292
ano	-11.23
')"	-11.2305
▁Pos	-11.2319
Longitude	-11.2325
isParent	-11.2337
txt	-11.2339
Na	-11.2342
testoSplit	-11.2371
Replace	-11.2371
Priority	-11.2372
effettua	-11.2378
Comment	-11.2381
studentId	-11.2387
Update	-11.2399
oggi	-11.24
BufferedImage	-11.2401
line	-11.2406
PASSWORD	-11.2408
Enable	-11.2411
SMOSConnection	-11.2412
orarioAPOrePR	-11.2412
IDBTag	-11.2413
IDBTurista	-11.2415
pTagsId	-11.2416
adc	-11.2417
searchBuffer	-11.2418
mR	-11.2419
qualcun	-11.2421
▁Null	-11.2424
frameBounds	-11.2424
path	-11.2425
logged	-11.2425
questo	-11.2426
Insert	-11.2428
statistics	-11.243
province	-11.243
store	-11.2432
Otten	-11.2432
pannelloTag	-11.2433
nomePR	-11.2434
GridBagLayout	-11.2435
Sceglie	-11.2435
codice	-11.2435
instance	-11.2435
Checkbox	-11.2435
}	-11.2435
PBC	-11.2439
totale	-11.2441
pDescrizione	-11.2442
Calcolo	-11.2444
getTeachingsBy	-11.2445
orted	-11.2453
▁f	-11.2454
settare	-11.2464
▁(((	-11.2465
pUsername	-11.2465
getPx	-11.2468
MS	-11.2479
enerated	-11.2479
crea	-11.2484
tImplemented	-11.2489
34	-11.2494
va	-11.2495
idAddress	-11.2495
over	-11.2505
maggiore	-11.2513
LI	-11.2523
▁quel	-11.2523
action	-11.2525
▁turistic	-11.2532
▁eat	-11.254
[])	-11.2556
▁"84	-11.257
Details	-11.2578
▁getAcademicYear	-11.2582
02	-11.261
▁mak	-11.2615
▁returning	-11.2622
getID	-11.2636
▁0))	-11.2647
WaitTimeout	-11.265
PoolTimeout	-11.265
ActiveTimeout	-11.2655
CostoBiglietto	-11.2657
CA	-11.2659
ber	-11.2659
pend	-11.267
Title	-11.2674
▁degree	-11.2674
atch	-11.2679
▁reference	-11.2682
Inizio	-11.2682
▁(5)	-11.2686
DataScadenza	-11.2686
Servizi	-11.269
▁identif	-11.2691
mic	-11.2692
)+"	-11.2699
▁risulta	-11.2702
--------------	-11.2709
Studenti	-11.271
laborazione	-11.2713
rrivo	-11.2725
nclusion	-11.2726
ml	-11.2728
pBeneCulturale	-11.273
ance	-11.2731
treb	-11.2732
Admin	-11.2738
tica	-11.2738
▁termini	-11.2739
▁valor	-11.2741
776	-11.2742
old	-11.2744
▁provide	-11.2744
▁Hel	-11.2744
▁aggiunge	-11.2745
awa	-11.2747
▁Double	-11.2748
Locale	-11.2748
document	-11.2749
Wrap	-11.2749
TAG	-11.275
▁contiene	-11.275
Coperto	-11.275
ingoloConAgenzia	-11.275
▁altri	-11.275
▁removeStr	-11.275
ENZIONE	-11.275
GIORNI	-11.275
HeaderLogoPath	-11.275
Tabella	-11.275
ZZA	-11.275
eGenericheNuove	-11.275
keyPressed	-11.275
oundException	-11.275
timiTrentaGiorni	-11.275
uzzy	-11.275
▁"61616161",	-11.275
▁Penna	-11.275
▁Provide	-11.275
▁agreement	-11.275
▁altitude	-11.275
▁bambini	-11.275
▁comfort	-11.275
▁convertire	-11.275
▁deaddebita	-11.275
▁disciplinari	-11.275
▁millisecondi	-11.275
▁nessuna	-11.275
▁preferiti	-11.275
▁screen	-11.275
▁statistical	-11.275
insegnante	-11.275
▁food	-11.275
▁molti	-11.275
▁nascita	-11.275
▁riprovare	-11.275
▁stmt	-11.275
▁occupanti	-11.275
▁temporanea	-11.275
▁assenti	-11.275
▁board	-11.275
▁pTermini	-11.275
connectionCloser	-11.275
hasMore	-11.275
▁Acced	-11.275
▁Mimos	-11.275
▁ProvaBanner	-11.275
Base	-11.275
▁process	-11.275
WindowConstants	-11.275
▁corrette	-11.275
▁etc	-11.275
mlml	-11.275
passwd	-11.275
stylesheet	-11.275
▁operazioni	-11.275
▁iterate	-11.275
▁voting	-11.275
Invoke	-11.275
▁scrollTableNews	-11.275
Bell	-11.275
sbt	-11.275
▁contentente	-11.275
▁course	-11.275
▁showDispOf	-11.275
="../../	-11.275
PrioritaRenderer	-11.275
▁beni	-11.275
▁meet	-11.275
▁frequenzaTesto	-11.275
valuta	-11.2751
▁configurazione	-11.2751
▁inerent	-11.2751
▁ShowDisp	-11.2751
▁cibi	-11.2751
▁proper	-11.2751
▁phase	-11.2751
▁ServletUpdate	-11.2751
▁convertit	-11.2751
▁organizza	-11.2751
▁filepath	-11.2752
Re	-11.2752
resting	-11.2752
▁getVa	-11.2752
▁problema	-11.2753
▁essa	-11.2753
CR	-11.2753
chet	-11.2754
Conve	-11.2754
▁released	-11.2754
ultimo	-11.2754
ENTA	-11.2754
▁ospite	-11.2754
▁performed	-11.2754
StudentClassroom	-11.2754
erif	-11.2754
getAnno	-11.2754
▁pernottamento	-11.2755
▁identico	-11.2755
▁chose	-11.2755
ByClass	-11.2755
50000000	-11.2755
▁dish	-11.2755
eprecat	-11.2757
▁280	-11.2757
▁accede	-11.2757
rty	-11.2758
▁task	-11.2758
▁antipasti	-11.2759
LIRE	-11.2759
posNuovo	-11.2759
MouseEvent	-11.276
CHI	-11.276
▁completed	-11.276
unexpected	-11.276
▁appropriate	-11.2761
wd	-11.2762
▁bannerSize	-11.2765
▁aggiungere	-11.2765
▁attivaTurista	-11.2766
▁serve	-11.2766
▁ten	-11.277
isClosed	-11.277
zioneAttiva	-11.277
▁may	-11.2771
feedbackTable	-11.2774
▁Digitale	-11.2774
delays	-11.2777
▁plate	-11.2778
itStudent	-11.278
ched	-11.278
250,	-11.2782
▁tInteger	-11.2783
▁btnCarica	-11.2794
▁pDatiFeedback	-11.2794
▁mychoice	-11.2794
▁replaceWith	-11.2794
▁TextArea	-11.2794
▁logout	-11.2795
▁real	-11.2795
▁conv	-11.2796
▁DBBanner	-11.2797
etRes	-11.28
▁durata	-11.2806
VE	-11.2807
▁memor	-11.2807
▁fin	-11.2807
NotB	-11.2809
gio	-11.2811
▁Ro	-11.2813
DBNews	-11.2814
lui	-11.2815
wo	-11.2816
▁aggiornati	-11.2821
AG	-11.2821
Periodo	-11.2827
ST	-11.283
▁inactive	-11.283
▁spesa	-11.2832
▁52)	-11.2854
ana	-11.2856
▁pFont	-11.2862
▁fare	-11.2864
ABC	-11.2864
▁coperto	-11.2871
▁listSelcected	-11.2871
▁laboratorio	-11.2871
▁localitaBC	-11.2871
▁luogoNascita	-11.2871
▁dbvisita	-11.2871
SP	-11.2871
▁costrui	-11.2872
▁dbtag	-11.2873
▁pMail	-11.2874
()+1)	-11.2875
▁nuovaVisita	-11.2877
NAL	-11.2878
▁pDataScadenza	-11.2879
▁[8]	-11.288
ascheraSoggiorno	-11.2881
▁pSelectedNode	-11.2881
▁mese	-11.2882
getStatus	-11.2884
getLocalita	-11.2885
Fratt	-11.2889
▁nomi	-11.2892
getComponent	-11.2895
▁pMaxBanner	-11.2897
cho	-11.2913
aca	-11.2915
▁pCittaNascita	-11.2917
▁pCittaResidenza	-11.2917
▁pPriorita	-11.2917
lue	-11.2917
▁pTotTermini	-11.2919
▁make	-11.2919
▁pDimensioneFont	-11.2923
PaginaCorrente	-11.2933
stubs	-11.2938
]))	-11.2943
dateNote	-11.2948
▁Docente	-11.295
▁driver	-11.295
▁provPR	-11.295
▁JTree	-11.2951
▁dbBanner	-11.2952
▁pPercorsoFile	-11.2956
ans	-11.2958
▁pPartitaIva	-11.2981
rameIcon	-11.2988
▁pDataNascita	-11.2994
getComune	-11.3005
!!"	-11.3019
▁Key	-11.303
▁pSelected	-11.303
▁before	-11.3031
▁Studente	-11.304
▁IDBVisitaBC	-11.3041
▁LoginException	-11.3041
▁necessaria	-11.3045
▁Prenotazioni	-11.305
sin	-11.3051
▁ottenut	-11.3053
▁ServletShowUser	-11.3056
▁resto	-11.3063
UD	-11.3073
PC	-11.3073
FORMA	-11.3078
▁idJustify	-11.308
absences	-11.3108
▁port	-11.3109
▁getTeachingsBy	-11.3111
▁BufferedImage	-11.3112
modificaCommento	-11.3118
▁justifynew	-11.3123
000000	-11.3126
aC	-11.3134
▁pTagsId	-11.3134
ph	-11.3151
6;	-11.3152
tmpUser	-11.3154
setF	-11.3156
▁fonts	-11.3175
▁args	-11.3176
▁Di	-11.318
07	-11.3193
▁pIDJustify	-11.3195
▁indice	-11.3195
▁ava	-11.3196
ces	-11.3197
▁pTurn	-11.3208
▁RicercaAvanzata	-11.3238
▁allo	-11.3239
▁ok	-11.3248
Di	-11.325
▁code	-11.3259
dd	-11.3261
▁Insegnamenti	-11.3276
▁waitTimeout	-11.3277
istaPrenotazioni	-11.3281
AD	-11.3285
▁Abs	-11.3286
getW	-11.3304
SERT	-11.3321
▁vis	-11.3336
()+"."	-11.3339
▁On	-11.3339
do	-11.3355
▁CAP	-11.3362
Categorie	-11.3364
omen	-11.3373
▁pres	-11.341
▁Fe	-11.3425
64	-11.344
▁Registro	-11.3446
▁IDBConvenzione	-11.3456
▁getTelefono	-11.3464
▁getS	-11.3465
container	-11.35
pagato	-11.3522
atte	-11.3527
▁strings	-11.3532
▁PartitaIva	-11.3539
ine	-11.3562
▁27	-11.3572
uild	-11.3576
▁booleano	-11.359
▁maxPoolSize	-11.3619
▁Close	-11.3642
▁3:	-11.3647
IdNote	-11.3659
Key	-11.3659
UT	-11.3672
04	-11.3673
▁[10]	-11.3686
▁Sceglie	-11.3701
▁key	-11.3703
LastName	-11.3716
▁1:	-11.3725
▁profil	-11.3759
▁getToolbar	-11.3763
▁NumeroVoti	-11.3803
▁getCap	-11.3805
▁pBeanVisitaBC	-11.3823
ltre	-11.3828
+1;	-11.3829
▁As	-11.3838
▁rel	-11.3866
Singolo	-11.3872
▁pString	-11.3873
lbergo	-11.3897
▁pInt	-11.3907
tan	-11.3925
▁at	-11.3925
▁O	-11.3938
▁rist	-11.3962
▁+=	-11.399
▁Le	-11.4017
▁usernameTurista	-11.4033
▁specifica	-11.4034
PropertiesPath	-11.4042
▁(16	-11.4072
IDB	-11.4077
▁50	-11.4105
unica	-11.4153
▁iterator	-11.4156
BeanOperatore	-11.4156
stringa	-11.4198
▁=-6	-11.4201
IdDelay	-11.4219
sci	-11.4235
Scadut	-11.4237
tto	-11.4243
Prenotazioni	-11.4258
cause	-11.4259
▁handle	-11.4269
▁Email	-11.4272
ima	-11.4294
agato	-11.4347
che	-11.4352
MO	-11.4372
PE	-11.4372
gi	-11.4378
▁occupa	-11.4411
50	-11.4416
none	-11.443
▁(180	-11.4461
600	-11.4478
lare	-11.4493
he	-11.4522
GH	-11.4524
▁22	-11.4547
Un	-11.4548
Studente	-11.4589
▁2:	-11.4613
▁tel	-11.4626
▁ids	-11.4645
ino	-11.4663
We	-11.4672
▁getLast	-11.4687
cl	-11.4696
field	-11.4712
82	-11.4725
▁read	-11.4746
]=	-11.4746
getOra	-11.4765
and	-11.4803
▁Ba	-11.4815
Font	-11.4816
33	-11.4826
attuale	-11.4827
export	-11.4828
Latitude	-11.4828
CittResidenza	-11.4829
Fine	-11.4855
rnalFrameAdapter	-11.4855
Richieste	-11.486
pdf	-11.4872
toControl	-11.4872
bVisitaTemp	-11.4873
agenzie	-11.4873
Scatti	-11.4873
▁activat	-11.4876
▁setUser	-11.488
servizi	-11.489
generic	-11.4891
itStu	-11.4891
space	-11.4891
poolTimeout	-11.4891
role	-11.4891
activeTimeout	-11.4892
getBtnAzzera	-11.4892
full	-11.4892
▁inizia	-11.4892
▁Una	-11.4894
getBtnRicerca	-11.4899
dbbc	-11.49
nomi	-11.4901
before	-11.4901
IDBVisitaBC	-11.4906
Recuper	-11.4907
posGeo	-11.4911
rag	-11.4911
abilita	-11.4913
JOIN	-11.4916
latitude	-11.4916
passata	-11.4918
Return	-11.4918
posGeoZ	-11.4919
TR	-11.492
modificaTurista	-11.492
orarioApMinPR	-11.492
visited	-11.4923
ToolbarSchedaPR	-11.4923
counter	-11.4923
PRNode	-11.4924
posGeoY	-11.4925
pass	-11.4926
figli	-11.4926
count	-11.4927
nomeBC	-11.4929
textbox	-11.4929
feedback	-11.493
Input	-11.4931
column	-11.4933
btnAzzera	-11.4933
pagella	-11.4933
LoginException	-11.4934
dbNews	-11.4934
pVoto	-11.4935
NewsTableModel	-11.4935
Salerno	-11.4935
Man	-11.4937
smos	-11.4939
iconifiedFrames	-11.494
activate	-11.4942
▁utilizzat	-11.4942
2009	-11.4944
stu	-11.4948
For	-11.4948
pVisitaPR	-11.4949
pVisitaBC	-11.4949
presenti	-11.4955
senza	-11.4955
setDefault	-11.4963
act	-11.4967
▁Inte	-11.4969
idJustify	-11.497
[12].	-11.497
IGestioneAdve	-11.498
pValue	-11.4993
testoNews	-11.4995
Rimuovi	-11.5011
Ma	-11.5025
nn	-11.5026
Turisti	-11.5074
Pool	-11.5082
setPreferred	-11.5101
40	-11.5106
Invia	-11.5108
justifynew	-11.5117
IdBene	-11.5124
rovincia	-11.5146
TextFooter	-11.515
ServerSmtp	-11.5159
NumeroPagina	-11.5166
Connections	-11.5168
nto	-11.5169
na	-11.517
436	-11.517
olo	-11.5172
▁perform	-11.5178
Box	-11.5179
DataFine	-11.5182
Char	-11.5183
▁Favorite	-11.5184
DataInizio	-11.5187
▁richied	-11.5192
chiesto	-11.5196
Driver	-11.5198
▁Term	-11.5205
▁Time	-11.5211
▁attual	-11.5212
TO	-11.5214
Scatt	-11.5216
lable	-11.522
uisce	-11.5221
▁convenzion	-11.5221
▁getFeedback	-11.5221
dvanced	-11.5225
Assenze	-11.5225
▁Digital	-11.5225
nalyzed	-11.5226
▁Mouse	-11.523
inutes	-11.5232
rgument	-11.5232
Foreground	-11.5234
for	-11.5242
▁posti	-11.5243
▁issue	-11.5244
▁realiz	-11.5247
aschera	-11.5247
Standard	-11.5247
RIC	-11.5247
▁visitati	-11.5249
bile	-11.5249
corda	-11.5249
Azzera	-11.5249
academic	-11.5249
polit	-11.5249
instan	-11.5249
▁almeno	-11.525
Neonato	-11.525
PrefRic	-11.525
ATTIVA	-11.525
Giorni	-11.525
Block	-11.525
PooledConnection	-11.525
Tutti	-11.525
serverSmtp	-11.525
Specializzat	-11.525
▁testGetTab	-11.525
,"","","	-11.525
ADULTO	-11.525
ASSEGNATA	-11.525
BAMBINO	-11.525
COLAZIONE	-11.525
Conf	-11.525
ElencoRegistri	-11.525
Largo	-11.525
Monitoraggio	-11.525
PERNOTTAMENTO	-11.525
PROSSIMO	-11.525
Parametri	-11.525
PerAddebitare	-11.525
RAGAZZO	-11.525
Riga	-11.525
UltimiCommenti	-11.525
VetoException	-11.525
beniservizi	-11.525
commissionamento	-11.525
disattivaTurista	-11.525
itional	-11.525
nasc	-11.525
pTipologiaUtente	-11.525
▁Calculat	-11.525
▁Chiud	-11.525
▁Condition	-11.525
▁InternetAddress	-11.525
▁Receive	-11.525
▁SubBeniServizi	-11.525
▁SubCommissioni	-11.525
▁VISUALIZZASITI	-11.525
▁VediBeniServizi	-11.525
▁VediCliente	-11.525
▁VediCommissione	-11.525
▁VediStanza	-11.525
▁children	-11.525
▁chiudere	-11.525
▁gerarchia	-11.525
▁giustifiche	-11.525
▁histor	-11.525
▁inserite	-11.525
▁lavoro	-11.525
▁maxDist	-11.525
▁neonati	-11.525
▁obbligatori	-11.525
▁occur	-11.525
▁outlets	-11.525
▁pGlassComponent	-11.525
▁proceed	-11.525
▁riguardant	-11.525
▁settimana	-11.525
▁speficiato	-11.525
▁statistico	-11.525
▁surname	-11.525
▁tTmp	-11.525
▁telefonate	-11.525
▁telefonica	-11.525
MaxDayBeforeExam	-11.525
Ottabio	-11.525
simple	-11.525
▁FinModifiche	-11.525
▁corrispondenza	-11.525
▁instantiate	-11.525
▁located	-11.525
▁pTestoCategoria	-11.525
BACK	-11.525
getStagAnno	-11.525
▁ServletLoad	-11.525
▁rinfresc	-11.525
▁tIntString	-11.525
▁RMI	-11.525
▁pubblicitario	-11.525
DisattivaTurista	-11.525
STATISTIC	-11.525
▁inserendo	-11.525
DriverManager	-11.525
egal	-11.525
showNoteList	-11.525
▁central	-11.525
▁finestre	-11.525
▁hits	-11.525
ETT	-11.525
PREFERENZE	-11.525
setPaint	-11.525
▁Import	-11.525
▁LOGIN	-11.525
TIVI	-11.525
▁SchedaPR	-11.525
▁cambiamento	-11.525
▁ReplaceAll	-11.525
▁Passwd	-11.525
▁corretto	-11.525
0100	-11.525
member	-11.525
ConnectionCloser	-11.525
ziare	-11.525
▁trasforma	-11.525
▁visualInsert	-11.525
▁AskChiudiConto	-11.5251
NewsParametro	-11.5251
showAddressList	-11.5251
▁proced	-11.5251
replaceAll	-11.5251
vation	-11.5251
▁riversa	-11.5251
FocusListener	-11.5251
Scrollable	-11.5251
▁seek	-11.5251
GIO	-11.5251
▁visitatiBC	-11.5251
▁paramtro	-11.5251
FileFilter	-11.5251
VISIT	-11.5251
sitive	-11.5251
▁concordat	-11.5251
▁registrazione	-11.5251
="0"+	-11.5251
allableStatement	-11.5251
▁above	-11.5251
▁visitatiPR	-11.5251
keyChar	-11.5251
▁InserisciStanze	-11.5251
FILE	-11.5252
▁CancellaStanze	-11.5252
MENTO	-11.5252
Permission	-11.5252
▁two	-11.5252
hover	-11.5252
TuristiAgenzia	-11.5252
▁direzione	-11.5252
otore	-11.5252
▁veng	-11.5253
▁scrollPane	-11.5253
Mon	-11.5253
▁odierna	-11.5254
▁amended	-11.5254
schedaturista	-11.5254
▁detect	-11.5254
▁Card	-11.5254
▁loro	-11.5254
▁ModificaStanze	-11.5255
▁tornaDate	-11.5255
unselectedlength	-11.5255
▁intende	-11.5255
▁MascheraCambio	-11.5255
▁currently	-11.5255
rnd	-11.5256
▁sotto	-11.5256
FileReader	-11.5257
▁pick	-11.5257
DRenderer	-11.5257
▁pIdPiatto	-11.5257
▁getScrollable	-11.5257
changeStanza	-11.5258
▁Gior	-11.5259
▁iconDialog	-11.5259
▁listino	-11.5259
▁meno	-11.5259
▁rimuove	-11.5259
setContent	-11.526
AttributeSet	-11.5261
▁specificato	-11.5262
▁some	-11.5262
▁assegnato	-11.5263
▁ottieniMenu	-11.5264
▁preview	-11.5264
▁dimensione	-11.5264
TestCase	-11.5264
▁Ritardi	-11.5265
setFine	-11.5268
▁creating	-11.5268
INE	-11.5268
terminiCategoria	-11.5268
▁End	-11.5269
ReportTableModel	-11.5269
▁map	-11.5269
alertStudentNote	-11.527
▁getStatistiche	-11.527
CAL	-11.5271
setInizio	-11.5272
ERI	-11.5273
▁potr	-11.5273
▁rispett	-11.5274
selectedNode	-11.5274
ATO	-11.5274
FileOutputStream	-11.5275
ebb	-11.5275
MEN	-11.5281
DataSource	-11.5281
<->	-11.5282
▁visualizzate	-11.5284
DBPiatto	-11.5284
▁cambiato	-11.5285
▁stabili	-11.5286
▁classList	-11.5287
ful	-11.5287
DES	-11.5288
▁compi	-11.529
tro	-11.529
▁star	-11.5292
▁numeri	-11.5293
▁dot	-11.5294
▁fre	-11.5295
Ele	-11.5296
▁getM	-11.5297
dem	-11.5297
▁whose	-11.5298
ndDate	-11.5299
DBMenu	-11.53
▁need	-11.5301
setPx	-11.5305
Nazione	-11.5306
LAS	-11.5307
▁480)	-11.5308
getVotesByUserId	-11.5308
▁Genitore	-11.5308
▁btnOK	-11.5308
▁inStream	-11.5308
▁removal	-11.5308
▁PannelloTag	-11.5308
▁corretti	-11.5308
▁necessary	-11.5308
▁FileInputStream	-11.5308
▁well	-11.5309
▁txtAttiva	-11.5309
▁pImmagineBanner	-11.531
▁Price	-11.531
Corretti	-11.5315
▁IDBOperatore	-11.5318
onico	-11.5318
Timeout	-11.532
nteger	-11.5321
▁cancellata	-11.5324
<10;	-11.5325
▁rea	-11.5325
▁BannerDialog	-11.5325
▁assente	-11.5326
orientation	-11.5329
getSelected	-11.5329
LIMI	-11.5333
()<=0)	-11.5333
letterePermesse	-11.5337
▁pIdBene	-11.5338
▁getOra	-11.534
398	-11.5344
deleteDelay	-11.5345
currentTag	-11.5352
Doc	-11.5352
▁(700	-11.5353
00000	-11.5363
▁Site	-11.5366
▁testoCategoria	-11.5372
pConnection	-11.5376
▁checked	-11.5381
▁compres	-11.5388
▁valida	-11.5389
setAutoCommit	-11.5392
▁Stagioni	-11.5393
Documento	-11.5395
Costruttore	-11.5395
working	-11.5395
▁coinvolt	-11.5399
▁feedbackModel	-11.5404
55)	-11.5408
▁dataScad	-11.541
▁botton	-11.541
▁dataPubb	-11.541
▁filtri	-11.541
▁imageLeftColumn	-11.541
▁isWizard	-11.541
▁listavisitati	-11.541
▁Random	-11.541
▁riduzione	-11.541
▁primi	-11.541
▁calcola	-11.541
▁textPanel	-11.541
▁castle	-11.541
▁buttonPanel	-11.541
▁imageHeaderPath	-11.541
▁pNewsID	-11.5411
▁aggiungeTag	-11.5411
▁hold	-11.5411
----------------	-11.5412
35608	-11.5413
▁Arrivo	-11.5418
nTeaching	-11.5419
menuListener	-11.542
mia	-11.5421
ttieniFeedbackPR	-11.5422
▁scritto	-11.5426
▁quali	-11.5429
deleteAbsence	-11.544
▁itTeaching	-11.5444
idVoto	-11.5445
▁pTema	-11.5446
▁Nuova	-11.5448
▁newIndex	-11.545
▁corso	-11.545
70	-11.5458
▁selectedlength	-11.547
▁counters	-11.547
IDA	-11.5472
▁pField	-11.5472
IdTag	-11.5475
▁stu	-11.548
▁An	-11.5482
▁setCitta	-11.5486
statoConvenzione	-11.5489
▁pOral	-11.5496
▁continue	-11.5507
▁iniz	-11.5509
Sta	-11.5512
▁laboratory	-11.5515
▁textFooter	-11.5515
▁written	-11.5515
▁driverMySql	-11.5515
▁JTextComponent	-11.5515
▁SubPrenotazione	-11.5515
▁pTagNuovo	-11.5515
▁orarioCHOrePR	-11.5515
▁img	-11.5519
orma	-11.552
▁pLaboratory	-11.5522
▁pWritten	-11.5522
▁aTable	-11.5528
Maschera	-11.5529
▁pConv	-11.5529
eranno	-11.553
Released	-11.5535
▁idNews	-11.5547
Status	-11.5554
▁userName	-11.5556
=0,	-11.5557
▁(32	-11.5557
enabled	-11.5569
▁fe	-11.5569
▁thi	-11.5569
▁fatt	-11.5585
IdMenu	-11.5598
▁pSql	-11.56
ARN	-11.5605
ITA	-11.5606
▁60	-11.5607
▁180	-11.5621
▁generic	-11.5621
▁itStu	-11.5622
▁role	-11.5622
▁full	-11.5622
▁space	-11.5622
▁getBtnAzzera	-11.5623
▁activeTimeout	-11.5623
▁poolTimeout	-11.5624
▁getBtnRicerca	-11.563
▁userStudent	-11.5638
▁setD	-11.5666
▁IGestioneAdve	-11.5671
Day	-11.5672
▁adding	-11.568
▁pensionamento	-11.5693
1[2]	-11.5726
▁maggiore	-11.573
▁Update	-11.5731
▁tabellas	-11.5746
pUsernameTurista	-11.5754
go	-11.5761
▁pRegisterLine	-11.5768
+".*	-11.5769
EF	-11.5779
▁pKeyEvent	-11.5797
▁pIdJustify	-11.5826
▁ottieniTags	-11.5829
▁Report	-11.5839
▁Telefonata	-11.584
▁scatto	-11.5842
▁Statistics	-11.5842
▁(15	-11.5843
▁replace	-11.5845
▁writeInt	-11.5846
▁media	-11.5848
▁(120	-11.585
▁CategoryName	-11.5854
etTelefono	-11.5881
adrimestre	-11.5884
▁160	-11.5903
Temp	-11.5924
ene	-11.5933
▁pbc	-11.5938
iene	-11.5947
ratta	-11.5954
▁ins	-11.5954
▁Calendar	-11.5954
▁Save	-11.5956
VisualizzaD	-11.5979
▁setT	-11.5999
setE	-11.6006
lu	-11.603
sa	-11.6031
ative	-11.6034
Immagine	-11.6047
linea	-11.6048
ferenzeDiRicerca	-11.6064
1[1]	-11.6074
32	-11.6075
ale	-11.6079
stra	-11.6088
sen	-11.6105
5,5,5	-11.613
ServletException	-11.6158
imento	-11.6167
vo	-11.6173
▁repaint	-11.6183
▁preceden	-11.6183
est	-11.6183
ercorso	-11.6187
("",2	-11.6195
><	-11.6234
Verific	-11.6263
zioni	-11.6293
▁files	-11.6295
▁delet	-11.6295
▁registry	-11.63
▁tmpRegisterLine	-11.6302
></	-11.6347
ColumnName	-11.6351
<3;	-11.6391
▁indica	-11.6414
▁Cambio	-11.6426
itu	-11.6436
Rag	-11.6442
01	-11.6482
40)	-11.6493
getKeyC	-11.6511
+(	-11.6524
▁comitiva	-11.6548
▁pClassroom	-11.6584
79	-11.6623
▁Telefonate	-11.6626
adding	-11.663
▁suggeriment	-11.6638
▁cambiat	-11.6706
OTTA	-11.6717
aEvent	-11.6756
mplic	-11.6763
▁cambia	-11.6797
4)	-11.6803
tDate	-11.6864
295	-11.6887
(((	-11.6891
":"	-11.6966
Gi	-11.6978
spetta	-11.6983
GestioneAdve	-11.6984
▁cos	-11.7003
▁pNews	-11.7009
ep	-11.7014
Si	-11.7051
▁0:	-11.7052
▁controll	-11.7053
>=	-11.7105
dere	-11.7118
▁mi	-11.7138
▁Qua	-11.7156
Nascita	-11.7164
1[0]	-11.7174
▁Number	-11.7204
tatic	-11.7243
17,	-11.7244
ll	-11.7257
▁Buil	-11.7259
ModificaBC	-11.727
▁17	-11.7272
29)	-11.7289
▁23	-11.7305
▁operatore	-11.7318
empi	-11.7326
ci	-11.7351
▁+"	-11.736
etUserName	-11.7377
ante	-11.7396
▁wh	-11.7409
deco	-11.7449
▁Conto	-11.7457
96	-11.7508
ra	-11.7534
▁50)	-11.7556
▁20))	-11.7562
CL	-11.7603
nza	-11.7649
▁v	-11.7653
▁invi	-11.7658
▁(20	-11.7698
▁State	-11.7735
ity	-11.777
getJPanel	-11.7778
getSelection	-11.7813
um	-11.7814
Ba	-11.7814
enti	-11.7824
87	-11.7829
Mi	-11.7862
ttori	-11.7879
sol	-11.794
ESC	-11.7965
leCellRenderer	-11.7972
▁getJPanel	-11.7978
_4.	-11.799
▁34	-11.8048
Icon	-11.8055
ingAsAddress	-11.8065
Image	-11.812
selectedRoles	-11.8144
▁numeroElementi	-11.8144
attivi	-11.8145
▁sec	-11.8151
▁qui	-11.8162
important	-11.8165
mysql	-11.8165
setMinimum	-11.8166
unselectedRoles	-11.8166
Place	-11.8166
datevalues	-11.8166
recuper	-11.8166
ATT	-11.8167
activeSize	-11.8168
timeDelay	-11.8169
ty	-11.8173
cording	-11.8174
Bc	-11.8181
Mo	-11.8182
stru	-11.8189
per	-11.8194
tourist	-11.8194
And	-11.82
pTagModificato	-11.8208
pOffset	-11.8208
Test	-11.8209
getAbsenceById	-11.8209
segue	-11.8211
throw	-11.8211
saved	-11.8215
aggiorn	-11.8219
iniz	-11.822
access	-11.8224
itario	-11.8225
Nota	-11.8226
written	-11.8226
textFooter	-11.8226
JTextComponent	-11.8226
SubPrenotazione	-11.8226
driverMySql	-11.8226
laboratory	-11.8226
pTagNuovo	-11.8226
orarioCHOrePR	-11.8226
pConv	-11.8227
present	-11.823
img	-11.823
▁eventual	-11.823
setCitta	-11.8235
driver	-11.8236
provPR	-11.8236
Docente	-11.8236
JTree	-11.8236
With	-11.8242
aTable	-11.8242
Beniculturali	-11.8242
puntoRistoro	-11.8242
vedi	-11.8243
controllaDati	-11.8243
format	-11.8247
CentrePanel	-11.8247
ating	-11.8247
Assegna	-11.8247
▁cont	-11.8248
camera	-11.825
IDBVisitaPR	-11.825
pDataInizio	-11.8252
Properties	-11.8252
items	-11.8252
descrizioneBC	-11.8253
DateFormat	-11.8253
▁GestioneTag	-11.8253
oralInt	-11.8253
glass	-11.8253
orarioCHMinPR	-11.8253
citta	-11.8253
Thread	-11.8253
corrente	-11.8255
profiloTurista	-11.8256
sourceStr	-11.8256
toChange	-11.8256
pCol	-11.8257
giorno	-11.8257
node	-11.8258
RicercaPanel	-11.8258
pStatementSql	-11.8259
Indietro	-11.826
location	-11.8261
myCheckbox	-11.8262
fir	-11.8264
tiPaginaCorrente	-11.8265
cambio	-11.8266
pid	-11.8266
cancellaTag	-11.8266
btnElimina	-11.8266
btnRicerca	-11.8266
position	-11.8267
description	-11.8267
Iscrizione	-11.8269
spes	-11.8269
Check	-11.8269
tipo	-11.8269
Characters	-11.827
invalid	-11.827
etichetta	-11.827
tableBC	-11.8275
pTelefono	-11.8279
dbBanner	-11.8283
Tipo	-11.8286
save	-11.829
void	-11.8292
pCognome	-11.8296
bale	-11.8299
edit	-11.8302
roomId	-11.8302
pVia	-11.8306
pProvincia	-11.8322
AComponent	-11.8326
userName	-11.8333
static	-11.834
tourists	-11.8345
▁Manag	-11.8345
▁Ac	-11.8351
▁av	-11.8352
etStatus	-11.8353
Soggiorno	-11.8354
▁[12]	-11.8358
contain	-11.8372
▁costru	-11.8377
356	-11.8383
area	-11.8385
aRow	-11.839
Prec	-11.84
idAbsence	-11.8403
Calcol	-11.841
ry	-11.8414
Citta	-11.8432
Item	-11.8436
Vertical	-11.8448
▁-6	-11.8449
pName	-11.8454
▁permett	-11.8455
▁verific	-11.8457
mp	-11.8457
▁nuov	-11.8466
▁getAddress	-11.8472
rientation	-11.8475
▁serv	-11.8491
TotTermini	-11.8492
ottieniTags	-11.8492
lber	-11.8501
import	-11.8507
Tra	-11.8513
Scadenza	-11.8513
Tree	-11.8514
Statistic	-11.8514
startAvvi	-11.8523
ue	-11.8525
▁getSelection	-11.8526
conifiedFrames	-11.8526
▁scelt	-11.8528
▁quest	-11.8528
Col	-11.8543
gh	-11.8547
▁ricev	-11.8548
ersonale	-11.8549
▁minim	-11.8549
ration	-11.855
▁updat	-11.855
▁categori	-11.8551
▁rimuov	-11.8551
▁alcun	-11.8551
▁requisit	-11.8553
▁writ	-11.8553
▁iscrizion	-11.8553
ast	-11.8559
▁previst	-11.856
Chiusura	-11.856
38	-11.856
ssued	-11.856
nformazioni	-11.8561
▁stess	-11.8564
op	-11.8564
head	-11.8566
Content	-11.8567
compar	-11.8568
99	-11.8568
MetaData	-11.8568
her	-11.8569
▁analyze	-11.8577
VALUE	-11.8577
▁amend	-11.8578
tiva	-11.8578
DISPONIBIL	-11.8578
▁logga	-11.858
localita	-11.858
▁Touris	-11.858
▁prenota	-11.858
Ristorazione	-11.8581
Wrappe	-11.8581
First	-11.8581
ordinate	-11.8582
interfacc	-11.8582
Custom	-11.8583
▁AskChiudi	-11.8583
ember	-11.8583
ENTER	-11.8583
Numeric	-11.8583
Attenzione	-11.8583
Header	-11.8583
Length	-11.8583
955	-11.8583
Blocco	-11.8583
associazione	-11.8583
+"/"+	-11.8583
setRich	-11.8583
▁JFileChooser	-11.8583
▁testGetValueAt	-11.8583
Licenza	-11.8583
PuntiRistoro	-11.8583
split	-11.8583
▁generous	-11.8583
0,10,10,10	-11.8583
771730	-11.8583
ATTIVE	-11.8583
AdUn	-11.8583
AtaPeople	-11.8583
BACKGROUND	-11.8583
BevelBorder	-11.8583
CHIUSO	-11.8583
Carne	-11.8583
Choose	-11.8583
Commissione	-11.8583
ConArrayList	-11.8583
ElencoIndirizzi	-11.8583
ElencoUtenti	-11.8583
Expand	-11.8583
Geographic	-11.8583
Rinnova	-11.8583
ServletConfig	-11.8583
VediSoggiornante	-11.8583
ZIONE	-11.8583
adapter	-11.8583
apposit	-11.8583
esecuzione	-11.8583
expires	-11.8583
idUnselectedList	-11.8583
longitudine	-11.8583
millisecBetween	-11.8583
rawConn	-11.8583
rofessor	-11.8583
▁Choice	-11.8583
▁Cycle	-11.8583
▁Disciplinar	-11.8583
▁Found	-11.8583
▁Indirizzi	-11.8583
▁LoginErrato	-11.8583
▁Membership	-11.8583
▁Pattra	-11.8583
▁Perform	-11.8583
▁Stub	-11.8583
▁Surname	-11.8583
▁VediAddebito	-11.8583
▁WARNING	-11.8583
▁apportare	-11.8583
▁bearing	-11.8583
▁blank	-11.8583
▁caparra	-11.8583
▁carattere	-11.8583
▁commissionata	-11.8583
▁constant	-11.8583
▁deiconify	-11.8583
▁distingu	-11.8583
▁enough	-11.8583
▁keeps	-11.8583
▁lasciare	-11.8583
▁lowercase	-11.8583
▁pPoolManager	-11.8583
▁permanenza	-11.8583
▁postcode	-11.8583
▁provveder	-11.8583
▁raccolt	-11.8583
▁removing	-11.8583
▁ritardatari	-11.8583
▁special	-11.8583
▁startSearchComm	-11.8583
▁telefonata	-11.8583
▁wrapp	-11.8583
Bevande	-11.8583
fffff	-11.8583
▁Total	-11.8583
▁occorre	-11.8583
▁parzial	-11.8583
idSelectedList	-11.8583
▁LOGGER	-11.8583
▁Utenti	-11.8583
▁enumTerm	-11.8583
▁rimozione	-11.8583
▁stream	-11.8583
keyTyped	-11.8583
▁administrators	-11.8583
▁associazionebc	-11.8583
▁queue	-11.8583
123456789	-11.8583
Media	-11.8583
SHORT	-11.8583
▁TAGTableModel	-11.8583
▁choose	-11.8583
▁junit	-11.8583
▁ovv	-11.8583
▁ristoro	-11.8583
▁startIns	-11.8583
11111	-11.8583
fileProp	-11.8583
▁Knowledge	-11.8583
▁appartenen	-11.8583
▁gestore	-11.8583
▁attivo	-11.8583
▁consentit	-11.8583
Center	-11.8583
-06	-11.8583
▁elm	-11.8583
▁iconify	-11.8583
▁Require	-11.8583
▁vogli	-11.8583
trans	-11.8583
▁Notifica	-11.8583
▁radians	-11.8583
abellaSiti	-11.8583
▁ElencoPrefRic	-11.8583
▁guide	-11.8583
ControllaPren	-11.8583
Oreca	-11.8583
Word	-11.8583
▁actual	-11.8583
▁sceglie	-11.8583
Second	-11.8583
inclusione	-11.8584
Assenza	-11.8584
showReports	-11.8584
▁sposta	-11.8584
▁myLocation	-11.8584
Radi	-11.8584
▁strutt	-11.8584
TreeCellRenderer	-11.8584
▁normale	-11.8584
▁viaggi	-11.8584
5906	-11.8584
▁numeriPermessi	-11.8584
▁maxLength	-11.8584
▁Make	-11.8584
▁training	-11.8584
▁accept	-11.8584
almenoUno	-11.8584
,0.0,0.0,5,	-11.8584
▁subject	-11.8584
arrow	-11.8584
ransform	-11.8584
iteClass	-11.8584
▁contratt	-11.8584
NumericDocument	-11.8584
▁dovuto	-11.8584
romantic	-11.8584
▁###	-11.8584
▁Letters	-11.8584
▁Mysql	-11.8584
DettagliNota	-11.8584
▁fold	-11.8584
▁fra	-11.8584
FocusEvent	-11.8584
ouseEnteredEvent	-11.8584
IGHT	-11.8584
uploadPath	-11.8584
▁yet	-11.8584
▁colle	-11.8584
▁elencoOut	-11.8584
▁maxim	-11.8584
▁dictionary	-11.8584
1075	-11.8584
▁(0,0,0,	-11.8584
▁circ	-11.8584
pIsSelected	-11.8585
hich	-11.8585
▁errata	-11.8585
▁contieneTag	-11.8585
▁question	-11.8585
herit	-11.8585
▁collec	-11.8585
▁occupate	-11.8586
self	-11.8586
raw	-11.8586
ary	-11.8586
▁match	-11.8586
▁main	-11.8586
▁AvvisoLocale	-11.8586
▁Rice	-11.8586
▁Associated	-11.8586
▁Tras	-11.8586
grad	-11.8586
cture	-11.8586
▁dbturista	-11.8587
▁closure	-11.8587
pdfPath	-11.8587
▁yLocation	-11.8587
756	-11.8587
▁rimoss	-11.8588
▁linker	-11.8588
▁erased	-11.8588
▁richi	-11.8588
1510	-11.8588
DAY	-11.8588
intern	-11.8589
▁yearList	-11.8589
▁avanzata	-11.8589
▁Or	-11.8589
isAtaBoolean	-11.8589
isStudentBoolean	-11.8589
isTeacherBoolean	-11.8589
▁ListaAddebiti	-11.859
▁track	-11.859
oglia	-11.859
▁Fra	-11.859
RicercaStorico	-11.859
balla	-11.8591
pIDNote	-11.8591
JPopupMenu	-11.8591
▁assegnate	-11.8591
getCosto	-11.8591
acing	-11.8592
bottom	-11.8592
solid	-11.8594
▁acca	-11.8594
▁dbTurista	-11.8594
▁such	-11.8594
▁valT	-11.8594
▁fissat	-11.8595
eff	-11.8595
AttivaTurista	-11.8596
ssegnazione	-11.8596
▁gestioneBanner	-11.8597
▁fall	-11.8597
ModificaTurista	-11.8597
Action	-11.8598
)+1900	-11.8598
▁secondDate	-11.8598
▁sum	-11.8599
ettagliIndirizzo	-11.8599
▁pIdConvenzione	-11.86
▁bVisita	-11.8601
selectedClassId	-11.8603
▁RicercaAddebiti	-11.8603
▁header	-11.8603
nzi	-11.8604
DeskMenu	-11.8606
▁prevista	-11.8607
40000000	-11.8607
▁thread	-11.861
nces	-11.8611
▁controllaDate	-11.8612
▁"089	-11.8614
Inter	-11.8616
ossi	-11.8617
▁firstDate	-11.8617
▁feedbackBC	-11.8617
▁confirmed	-11.8619
▁updated	-11.8619
Only	-11.8619
getImage	-11.8619
BannerRenderer	-11.862
▁finding	-11.8622
▁exceeded	-11.8623
▁Iter	-11.8624
2032	-11.8625
newVotes	-11.8625
▁altre	-11.8626
xml	-11.8627
▁alertStudent	-11.8629
▁concern	-11.8629
updateDelay	-11.8633
▁28/0	-11.8634
uogoNasc	-11.8636
▁getG	-11.8637
▁pIdNews	-11.8637
▁bloccate	-11.8638
7864	-11.8638
▁Mod	-11.8638
▁feedbackPR	-11.8638
▁pPdfPath	-11.8639
▁pUploadPath	-11.8639
▁confirming	-11.8639
igi	-11.864
▁superior	-11.864
down	-11.864
Course	-11.8642
▁rootDialog	-11.8642
▁fil	-11.8645
())*	-11.8646
▁superclass	-11.8648
▁(1	-11.8651
trim	-11.8652
867	-11.8657
10)+	-11.8657
:"+	-11.8658
▁Rilascia	-11.8658
vers	-11.866
academicYearList	-11.8661
▁Inserting	-11.8662
▁torna	-11.8662
065	-11.8664
setProperty	-11.8665
▁offert	-11.8668
▁know	-11.8668
▁beneCulturale	-11.8668
▁reservationDate	-11.8668
▁mediaVotoPR	-11.8668
▁nextOccurence	-11.8668
▁greek	-11.8668
▁txtOraAp	-11.8668
▁txtOraCh	-11.8668
▁pTimeOut	-11.8668
▁txtLocalit	-11.8668
▁bvisita	-11.8669
▁txtCitta	-11.8669
▁txtAttenzione	-11.8669
▁columnNames	-11.8669
▁daysBetween	-11.8669
▁txtZ	-11.8669
▁txtIndirizzo	-11.8669
▁txtCAP	-11.8669
▁statoAccount	-11.867
▁vengono	-11.867
▁txtTel	-11.867
▁txtProvincia	-11.867
▁Closeall	-11.867
▁txtPos	-11.867
▁itAdmin	-11.8671
▁attore	-11.8672
▁addressList	-11.8672
▁txtNome	-11.8672
▁creationDate	-11.8673
11_1	-11.8673
▁LabelPr	-11.8674
votoOk	-11.8674
▁Beni	-11.8676
nuovo	-11.8678
▁cognomeTurista	-11.868
▁iconificati	-11.8682
DatiN	-11.8684
▁txtY	-11.8685
▁frameSize	-11.8686
direction	-11.8686
▁Numbers	-11.8688
▁added	-11.8688
getIcon	-11.8692
Al	-11.8697
▁"01	-11.8699
▁pServerSmtp	-11.8711
bo	-11.8714
izza	-11.8717
▁IScheda	-11.8718
setData	-11.8719
542	-11.872
▁degrees	-11.872
mince	-11.8721
Calcola	-11.8722
pE	-11.8724
▁soggiorna	-11.8726
&	-11.8727
vuota	-11.873
setCell	-11.8732
▁pLastName	-11.8732
▁pUserName	-11.8734
Des	-11.8738
afil	-11.8743
WE	-11.8745
▁bTurista	-11.8745
://	-11.8746
1[3]	-11.8747
617134	-11.8748
getStudent	-11.8749
DUserAnd	-11.875
▁seconds	-11.8752
624	-11.8753
getDefault	-11.8755
sDa	-11.8756
▁pact	-11.8756
▁Chang	-11.8762
▁370	-11.8768
▁idTurista	-11.8768
▁idTag	-11.877
▁effettua	-11.8772
▁LabelTag	-11.8772
CONT	-11.8776
▁na	-11.8778
▁Ad	-11.8779
Not	-11.8783
▁pFirstName	-11.8784
▁theme	-11.8784
▁poss	-11.8785
882	-11.8789
ic	-11.8796
▁fac	-11.8801
getGiorno	-11.8811
▁areas	-11.8813
pProfiloTurista	-11.8813
▁xLocation	-11.8816
▁absenceLimit	-11.8817
▁pFull	-11.8817
▁noteLimit	-11.8817
▁Partenza	-11.8817
▁pInd	-11.8818
▁Disable	-11.8818
▁pIDAbsence	-11.8819
▁aggiornamento	-11.882
▁itRegister	-11.8822
▁esisteCategoria	-11.8823
AddressList	-11.8824
deleteNote	-11.8825
iTag	-11.8826
▁Active	-11.8827
▁userList	-11.8828
▁modificata	-11.8829
757	-11.8837
▁pHour	-11.8838
eTo	-11.8847
▁attivare	-11.8854
setIndirizzo	-11.8856
btag	-11.8857
[1]=	-11.8857
▁Opening	-11.8863
▁periodi	-11.8867
nuovoBanner	-11.8867
▁ServletAssign	-11.8867
oc	-11.8869
days	-11.8871
rd	-11.8876
▁pLogin	-11.8876
AV	-11.888
▁idTeacher	-11.8888
▁registrat	-11.8892
vision	-11.8896
MIN	-11.8899
▁Lu	-11.8905
▁(7	-11.8911
65	-11.8915
sDirectorBoolean	-11.892
▁getPosGeo	-11.893
▁pTuristi	-11.8946
getJButton	-11.8952
howRegister	-11.897
▁pOffset	-11.8973
▁pTagModificato	-11.8973
▁getAbsenceById	-11.8974
▁fir	-11.8975
▁segue	-11.8976
▁permette	-11.8976
conosc	-11.8981
getNomeA	-11.8982
▁closeA	-11.8988
▁saved	-11.8997
▁possa	-11.902
LD	-11.9027
effettuata	-11.9039
entit	-11.9042
Fre	-11.9045
IdClassroom	-11.9048
ustomize	-11.9058
getNoteByI	-11.9062
259	-11.9065
▁Day	-11.9073
▁GetUser	-11.9075
dateDelay	-11.9077
▁pConnections	-11.9078
dateJustify	-11.9096
newText	-11.9098
811	-11.91
▁IdMenu	-11.91
▁getJButton	-11.911
iduser	-11.9117
306	-11.9126
▁agenzie	-11.9133
▁toControl	-11.9133
▁pdf	-11.9133
▁bVisitaTemp	-11.9134
▁dbbc	-11.9139
▁dbNews	-11.9142
ike	-11.9145
▁idAbsence	-11.9164
--	-11.9168
▁=-3	-11.9177
▁IdBeneCulturale	-11.9177
addressId	-11.918
▁associat	-11.9195
▁pAccademicYear	-11.9198
748	-11.92
▁getVotes	-11.9201
Sp	-11.9224
sch	-11.9236
even	-11.9251
▁TO	-11.9253
▁ra	-11.9263
",4	-11.9276
▁pVisita	-11.928
▁V	-11.9293
▁testoSplit	-11.9297
▁Replace	-11.9298
entrat	-11.9303
▁oggi	-11.9303
▁pComponent	-11.9304
,3),	-11.9309
▁"13	-11.9328
▁studentId	-11.933
ac	-11.9338
teachingId	-11.9343
▁Priority	-11.9373
▁IGestioneTag	-11.939
▁sort	-11.9398
▁Pointe	-11.94
▁work	-11.9417
499	-11.9422
▁put	-11.9424
getPosGeo	-11.9432
▁100;	-11.9435
▁Login	-11.9437
ancellaPreferenz	-11.9439
▁selectedStudent	-11.9441
dConnection	-11.945
▁aggiorn	-11.9452
▁pM	-11.9455
▁Elenco	-11.9465
▁datenow	-11.9465
▁IDBBanner	-11.9466
▁"841	-11.947
GE	-11.9506
▁idClass	-11.9507
onnectionWrapper	-11.9514
amento	-11.952
classroomId	-11.9523
▁riportat	-11.9529
▁isAttiva	-11.9532
3,3,	-11.9546
▁OP	-11.9554
▁notes	-11.9557
088	-11.9561
▁Indirizzo	-11.9562
dateAbsence	-11.9606
mare	-11.9612
fe	-11.9616
evi	-11.9626
▁pVBC	-11.9636
▁accademicYear	-11.9642
ost	-11.9651
Show	-11.9667
disabilita	-11.9667
▁len	-11.9673
▁"8	-11.9697
▁0.2	-11.9703
▁tests	-11.971
ar	-11.9725
ara	-11.9741
▁1))	-11.9745
▁sea	-11.9751
▁aModel	-11.9758
());//	-11.9778
▁Help	-11.978
560	-11.9787
▁aC	-11.9789
172	-11.9805
roomsByTeacher	-11.9818
▁Stanze	-11.9822
iare	-11.9832
neric	-11.9834
▁getAbsence	-11.9845
▁getTeaching	-11.9874
▁va	-11.9891
▁Expir	-11.9904
getTeachings	-11.9958
▁pag	-11.9959
setValue	-12.0004
issing	-12.002
Questo	-12.0044
▁"11	-12.0061
etto	-12.0064
By	-12.0104
ImageHeaderPath	-12.0123
ImageLeftColumn	-12.0124
▁Role	-12.0158
endo	-12.016
24,	-12.0164
▁Prepari	-12.0171
(0,	-12.0186
▁associa	-12.019
_3.	-12.0222
34.	-12.023
▁Da	-12.0235
ode	-12.0259
▁Nota	-12.0264
▁(24	-12.0283
vallo	-12.0332
DiRistoroVisitat	-12.0344
▁ottieniPunt	-12.0345
▁IDBNews	-12.0377
▁arriva	-12.0419
"/	-12.0425
host	-12.0456
=3;	-12.0494
ow	-12.0504
▁92	-12.0518
2020	-12.0586
▁impostat	-12.0601
getBtnVisualizza	-12.0611
getCo	-12.0624
uro	-12.0651
UR	-12.0662
ust	-12.0687
▁doc	-12.0696
idDelay	-12.0697
InputStream	-12.0702
Sostituisci	-12.0716
ttieniFeedbackBC	-12.0772
pYear	-12.0785
▁informa	-12.0811
lea	-12.0814
▁getClassroomsBy	-12.0822
activated	-12.0825
nitialization	-12.0837
▁bo	-12.085
▁riutilizza	-12.087
CittaPR	-12.0889
508	-12.0904
turning	-12.0915
▁calcolo	-12.0991
▁metter	-12.1026
1()	-12.1131
35	-12.1142
apr	-12.1193
etValueAt	-12.1193
▁4:	-12.1226
ut	-12.1249
EliminaBC	-12.1286
Nuova	-12.1303
ap	-12.1304
press	-12.1314
▁++	-12.133
▁getTermin	-12.1343
▁[0	-12.1344
corso	-12.1353
ction	-12.1364
idNote	-12.1419
ByAcademicYear	-12.1435
30"	-12.1438
ence	-12.1441
▁setTermin	-12.1529
prender	-12.153
renzaLongitudine	-12.1583
▁immagine	-12.1589
_2.	-12.1611
etShow	-12.1614
▁loc	-12.1656
nuovaConnessione	-12.1662
▁4))	-12.1686
▁35	-12.1686
register	-12.1707
▁(10)	-12.1755
325	-12.1772
▁digita	-12.1782
▁DataVisita	-12.1794
-2	-12.1845
Trova	-12.1878
▁cercat	-12.1884
▁31	-12.1901
▁DBOperatore	-12.1957
▁tempora	-12.2021
▁[0])	-12.2022
▁finale	-12.2074
▁pj	-12.2077
▁(14	-12.2079
69	-12.2087
controlla	-12.2119
=")	-12.2121
verse	-12.2122
tu	-12.2123
unselected	-12.2127
05	-12.2133
▁200)	-12.2151
())))	-12.216
ught	-12.2165
▁riporta	-12.2206
ong	-12.2209
inally	-12.2224
>0	-12.2249
023	-12.2255
Q	-12.2265
▁OrarioChiusura	-12.2297
fi	-12.2318
ute	-12.2381
884	-12.2407
4),	-12.2457
88	-12.2473
[8]	-12.2497
▁Lo	-12.253
▁1]+	-12.2533
▁OrarioApertura	-12.2539
v	-12.2571
ente	-12.2573
▁fill	-12.2582
Table	-12.2612
assignTeach	-12.2674
▁propri	-12.2679
▁tables	-12.2685
200	-12.2691
42	-12.2701
ChangeListener	-12.275
▁lik	-12.2797
▁comp	-12.2837
ffe	-12.2849
Th	-12.2853
Soggiornanti	-12.2863
▁-7	-12.2872
03	-12.2873
Add	-12.2875
getVotesBy	-12.2893
pens	-12.2923
ize	-12.2939
▁(6	-12.2976
rding	-12.2976
▁Trans	-12.2989
▁part	-12.2989
rendere	-12.3004
Active	-12.3043
port	-12.305
ab	-12.3055
agli	-12.3063
90	-12.3073
pu	-12.3086
len	-12.3086
007	-12.3087
hour	-12.3105
utenticazione	-12.3119
nello	-12.3125
Tip	-12.3134
Visit	-12.3137
quals	-12.3143
scann	-12.3155
rn	-12.3157
Ritard	-12.3157
bili	-12.3171
TestoNews	-12.3172
localhost	-12.3172
PlainDocument	-12.3172
PrintWriter	-12.3172
pIDDelay	-12.3172
capacity	-12.3172
aNewsScaduta	-12.3172
getJustifyBy	-12.3172
fileImg	-12.3172
Logger	-12.3173
activeIndex	-12.3173
isAta	-12.3174
getBtnReset	-12.3174
TreeSelection	-12.3175
selectedClass	-12.3175
aNewsAttiva	-12.3175
Chang	-12.3175
deleteJustify	-12.3178
pIdClass	-12.3179
pIdTeacher	-12.3184
managerClass	-12.3184
ola	-12.3186
Tourist	-12.3189
getIndirizzoPR	-12.3191
updateAbsence	-12.3196
86	-12.3202
ver	-12.3202
Disable	-12.3212
▁aggiung	-12.3212
Partenza	-12.3212
absenceLimit	-12.3212
pInd	-12.3212
noteLimit	-12.3212
pIDAbsence	-12.3212
pFull	-12.3212
aggiornamento	-12.3214
▁(10	-12.3214
esisteCategoria	-12.3215
pHour	-12.3215
tr	-12.3215
itRegister	-12.3215
pTuristi	-12.3228
scritto	-12.323
primi	-12.323
buttonPanel	-12.323
listavisitati	-12.323
Random	-12.323
filtri	-12.323
aggiungeTag	-12.323
dataScad	-12.323
imageLeftColumn	-12.323
isWizard	-12.323
dataPubb	-12.323
botton	-12.323
calcola	-12.323
textPanel	-12.323
castle	-12.323
imageHeaderPath	-12.323
support	-12.323
pNewsID	-12.3231
riduzione	-12.3232
ulti	-12.3235
coperto	-12.3239
luogoNascita	-12.324
laboratorio	-12.324
listSelcected	-12.324
nuovaVisita	-12.324
setLogin	-12.3241
localitaBC	-12.3241
order	-12.3242
pSelectedNode	-12.3242
dbvisita	-12.3242
DBPreferenze	-12.3243
▁scan	-12.3243
"><	-12.3244
place	-12.3245
mese	-12.3246
PKEY	-12.3246
columnClasses	-12.3246
valTotTerm	-12.3246
secondi	-12.3246
salva	-12.3246
Messaggio	-12.3246
telefonoBC	-12.3246
telefonoPR	-12.3246
userList	-12.3248
informazion	-12.3248
via	-12.3249
timeStamp	-12.325
Nessun	-12.325
CenterPanel	-12.325
Opening	-12.3251
hold	-12.3251
costoBC	-12.3252
cittaBC	-12.3252
pTotTermini	-12.3252
comune	-12.3253
descrizionePR	-12.3253
EastPanel	-12.3253
txtNomeBene	-12.3253
NewsToolbar	-12.3253
listaPreferiti	-12.3254
licenza	-12.3254
scroll	-12.3254
votesList	-12.3254
continu	-12.3254
IDBPreferenze	-12.3254
▁-8	-12.3255
favorites	-12.3256
listaRisultati	-12.3256
toPut	-12.3256
iscrizione	-12.3256
▁Memoriz	-12.3257
tokenizer	-12.3258
pTagId	-12.3258
capBC	-12.3258
RICERCA	-12.3258
locationY	-12.3259
BannerNode	-12.3259
nuove	-12.3259
range	-12.3259
tmpDelay	-12.326
jScrollPane	-12.3261
statMeseC	-12.3261
made	-12.3261
newIndex	-12.3261
Aggiorna	-12.3262
btnInserisci	-12.3263
risulta	-12.3263
BCToolbar	-12.3263
itTeaching	-12.3264
pImmagine	-12.3265
tableFeedback	-12.3265
MODIFICA	-12.3266
inserito	-12.3266
flag	-12.3266
TablePr	-12.3266
pSql	-12.3266
ottieniTuristi	-12.3267
long	-12.3267
dbtag	-12.3267
pDataFine	-12.3267
btnAnnulla	-12.3267
Button	-12.3268
good	-12.3268
pIdBanner	-12.3268
deskSize	-12.3269
pVisita	-12.3269
menu	-12.3269
btnSalva	-12.327
statistiche	-12.327
ritardo	-12.327
pCitta	-12.327
root	-12.327
inserire	-12.327
Cultural	-12.327
TODO	-12.3271
dettagli	-12.3271
cancel	-12.3271
button	-12.3272
datiPR	-12.3272
JOptionPane	-12.3272
with	-12.3274
treeBanner	-12.3274
dati	-12.3276
pSelected	-12.3279
evel	-12.3279
idTemp	-12.3279
pNumeroPagina	-12.3282
egli	-12.3283
rt	-12.3286
mostra	-12.3289
headers	-12.3293
Arrivo	-12.3296
pLocalita	-12.3298
pRegisterLine	-12.3298
controllo	-12.3301
Nuov	-12.3303
cli	-12.3304
loaded	-12.3305
idParent	-12.3313
cancellazione	-12.3315
pPrezzo	-12.3319
pNumeroVoti	-12.3323
pTurn	-12.3326
846	-12.3328
pGiornoChiusura	-12.3329
nNote	-12.3329
TeachingList	-12.333
305	-12.3332
cap	-12.3334
Pr	-12.3334
DatiTurista	-12.3334
ntains	-12.3337
pScheda	-12.3339
pPosizione	-12.3345
pEmail	-12.3346
idTeacher	-12.3346
pDataVisita	-12.3347
pCategoria	-12.3349
Tourists	-12.3351
pModifica	-12.3352
5/	-12.3357
pOrarioApertura	-12.3358
pOrarioChiusura	-12.3359
point	-12.3364
pMediaVoti	-12.3365
mporta	-12.337
page	-12.3382
statt	-12.3384
ONT	-12.3386
Index	-12.3387
ottieniNumero	-12.3391
TeachingAs	-12.3392
Magg	-12.3394
0000	-12.3398
pResultSet	-12.3409
aLabel	-12.3414
aspett	-12.3421
Durata	-12.3423
▁genera	-12.3431
Message	-12.3433
ink	-12.3438
:00"	-12.3438
533	-12.3438
fer	-12.344
▁#####	-12.3441
tnOk	-12.3442
pCommento	-12.3446
226	-12.3447
ggi	-12.3448
FeedbackTable	-12.345
VotesByUserId	-12.3453
GI	-12.3454
ATA	-12.3455
Val	-12.3458
Indexes	-12.3468
tyle	-12.347
startChiudi	-12.3478
pBeanVisitaBC	-12.3479
1334	-12.3483
ack	-12.3491
PdfPath	-12.3494
rSlider	-12.3496
own	-12.3496
getStatistiche	-12.3497
UploadPath	-12.3497
NuovoCommento	-12.3498
pInt	-12.3499
▁Rating	-12.3501
revious	-12.3504
Classe	-12.3506
▁attribut	-12.3506
tringa	-12.351
etPreferredSize	-12.351
ard	-12.3512
▁risult	-12.3514
isabilita	-12.3515
▁Resti	-12.3517
▁element	-12.3519
▁condition	-12.3521
▁dizi	-12.3521
2,1)	-12.3522
▁Super	-12.3526
mpt	-12.3527
pNews	-12.3528
zionale	-12.3533
mar	-12.3536
ained	-12.3537
IdOperatore	-12.3538
▁opportun	-12.3541
▁"0	-12.3542
▁turis	-12.3542
▁duplicat	-12.3542
nario	-12.3544
Node	-12.3545
uple	-12.3546
▁scritt	-12.3546
Reader	-12.3548
ragazz	-12.3548
howNoteDetails	-12.3549
▁pPiatt	-12.3549
Updat	-12.355
▁massim	-12.355
Ora	-12.3551
▁dimension	-12.3551
scriv	-12.3551
▁appropriat	-12.3552
Sostituisc	-12.3553
▁lett	-12.3553
ccezione	-12.3555
▁locali	-12.3556
vdStat	-12.3558
ntipasti	-12.3558
sistente	-12.3558
▁tener	-12.3558
ffettuato	-12.3559
▁stagionalit	-12.3562
▁vecchi	-12.3562
Prim	-12.3562
tivazione	-12.3565
sert	-12.3566
▁pagell	-12.3567
▁"08	-12.3567
tur	-12.3569
▁Selezion	-12.357
pository	-12.357
olom	-12.3571
eference	-12.3572
▁cert	-12.3574
▁quanti	-12.3574
Defini	-12.3574
ample	-12.3576
uidainlinea	-12.3576
▁consuma	-12.3576
enStat	-12.3576
0,0.0,5,	-12.3577
outhPanel	-12.3577
IMAGE	-12.3578
HeaderPath	-12.3578
vanza	-12.3578
▁ro	-12.3578
gni	-12.3579
anticipa	-12.3579
entralPanel	-12.3579
Combo	-12.3579
470	-12.358
Voti	-12.358
annerToolbar	-12.358
Comit	-12.358
Focus	-12.3581
getDataNasc	-12.3581
▁organiz	-12.3581
agazzo	-12.3581
rigger	-12.3582
getTimeIn	-12.3582
▁calcolaNumero	-12.3582
Canc	-12.3582
Parametro	-12.3582
ENTE	-12.3582
ambino	-12.3582
enzia	-12.3582
rioCHOrePR	-12.3582
rioCHMinPR	-12.3583
ibi	-12.3583
rioApMinPR	-12.3583
rioAPOrePR	-12.3583
umeriPermessi	-12.3583
▁except	-12.3583
requency	-12.3583
setStagAnno	-12.3583
1946	-12.3583
954	-12.3583
Recipient	-12.3583
showUserDetails	-12.3583
▁pubblic	-12.3583
▁Buffered	-12.3583
▁administrat	-12.3583
▁luogo	-12.3583
▁Princip	-12.3583
485826	-12.3583
4963	-12.3583
83189	-12.3583
Accetta	-12.3583
Graphics	-12.3583
Rifiuta	-12.3583
Ristorante	-12.3583
Ruoli	-12.3583
TracksViewport	-12.3583
getProv	-12.3583
ookmark	-12.3583
ppartenenza	-12.3583
kBaseStream	-12.3583
▁MimeMessage	-12.3583
▁automati	-12.3583
▁future	-12.3583
▁involve	-12.3583
▁ripet	-12.3583
▁significa	-12.3583
▁startMod	-12.3583
▁vincol	-12.3583
0973	-12.3583
ADDEBITO	-12.3583
ENZI	-12.3583
Histor	-12.3583
ISyntaxException	-12.3583
MouseExitedEvent	-12.3583
NEONATO	-12.3583
NESS	-12.3583
PARENT	-12.3583
PERIMENTAL	-12.3583
PrintJob	-12.3583
RADIUS	-12.3583
RIDUZIONI	-12.3583
RISTORANTE	-12.3583
Reimposta	-12.3583
SECOND	-12.3583
SERVIZI	-12.3583
SUPPLEMENTI	-12.3583
Skeda	-12.3583
buffImg	-12.3583
codingException	-12.3583
commissionamenti	-12.3583
csv	-12.3583
eiconifica	-12.3583
excel	-12.3583
ighlightsStudent	-12.3583
millisecInADay	-12.3583
nUnselected	-12.3583
ologia	-12.3583
pIdPuntoDiistoro	-12.3583
pOpera	-12.3583
pReceiver	-12.3583
pSender	-12.3583
stubGBCC	-12.3583
▁Alcun	-12.3583
▁Dovr	-12.3583
▁Greenwitch	-12.3583
▁PARZIALE	-12.3583
▁REGISTRA	-12.3583
▁Richiede	-12.3583
▁SubRistorazione	-12.3583
▁SubSoggiorno	-12.3583
▁SubStorico	-12.3583
▁accumulat	-12.3583
▁alteration	-12.3583
▁apparir	-12.3583
▁beneculturale	-12.3583
▁categri	-12.3583
▁commissionato	-12.3583
▁conclude	-12.3583
▁considerat	-12.3583
▁deactivation	-12.3583
▁disconnessione	-12.3583
▁effect	-12.3583
▁effettivo	-12.3583
▁equator	-12.3583
▁esatta	-12.3583
▁expiration	-12.3583
▁kBaseObj	-12.3583
▁medesim	-12.3583
▁necessit	-12.3583
▁numCaratteri	-12.3583
▁pMaxLength	-12.3583
▁peculiar	-12.3583
▁privileg	-12.3583
▁raggiunto	-12.3583
▁receipt	-12.3583
▁relationship	-12.3583
▁replacing	-12.3583
▁riduzioni	-12.3583
▁riten	-12.3583
▁riuscit	-12.3583
▁separato	-12.3583
▁sociale	-12.3583
▁supplementi	-12.3583
▁tResult	-12.3583
▁tebella	-12.3583
▁telefoniche	-12.3583
▁traccia	-12.3583
▁usufrui	-12.3583
▁verde	-12.3583
▁voci	-12.3583
▁volte	-12.3583
Disponibil	-12.3583
Pagella	-12.3583
▁chiuse	-12.3583
▁derive	-12.3583
▁sconti	-12.3583
Spesa	-12.3583
tagDaSelezionare	-12.3583
▁combina	-12.3583
▁decid	-12.3583
▁posticipata	-12.3583
▁prevede	-12.3583
▁respons	-12.3583
,1.0,1.0,	-12.3583
Frutta	-12.3583
▁crl	-12.3583
▁earth	-12.3583
▁esista	-12.3583
▁rimasto	-12.3583
Modifiche	-12.3583
dialogue	-12.3583
logging	-12.3583
▁iterable	-12.3583
▁rileva	-12.3583
680	-12.3583
bind	-12.3583
lider	-12.3583
lterPersonalDate	-12.3583
pertura	-12.3583
▁evidenz	-12.3583
▁fosse	-12.3583
nstead	-12.3583
reportStatistici	-12.3583
▁cycl	-12.3583
▁estern	-12.3583
music	-12.3583
▁vettori	-12.3583
▁dfTime	-12.3583
28449	-12.3583
5462	-12.3583
ALIZ	-12.3583
ANTI	-12.3583
▁consistent	-12.3583
setUp	-12.3583
describ	-12.3583
▁errati	-12.3583
PanelUp	-12.3583
▁Imgfile	-12.3583
▁pagamento	-12.3583
("","","	-12.3583
TIME	-12.3583
9809	-12.3583
better	-12.3583
▁TestoScanner	-12.3583
Info	-12.3584
▁bTuristaTemp	-12.3584
STANZA	-12.3584
edEn	-12.3584
setSup	-12.3584
,0,0,4,	-12.3584
3909	-12.3584
ADMIN	-12.3584
aranti	-12.3584
▁defini	-12.3584
▁"_-",	-12.3584
▁appartengono	-12.3584
▁under	-12.3584
+"-"+	-12.3584
anotherTable	-12.3584
60730	-12.3584
Definition	-12.3584
▁rischi	-12.3584
▁testRemoveNews	-12.3584
▁Daily	-12.3584
▁VISUALIZZAST	-12.3584
8321	-12.3584
▁DoB	-12.3584
DettagliClasse	-12.3584
▁Ott	-12.3584
▁ServletAdd	-12.3584
▁potenziali	-12.3584
▁-644	-12.3584
oPutCat	-12.3584
2438	-12.3584
8859	-12.3584
orarioAP	-12.3584
▁startVis	-12.3584
▁disattivazione	-12.3584
Writer	-12.3584
▁startRic	-12.3584
3734	-12.3584
8727	-12.3584
▁Bloccar	-12.3584
▁actionEvent	-12.3584
(350,	-12.3585
▁prestabilit	-12.3585
ativi	-12.3585
▁ServletRemove	-12.3585
▁Gps	-12.3585
KBase	-12.3585
▁radi	-12.3585
Account	-12.3585
▁Trigger	-12.3585
▁DataInputStream	-12.3585
▁dellhotel	-12.3585
9844	-12.3585
▁mv	-12.3585
InsertModify	-12.3585
6927	-12.3585
6163	-12.3585
▁apri	-12.3585
▁startCanc	-12.3585
▁Run	-12.3585
▁consumate	-12.3585
▁manage	-12.3585
nuovoCommento	-12.3585
▁16/04/	-12.3585
▁rila	-12.3586
ANZA	-12.3586
▁Hand	-12.3586
▁ControlServer	-12.3586
▁soggiornano	-12.3586
▁affinch	-12.3586
nvert	-12.3586
▁uploaded	-12.3586
1337	-12.3586
▁identified	-12.3586
▁sottomette	-12.3586
▁how	-12.3586
607	-12.3586
9872	-12.3586
▁Has	-12.3586
uthenticat	-12.3586
JustifyDetails	-12.3586
hrough	-12.3586
▁raise	-12.3587
▁successiv	-12.3587
ipula	-12.3587
▁documento	-12.3587
▁just	-12.3587
TableNews	-12.3587
7511	-12.3587
▁Fratto	-12.3587
▁copi	-12.3587
ouseEntered	-12.3588
EliminaBanner	-12.3588
1,0,1,1,	-12.3588
1434	-12.3588
Sito	-12.3588
▁FilePath	-12.3588
JToolBarBar	-12.3588
▁tick	-12.3588
2603	-12.3588
cept	-12.3588
7868	-12.3588
nitor	-12.3588
AddressDetails	-12.3588
OUT	-12.3588
ITIV	-12.3588
▁creation	-12.3589
aria	-12.3589
rrupt	-12.3589
▁DELL	-12.3589
▁setGiorno	-12.3589
▁dbConvenzione	-12.3589
forName	-12.3589
posizioneSito	-12.3589
itera	-12.359
▁consumato	-12.359
779	-12.359
▁RicercaStandard	-12.359
2518	-12.359
▁Risultati	-12.359
Senza	-12.359
EliminaTurista	-12.3591
▁sample	-12.3591
5643	-12.3591
reduc	-12.3591
EliminaNews	-12.3591
▁effettuat	-12.3592
-1]+"	-12.3592
▁trovati	-12.3592
TuristaRenderer	-12.3592
TeachingDetails	-12.3593
PUNT	-12.3593
953	-12.3593
NuovoBC	-12.3594
ncia	-12.3594
orarioCH	-12.3594
LOC	-12.3594
NewsRendererTest	-12.3594
))&&(	-12.3595
getSup	-12.3595
8396	-12.3595
PosNuovo	-12.3595
▁svuota	-12.3595
getAddressById	-12.3596
giunge	-12.3597
▁4.0	-12.3597
▁mauro	-12.3597
▁party	-12.3597
Del	-12.3597
▁nazione	-12.3597
▁abbiano	-12.3598
0349	-12.3598
▁disconnection	-12.3598
5655	-12.3599
▁stabilita	-12.3599
Before	-12.3599
RIST	-12.3599
▁giornaliero	-12.3599
basic	-12.3599
2008	-12.3599
ERR	-12.3599
MouseAdapter	-12.36
▁ripr	-12.36
pporto	-12.36
446	-12.36
▁pIdParent	-12.36
▁impostare	-12.36
nserisciRitardiA	-12.36
▁-769	-12.3601
collapse	-12.3601
="../	-12.3601
▁Addebitat	-12.3601
256	-12.3602
CB	-12.3602
▁lezioni	-12.3602
setMessage	-12.3603
ICHE	-12.3603
GEN	-12.3603
▁inspect	-12.3603
941	-12.3604
ToArray	-12.3604
▁lung	-12.3605
▁rem	-12.3605
gin	-12.3606
▁recuperate	-12.3606
▁AskDialog	-12.3607
▁vuoto	-12.3608
DatabaseMetaData	-12.3608
▁compari	-12.3608
▁esse	-12.3609
EST	-12.3611
ModificaNews	-12.3611
▁verificato	-12.3613
▁Op	-12.3614
▁getLogin	-12.3614
169	-12.3614
1878	-12.3615
2361	-12.3615
email	-12.3616
▁mg	-12.3616
ave	-12.3617
▁ret	-12.3617
Chiamato	-12.3618
▁=-4	-12.3618
idNews	-12.3618
346	-12.3618
updateId	-12.3619
041	-12.3619
beneTemp	-12.362
sioni	-12.362
Lello	-12.3622
▁Altr	-12.3622
▁400	-12.3623
getVal	-12.3623
showTeach	-12.3623
rtf	-12.3623
▁orario	-12.3624
▁opportuno	-12.3626
▁registrata	-12.3626
▁stessa	-12.3626
erDetails	-12.3629
DBConnessione	-12.3629
▁ServletShowNote	-12.363
nSelected	-12.363
▁erase	-12.363
ORT	-12.3632
263	-12.3632
CTION	-12.3632
484	-12.3634
]+"	-12.3635
▁ricercaBC	-12.3635
▁disabled	-12.3637
uri	-12.3637
009	-12.3639
InserisciAssenze	-12.3639
▁occupare	-12.364
ncy	-12.3644
▁tk	-12.3646
▁Resu	-12.3646
BE	-12.3646
lib	-12.3648
equiv	-12.3649
▁minimi	-12.3649
6473	-12.3649
▁identi	-12.3653
cola	-12.3656
Scan	-12.3659
▁inline	-12.3659
83	-12.3662
1881	-12.3662
parz	-12.3664
reeBanner	-12.3665
TableColumn	-12.3665
-12	-12.3666
▁Ratings	-12.3666
3204	-12.3668
▁ritornare	-12.3669
▁seg	-12.367
months	-12.367
▁Character	-12.3671
▁pIdAbsence	-12.3672
dizion	-12.3673
▁progr	-12.3673
661	-12.3674
getIdBene	-12.3674
setO	-12.3675
(4,1)	-12.3677
ORI	-12.3678
2283	-12.3679
igh	-12.3679
ogo	-12.3681
<0	-12.3682
▁getPo	-12.3689
ChiudiConto	-12.3689
▁84	-12.369
elaborazione	-12.3695
notenew	-12.3696
▁listaBanner	-12.3699
mmediat	-12.3702
ains	-12.3704
▁520)	-12.3704
▁ServletIn	-12.3706
displaytag	-12.3712
▁prepar	-12.3713
updateJustify	-12.3715
xLocation	-12.3716
PI	-12.3718
▁conversion	-12.3721
239	-12.3722
161	-12.3722
cazione	-12.3723
797	-12.3723
▁-1213	-12.3726
▁conti	-12.3727
PU	-12.3731
urataNews	-12.3732
▁pPoolTime	-12.3732
dono	-12.3733
Area	-12.3735
▁accordi	-12.3736
▁Right	-12.3737
▁bounds	-12.3737
▁pBol	-12.3737
▁pJdbcDriverName	-12.3737
▁pPrepSt	-12.3737
▁tourism	-12.3737
▁iteraBanner	-12.3737
▁pPoolIndex	-12.3737
▁TimeZone	-12.3737
▁Toolkit	-12.3737
▁gBCC	-12.3737
▁listaPreferenze	-12.3737
▁ListaClienti	-12.3738
▁previousMessage	-12.3738
▁isParentBoolean	-12.3738
▁nPagina	-12.3739
▁acco	-12.3739
▁scrollTesto	-12.374
▁getTeachingId	-12.3742
setActive	-12.3742
▁txtTag	-12.3742
idAdd	-12.3743
▁absenceList	-12.3744
▁validating	-12.3744
▁studentClass	-12.3745
▁internal	-12.3746
▁bannercorrente	-12.3748
7383	-12.3751
▁testoReader	-12.3751
tNorm	-12.3752
▁pImage	-12.3753
▁Conversion	-12.3758
updateNote	-12.3758
▁poolSize	-12.3758
▁Tu	-12.3759
▁Vari	-12.376
▁riassum	-12.3761
▁props	-12.3762
▁LOG	-12.3763
7763	-12.3763
ND	-12.3765
5373	-12.3766
(6	-12.3767
Even	-12.377
rc	-12.3772
▁riferisc	-12.3773
▁utilizzate	-12.3778
menti	-12.3779
DataOutputStream	-12.3781
3436	-12.3781
ASE	-12.3785
875	-12.3787
▁chi	-12.3791
▁mag	-12.3791
()<=	-12.3792
urity	-12.3793
▁euro	-12.3795
▁testing	-12.3796
PPuntoDiRistoro	-12.3799
ope	-12.38
686	-12.3807
fficient	-12.3811
+1))	-12.3813
▁pTextFooter	-12.3814
103,	-12.3815
vuto	-12.3816
Dol	-12.3818
▁accettata	-12.382
pano	-12.3824
mou	-12.3824
▁125	-12.3833
▁pNuovoCommento	-12.3839
atter	-12.3844
▁soggiornanti	-12.3847
Rid	-12.3847
ru	-12.385
Between	-12.3853
6690	-12.3855
"10:00	-12.3859
▁fo	-12.386
760	-12.3862
RM	-12.3862
assign	-12.3863
ung	-12.3868
1900	-12.387
enza	-12.3871
▁pIdDelay	-12.3871
▁VisualizzaDatiS	-12.3875
▁pActiveTimeout	-12.3881
▁pWaitTimeout	-12.3881
nsure	-12.3881
▁assign	-12.3882
▁pIdClassroom	-12.3884
▁Equal	-12.3885
▁pPoolTimeout	-12.3886
▁desiderata	-12.389
937	-12.3895
▁pCell	-12.3896
stud	-12.3901
592	-12.3904
▁pIdNote	-12.3907
00",	-12.3915
here	-12.3925
▁80)	-12.393
▁txtTest	-12.3933
564	-12.3934
gge	-12.3936
tm	-12.3941
81	-12.3942
IdBeneCulturale	-12.3943
▁hour	-12.3945
▁DefaultT	-12.3945
▁pDriverMySql	-12.3948
▁ServletA	-12.3951
▁InserisciNuov	-12.3952
Closed	-12.3956
sOn	-12.3957
SQLWarning	-12.3959
▁setting	-12.3968
▁Ritard	-12.3975
▁Tip	-12.398
▁pic	-12.3982
▁(320	-12.399
▁managerClass	-12.3992
DefaultException	-12.3998
▁variables	-12.4001
▁isAta	-12.4004
Interrupt	-12.4005
zi	-12.4006
▁Logger	-12.4011
▁getJustifyBy	-12.4012
▁aNewsScaduta	-12.4012
▁fileImg	-12.4012
▁capacity	-12.4012
▁PlainDocument	-12.4012
▁PrintWriter	-12.4012
▁localhost	-12.4012
▁selectedClass	-12.4012
▁aNewsAttiva	-12.4012
▁pIDDelay	-12.4013
▁activeIndex	-12.4013
▁getBtnReset	-12.4014
▁getIndirizzoPR	-12.4014
▁comprender	-12.4019
setComune	-12.402
▁updateAbsence	-12.4026
▁pIdClass	-12.403
▁Max	-12.4031
setAuto	-12.4033
▁Act	-12.4035
▁Gi	-12.4037
pD	-12.4038
▁TreeSelection	-12.4038
▁ToString	-12.4042
▁deleteJustify	-12.4045
▁setLogin	-12.4045
▁forni	-12.4047
▁pIdTeacher	-12.4047
late	-12.4055
,0,0	-12.4056
▁pDateNote	-12.4058
▁pDateDelay	-12.4062
Stagioni	-12.407
0895	-12.4071
ClassroomDetails	-12.4071
hangeP	-12.4076
7979	-12.4096
▁pDateAbsence	-12.4109
din	-12.4111
▁cli	-12.4117
PIdBeneCulturale	-12.4128
▁pDateJustify	-12.4129
▁pTimeDelay	-12.4134
==3)	-12.4141
▁startC	-12.4159
▁Manage	-12.416
▁(70	-12.4162
812	-12.4166
formare	-12.4171
urlConnessione	-12.4178
▁60;	-12.4185
▁rifiuta	-12.4199
getToolbar	-12.421
▁gu	-12.4227
▁"14	-12.4228
Am	-12.4232
331	-12.4236
pSubject	-12.4238
pClassID	-12.4239
ge	-12.4241
▁parti	-12.4245
war	-12.4256
▁"18	-12.4265
ATION	-12.4273
▁recuper	-12.4279
"-"	-12.4286
invo	-12.4291
orderLayout	-12.4301
▁ATT	-12.4305
▁Place	-12.4305
▁setMinimum	-12.4305
▁datevalues	-12.4306
▁selectedRoles	-12.4307
▁mysql	-12.4308
▁risal	-12.4311
▁getE	-12.4312
▁timeDelay	-12.4315
▁activeSize	-12.4317
▁utilizza	-12.4319
ell	-12.432
▁Bc	-12.4326
▁AComponent	-12.433
▁attivi	-12.4341
▁unselectedRoles	-12.4342
▁stru	-12.4344
▁important	-12.4345
30",	-12.4355
pPercorso	-12.4357
GR	-12.4359
()+	-12.4363
mplemented	-12.4376
464	-12.4399
▁inizial	-12.4401
▁getSelected	-12.4402
▁scann	-12.4405
49	-12.441
top	-12.4422
DefaultTable	-12.4425
dian	-12.443
▁toAddress	-12.4456
▁libera	-12.4507
▁[3	-12.4509
tClassroom	-12.451
getValue	-12.452
dif	-12.4524
▁field	-12.4551
giu	-12.4561
▁resti	-12.4562
▁getNoteByI	-12.4568
▁Scatti	-12.4582
propria	-12.4586
▁tre	-12.4593
▁Banners	-12.4594
▁Parameters	-12.4596
▁CittResidenza	-12.4611
▁Latitude	-12.4611
▁export	-12.4614
Ho	-12.464
Wa	-12.4664
455	-12.4665
alcoloConto	-12.4672
▁impost	-12.4674
▁(55	-12.4677
AT	-12.468
An	-12.4681
ice	-12.4696
▁attuale	-12.4712
NE	-12.4733
▁(28	-12.4734
met	-12.4787
tive	-12.4791
ur	-12.4836
▁att	-12.4845
13;	-12.4863
Qu	-12.4874
stato	-12.489
▁sto	-12.4894
numeroCaratteriM	-12.49
▁caric	-12.4902
Last	-12.4902
invio	-12.4902
▁pDescription	-12.4907
separator	-12.4914
ottieniOperatore	-12.4916
3860	-12.4931
301	-12.4931
▁Longitude	-12.4933
▁Nuovo	-12.494
▁action	-12.496
ote	-12.4995
tagname	-12.5006
▁isParent	-12.5014
058	-12.5025
getB	-12.5038
autenticazione	-12.5047
irs	-12.5049
▁pTeacher	-12.5049
gu	-12.5068
2=	-12.5075
TTA	-12.5081
▁fl	-12.5119
cons	-12.515
DA	-12.5166
515	-12.5193
▁home	-12.5194
ince	-12.5199
522	-12.5209
377	-12.5211
aStanza	-12.5219
plica	-12.5225
dy	-12.523
▁jdbc	-12.5272
▁JComponent	-12.5302
▁isStudent	-12.5315
<4	-12.5315
▁gestisc	-12.5317
▁"12	-12.5337
LU	-12.5341
▁tree	-12.535
▁64	-12.5357
NG	-12.536
)+	-12.5409
▁unico	-12.5415
▁orale	-12.5417
TeacherA	-12.542
▁Z	-12.5427
217	-12.5431
Can	-12.5437
eliminata	-12.547
▁sen	-12.5471
▁newPos	-12.5514
iven	-12.5541
0;	-12.5545
▁At	-12.5583
4,1,	-12.5624
▁aNewsModificata	-12.5627
▁getClassroomBy	-12.5628
▁Timestamp	-12.5628
▁Clear	-12.5628
moved	-12.5633
newId	-12.5641
▁DimensioneFont	-12.5645
nsertJustify	-12.5652
Nor	-12.5662
1474	-12.5671
ining	-12.5673
AP	-12.5704
648	-12.5725
▁pID	-12.5726
▁getDescription	-12.5744
nsertNewNote	-12.5779
▁isTeacher	-12.5789
ent	-12.5804
▁90	-12.5837
▁positions	-12.588
▁inf	-12.591
ddressTeachings	-12.5912
ataNascita	-12.5965
bbc	-12.5994
▁newsHelp	-12.6026
Avviso	-12.6027
()!=	-12.6038
fromAddress	-12.6042
▁pAuto	-12.6066
ferenza	-12.6067
ttivaConvenzione	-12.6069
▁Pa	-12.6074
stanti	-12.6137
▁[11]	-12.6183
▁Registrazione	-12.6205
PropertyChange	-12.6213
Par	-12.6282
▁imposta	-12.6327
▁presen	-12.6339
turned	-12.6342
mpie	-12.6343
caduto	-12.6351
▁avvenuta	-12.6391
▁bcHelp	-12.6397
▁affi	-12.6419
▁bannerHelp	-12.6435
segnamento	-12.6464
1]	-12.6519
ess	-12.6531
nuova	-12.6607
pre	-12.6649
▁Testo	-12.666
eBeniCulturali	-12.6721
asci	-12.6729
▁Position	-12.6748
142	-12.6761
▁Province	-12.6797
▁""))	-12.6802
▁SIZE	-12.6802
▁pStatement	-12.6809
▁campoCompilato	-12.6813
▁"17:	-12.6815
▁addebitati	-12.6823
▁"')	-12.6823
FFFFF	-12.6837
jo	-12.6914
FI	-12.6921
▁getD	-12.6941
Co	-12.6988
",3	-12.7003
lati	-12.7037
Totali	-12.704
rnameTuristaTemp	-12.7101
85	-12.7177
▁pien	-12.7183
▁getDelay	-12.7184
12;	-12.73
▁7)	-12.7336
▁"16:	-12.7357
olt	-12.7373
▁pNome	-12.7397
▁est	-12.7427
wi	-12.7434
tta	-12.7529
859	-12.7599
ostituisciBanner	-12.7622
tabili	-12.763
hiudiSingolo	-12.7635
+=	-12.7638
▁pRicerca	-12.7647
▁af	-12.779
▁aNews	-12.7813
▁conne	-12.7854
toDelete	-12.7859
(25,	-12.7899
4931	-12.7934
setL	-12.7978
rows	-12.7995
ous	-12.8058
▁dorm	-12.8063
rico	-12.8071
edException	-12.808
134	-12.809
FFFF	-12.8094
▁arrivat	-12.8171
uples	-12.8179
▁warning	-12.818
VisualizzaScheda	-12.8187
▁superi	-12.8224
",2	-12.8229
U	-12.8238
598	-12.8261
arse	-12.8366
▁operat	-12.837
ileImmagine	-12.8382
▁spa	-12.8429
▁isDirector	-12.8455
oolbarSchedaBC	-12.8463
▁aff	-12.8594
5,0)	-12.8736
574	-12.8796
▁GiornoChiusura	-12.8797
pImageLeftColumn	-12.8823
52	-12.8828
pImageHeaderPath	-12.8831
anti	-12.8866
0];	-12.8881
Logout	-12.891
lla	-12.8911
▁local	-12.9144
▁buttons	-12.9163
47	-12.9164
▁scheda	-12.9214
▁ve	-12.9227
▁precede	-12.9342
xpired	-12.935
ef	-12.935
tario	-12.9358
ita	-12.9406
▁Do	-12.9471
alizzazione	-12.9522
mput	-12.9537
mer	-12.9556
9:00",	-12.956
▁aggiornar	-12.9598
3014	-12.9656
▁selezionar	-12.9669
▁attu	-12.9695
▁Disconne	-12.9772
76	-12.979
92	-12.9809
▁(56	-12.9834
▁elimin	-12.9885
SO	-12.9952
1/0	-12.998
ele	-13.0006
entra	-13.0008
100	-13.0075
nico	-13.0095
9:30",	-13.0119
342	-13.0165
871	-13.0238
edi	-13.0242
mere	-13.0259
▁Nom	-13.026
tte	-13.0276
77	-13.0304
▁Allow	-13.0321
BI	-13.0327
▁cit	-13.0419
applica	-13.0429
279	-13.0464
833	-13.0599
93	-13.064
▁setMa	-13.0645
▁condi	-13.0652
Month	-13.0679
▁checkBean	-13.0699
pClass	-13.0759
meroCaratteriMin	-13.08
▁conteng	-13.0806
▁nu	-13.083
getD	-13.0958
▁Sit	-13.0975
PPR	-13.0986
▁comple	-13.1008
DefaultT	-13.1048
levant	-13.1077
▁bu	-13.1176
chera	-13.1215
▁rec	-13.1244
ChangeEvent	-13.1261
cca	-13.1315
▁getDelayByI	-13.134
ggio	-13.1399
mon	-13.1412
,0,3,	-13.1435
▁aus	-13.1438
850	-13.1444
removeTeach	-13.1467
ant	-13.1469
▁liber	-13.1547
can	-13.1552
▁ottenu	-13.156
oolbarTuristi	-13.1579
hite	-13.1588
"&	-13.1651
UserList	-13.1661
setStagion	-13.1713
▁svol	-13.1767
▁PPreferenz	-13.1769
67	-13.182
▁riferi	-13.1831
Percorso	-13.1842
▁venu	-13.1854
329	-13.1875
Layout	-13.1886
dire	-13.1937
249	-13.2056
Subject	-13.2073
ClassID	-13.2085
135	-13.2094
uovoBC	-13.2104
rifiutat	-13.2155
▁registra	-13.216
tivo	-13.2168
spett	-13.218
-1))	-13.2186
nterrupted	-13.2215
pl	-13.2224
ElencoNote	-13.2226
implement	-13.2238
621	-13.2282
▁5)+	-13.237
213	-13.2379
79120	-13.238
bl	-13.2382
71	-13.2395
uovaNews	-13.2404
089	-13.2408
:#00	-13.2415
▁crear	-13.2416
ovare	-13.2417
Verifi	-13.2423
cted	-13.2431
arg	-13.2451
toricoConvenzion	-13.2463
147	-13.2463
,0,1,1,	-13.2465
355	-13.2483
));//	-13.2489
▁Fin	-13.2502
showClassroom	-13.2537
dim	-13.2543
tà	-13.2552
▁accett	-13.2565
352	-13.2576
send	-13.26
▁compre	-13.2624
185	-13.2625
501	-13.2648
3,0,	-13.2668
ProfiloTurista	-13.2676
5763	-13.2684
updateB	-13.2684
0849	-13.2686
fil	-13.2691
▁PNome	-13.2736
▁resize	-13.2737
qui	-13.2742
til	-13.2745
▁coinvol	-13.2758
58	-13.2764
▁actor	-13.2793
sort	-13.2795
"15"	-13.2807
▁reco	-13.2817
xtend	-13.2844
prop	-13.2856
685	-13.2876
orneranno	-13.2878
3700	-13.2882
vi	-13.2899
180	-13.2949
▁inizializz	-13.2954
Give	-13.2955
Release	-13.2961
fficien	-13.2961
905	-13.2967
---------------	-13.2972
ctive	-13.2972
Scegli	-13.2979
▁ripristin	-13.3022
getLast	-13.3054
itialize	-13.3058
emp	-13.3058
&&	-13.3079
que	-13.3084
▁scherm	-13.3084
etterePermesse	-13.3093
ginali	-13.3107
IMI	-13.3117
Character	-13.3126
5072	-13.3132
tra	-13.314
▁riassu	-13.3144
▁jCombo	-13.3147
cy	-13.3148
prepar	-13.3159
header	-13.3167
Manager	-13.3169
▁avvi	-13.3191
Manage	-13.3196
763	-13.3198
txtTest	-13.3199
accettata	-13.32
validating	-13.32
Remove	-13.32
bounds	-13.32
previousMessage	-13.32
TimeZone	-13.32
pJdbcDriverName	-13.32
pPoolIndex	-13.32
pPrepSt	-13.32
Toolkit	-13.32
tourism	-13.32
gBCC	-13.32
pBol	-13.32
pPoolTime	-13.32
listaPreferenze	-13.32
▁attra	-13.32
Conversion	-13.3201
scrollTesto	-13.3201
ListaClienti	-13.3201
bannercorrente	-13.3202
Right	-13.3202
iteraBanner	-13.3204
isParentBoolean	-13.3205
9/0	-13.3205
internal	-13.3205
ual	-13.3206
Beni	-13.3207
poolSize	-13.3207
TextArea	-13.321
txtTag	-13.3211
testoReader	-13.3215
equal	-13.3223
absenceList	-13.3224
bvisita	-13.3225
pNuovoCommento	-13.3225
studentClass	-13.3227
stitui	-13.3228
aver	-13.3233
reservationDate	-13.3236
vengono	-13.3236
greek	-13.3236
mediaVotoPR	-13.3236
nextOccurence	-13.3236
txtOraAp	-13.3236
txtOraCh	-13.3236
pTimeOut	-13.3236
columnNames	-13.3236
creationDate	-13.3236
beneCulturale	-13.3236
statoAccount	-13.3236
txtLocalit	-13.3236
daysBetween	-13.3236
attore	-13.3237
LabelPr	-13.3237
txtAttenzione	-13.3237
txtCitta	-13.3237
txtZ	-13.3238
txtIndirizzo	-13.3238
txtCAP	-13.3239
torna	-13.3239
Panel	-13.324
verific	-13.324
itAdmin	-13.3242
txtTel	-13.3244
know	-13.3244
txtProvincia	-13.3244
▁inser	-13.3244
3733	-13.3245
txtPos	-13.3245
▁addebitar	-13.3247
frameSize	-13.325
tabellas	-13.3251
inStream	-13.3252
corretti	-13.3252
Genitore	-13.3252
btnOK	-13.3252
removal	-13.3252
Parameter	-13.3252
Price	-13.3252
well	-13.3253
mag	-13.3253
txtNome	-13.3254
FileInputStream	-13.3254
ByClassroom	-13.3255
nPagina	-13.3256
pImmagineBanner	-13.3256
necessary	-13.3256
AsAddress	-13.3256
LabelTag	-13.3257
txtAttiva	-13.3258
pic	-13.326
cognomeTurista	-13.326
mychoice	-13.3261
logout	-13.3261
btnCarica	-13.3261
pDatiFeedback	-13.3261
lasciato	-13.3261
assente	-13.3262
replaceWith	-13.3262
component	-13.3263
conv	-13.3263
Operator	-13.3263
star	-13.3264
Site	-13.3264
***	-13.3264
165	-13.3265
672	-13.3265
durata	-13.3266
labelCaratteri	-13.3267
provBC	-13.3267
chiusura	-13.3267
supplemento	-13.3267
maxSimilarity	-13.3267
puntoDiRistoro	-13.3267
correct	-13.3267
getLocal	-13.3268
▁figur	-13.3268
telefono	-13.3268
accord	-13.3269
PannelloTag	-13.327
ristorazione	-13.3271
giustificata	-13.3271
mediaVotoBC	-13.3271
ACTIVE	-13.3271
520	-13.3271
buf	-13.3271
inizia	-13.3272
datiTesto	-13.3272
TextField	-13.3272
Closeall	-13.3272
aggiungi	-13.3273
pBene	-13.3274
ctrl	-13.3274
partenza	-13.3274
riduciTutti	-13.3274
ripristinaTutti	-13.3274
totTermini	-13.3274
ptagi	-13.3274
limit	-13.3275
centralPanel	-13.3275
cittaPR	-13.3275
frequenza	-13.3275
seguente	-13.3276
disponibilit	-13.3276
oreAP	-13.3276
url	-13.3276
capPR	-13.3277
Contain	-13.3277
btnSkeda	-13.3278
priority	-13.3278
localitaPR	-13.3279
Birth	-13.3279
btnNuovoBC	-13.3279
btnStorico	-13.3279
turistiAttivati	-13.3279
mycheckboxes	-13.3279
coordinate	-13.328
minAP	-13.328
DBBanner	-13.328
pBannerID	-13.328
addressList	-13.328
select	-13.328
unique	-13.328
Controlla	-13.3281
General	-13.3281
flow	-13.3281
SitoTableModel	-13.3281
Controllo	-13.3281
getTeachingId	-13.3282
btnSostituisci	-13.3282
eliminazione	-13.3282
feedbackModel	-13.3282
RN	-13.3283
Confirmation	-13.3283
ghh	-13.3283
btnSchedaBC	-13.3284
content	-13.3284
jTextPane	-13.3284
Activate	-13.3284
toolbar	-13.3284
identificat	-13.3285
campi	-13.3285
Mich	-13.3285
teachingTemp	-13.3285
toolbarPR	-13.3285
iconificati	-13.3285
selezionata	-13.3285
default	-13.3286
giornoChiusura	-13.3286
particular	-13.3286
desc	-13.3286
Carica	-13.3287
dialog	-13.3287
btnAttiva	-13.3288
rtStudentAbsence	-13.3288
indicat	-13.3288
257	-13.3288
modificaTag	-13.3289
preferences	-13.3289
block	-13.3289
btnEliminaBC	-13.329
Restaurant	-13.329
Refreshments	-13.329
distance	-13.329
category	-13.329
empty	-13.3291
cultural	-13.3292
eTour	-13.3292
inizializza	-13.3292
object	-13.3292
ndi	-13.3292
msg	-13.3292
fac	-13.3293
datiTurista	-13.3295
tableTuristi	-13.3296
maxBanner	-13.3296
city	-13.3296
relativ	-13.3296
pVal	-13.3297
punto	-13.33
dob	-13.3302
durataNews	-13.3304
props	-13.3308
sia	-13.3309
▁Remov	-13.331
inserisciTag	-13.3311
prSlider	-13.3311
Definizione	-13.3313
btnModificaBC	-13.3314
pPR	-13.3314
tmpAbsence	-13.3317
txtY	-13.3318
options	-13.3321
pack	-13.3321
unghezzaStringa	-13.3322
pFont	-13.3323
voto	-13.3324
input	-13.3328
▁retriev	-13.3328
pLogin	-13.3332
IScheda	-13.3335
pDataScadenza	-13.3338
-86	-13.334
pCostoBiglietto	-13.3344
DESC	-13.3345
pTema	-13.3346
side	-13.3349
pMaxBanner	-13.3354
lign	-13.3356
closeAll	-13.3359
pMaxPoolSize	-13.3361
pField	-13.3364
723	-13.3365
Luogo	-13.3366
216	-13.3372
pGiorno	-13.3372
pCittaNascita	-13.3372
pCittaResidenza	-13.3372
pPriorita	-13.3372
pIdMenu	-13.3373
modal	-13.3373
##	-13.3376
pDimensioneFont	-13.3377
pOral	-13.3382
ott	-13.3382
pAltitudine	-13.3382
902	-13.3388
480)	-13.3388
uzione	-13.339
managerVotes	-13.339
nel	-13.3393
▁concer	-13.3394
ElencoCategorie	-13.3398
pLaboratory	-13.3398
pWritten	-13.3398
|	-14.742
•	-14.7421
