<unk>	0
<s>	0
</s>	0
_	-2.91275
.	-3.07268
(	-3.93619
,	-3.94527
▁	-3.97563
▁*	-4.00967
;	-4.31879
▁=	-4.35653
▁the	-4.39265
);	-4.49445
>	-4.54213
▁}	-4.5524
▁{	-4.57713
s	-4.59943
)	-4.60067
▁<	-4.83409
▁(	-4.84537
▁EST	-5.1074
="	-5.1767
▁*/	-5.19794
▁to	-5.21142
▁"	-5.25992
"	-5.26128
▁if	-5.32902
c	-5.35245
td	-5.38705
/	-5.39741
▁a	-5.40591
("	-5.42088
▁return	-5.48489
▁/*	-5.5031
get	-5.52979
▁import	-5.59297
▁@	-5.62358
len	-5.76257
▁of	-5.76279
▁public	-5.77801
();	-5.77969
itrust	-5.78166
ERR	-5.78488
nc	-5.79715
▁is	-5.80583
su	-5.8191
:	-5.83131
▁NULL	-5.83832
▁for	-5.8479
▁==	-5.85356
▁</	-5.86596
-	-5.88458
▁US	-5.93123
tr	-5.94326
▁est	-5.95642
▁CU	-6.00512
▁in	-6.0103
()	-6.01089
1	-6.07051
▁and	-6.07348
▁int	-6.07553
▁this	-6.09975
2	-6.11048
▁new	-6.1154
");	-6.1166
▁%>	-6.1358
",	-6.13631
set	-6.14482
▁#	-6.16683
ctx	-6.17505
▁edu	-6.17825
▁ps	-6.19145
▁The	-6.21974
▁<%@	-6.23682
0	-6.26325
cs	-6.28105
▁server	-6.28657
3	-6.30238
ing	-6.30727
ASSERT	-6.31545
->	-6.32012
</	-6.32046
▁String	-6.32323
a	-6.38888
5	-6.39252
<	-6.40671
▁be	-6.41787
▁private	-6.43031
client	-6.43084
cert	-6.435
n	-6.441
d	-6.44594
param	-6.45029
String	-6.45355
4	-6.46816
▁/**	-6.46981
">	-6.47675
▁throw	-6.49386
EST	-6.49518
▁char	-6.49777
key	-6.52885
▁+	-6.53534
▁-	-6.54481
▁rv	-6.54514
jsp	-6.54918
i	-6.55674
e	-6.56775
▁p	-6.59115
h	-6.59121
▁null	-6.59231
=	-6.5941
test	-6.59458
▁class	-6.6057
▁void	-6.60672
▁client	-6.60725
!=	-6.61276
"%>	-6.61515
▁<%	-6.61966
page	-6.62203
▁e	-6.62298
g	-6.62895
▁us	-6.63181
▁name	-6.64253
▁value	-6.64961
br	-6.65802
▁0	-6.67106
x	-6.68183
▁that	-6.69565
\	-6.70124
▁an	-6.72565
th	-6.72593
▁factory	-6.73252
'	-6.73715
▁//	-6.73947
NONE	-6.74688
▁/>	-6.75553
cacerts	-6.76139
▁conn	-6.76788
▁patient	-6.77488
auth	-6.77746
sc	-6.78258
rv	-6.78281
▁static	-6.79332
add	-6.7985
define	-6.80062
▁This	-6.80901
ectx	-6.81841
▁DBException	-6.82726
t	-6.83283
▁type	-6.83621
▁with	-6.84095
7	-6.85921
▁java	-6.86219
LOG	-6.86985
▁else	-6.8855
="/	-6.88896
());	-6.88947
Connection	-6.89005
▁request	-6.89239
▁long	-6.8977
N	-6.91509
▁not	-6.91751
▁&	-6.92003
p	-6.92416
▁used	-6.93016
▁0;	-6.95508
include	-6.9587
data	-6.97245
f	-6.97438
server	-6.98645
▁key	-6.99077
div	-6.99169
beans	-6.99591
csr	-6.99748
b	-7.00008
SERVER	-7.0063
List	-7.00688
T	-7.01903
▁cert	-7.0256
▁by	-7.03052
return	-7.03092
CTX	-7.0363
▁List	-7.03805
span	-7.03808
E	-7.04742
edu	-7.05826
rc	-7.0742
▁or	-7.08032
util	-7.09042
▁HTTP	-7.09399
new	-7.10007
><	-7.10178
▁E	-7.11035
US	-7.12198
table	-7.14435
throw	-7.14908
HTTP	-7.15557
signed	-7.15686
▁test	-7.16482
request	-7.16603
▁CSR	-7.17199
input	-7.1753
getParameter	-7.18508
▁on	-7.18894
9	-7.19187
▁A	-7.19718
▁X	-7.21047
▁|	-7.2173
dao	-7.22097
r	-7.22513
▁action	-7.22639
CERT	-7.22847
▁file	-7.22996
y	-7.23742
8	-7.24203
▁set	-7.24354
▁iTrustException	-7.24371
ed	-7.24559
http	-7.25863
6	-7.26006
center	-7.26107
▁CA	-7.26512
text	-7.27065
509_	-7.27834
▁try	-7.28744
▁list	-7.28897
▁loggedInMID	-7.29109
▁should	-7.29183
equals	-7.29554
▁get	-7.29662
▁from	-7.2996
▁un	-7.30596
rs	-7.31197
));	-7.31901
▁P	-7.32204
S	-7.3311
▁align	-7.33242
▁it	-7.34095
▁user	-7.34755
L	-7.3532
P	-7.35827
void	-7.36016
MAX	-7.3682
▁ctx	-7.37068
exception	-7.37082
▁||	-7.37345
print	-7.37867
CA	-7.37897
▁as	-7.38865
V	-7.3914
▁catch	-7.40603
iTrust	-7.40912
▁0);	-7.41087
X	-7.41476
conn	-7.42639
[	-7.42779
▁function	-7.43508
▁(!	-7.43698
▁&&	-7.44228
init	-7.44908
▁%	-7.44919
▁bean	-7.4496
▁certificate	-7.44965
";	-7.45397
▁data	-7.45984
▁free	-7.46127
ERROR	-7.46528
est	-7.4698
csrattrs	-7.47037
▁are	-7.47583
▁id	-7.48153
▁BIO	-7.48529
reparedStatement	-7.49555
▁we	-7.50304
▁cacerts	-7.51541
VP	-7.51968
error	-7.52064
A	-7.52494
AUTH	-7.52522
▁code	-7.52532
style	-7.53133
NULL	-7.53792
jM	-7.54212
▁:	-7.54649
▁st	-7.55038
▁message	-7.55575
▁case	-7.56917
▁context	-7.57343
free	-7.57693
Nj	-7.58104
U	-7.58308
().	-7.58567
▁response	-7.59684
TY	-7.60155
▁will	-7.60892
▁rc	-7.61116
Nz	-7.61403
▁>	-7.61618
▁can	-7.61621
▁MID	-7.61685
ssl	-7.61697
())	-7.62366
mysql	-7.62931
action	-7.6312
pem	-7.63297
PROXY	-7.63963
proxy	-7.64519
▁error	-7.64583
FormValidat	-7.64626
▁has	-7.64644
ionException	-7.64662
▁?	-7.65581
▁application	-7.66188
▁have	-7.6642
▁authentication	-7.66775
▁using	-7.66935
W	-7.66968
sql	-7.68184
▁use	-7.69142
ID	-7.69725
option	-7.69983
+	-7.70174
▁all	-7.70551
pkcs	-7.70785
w	-7.71013
size	-7.72281
\\	-7.72545
▁i	-7.72924
PKEY	-7.73432
▁auth	-7.73587
MDEyMzQ	-7.73593
DAOFactory	-7.73856
))	-7.74215
"));	-7.7518
D	-7.75395
ATTR	-7.7572
v	-7.76229
Action	-7.76693
1,	-7.77171
C	-7.77266
long	-7.77427
▁"";	-7.7761
I	-7.77661
><%=	-7.78091
SQLException	-7.7824
PORT	-7.78483
int	-7.78638
printf	-7.79671
894_	-7.79803
m	-7.79845
enroll	-7.8016
▁enroll	-7.80238
▁Set	-7.80656
j	-7.81063
▁path	-7.81655
▁[	-7.81898
CLIENT	-7.8197
▁when	-7.82161
pSuite	-7.82393
▁rs	-7.82586
form	-7.82844
ODkwMTIzNDU	-7.83217
:</	-7.83926
▁SSL	-7.84384
▁S	-7.84922
▁read	-7.85134
seg	-7.85181
subHeader	-7.85974
o	-7.8629
KEY	-7.86303
▁href	-7.86409
▁TLS	-7.86492
893_	-7.87622
ackage	-7.87718
▁HCP	-7.88073
close	-7.88466
race	-7.886
REQ	-7.88604
▁which	-7.88622
PKCS	-7.88977
Stack	-7.89044
▁was	-7.89532
▁0)	-7.89726
px	-7.89824
in	-7.90114
l	-7.90692
O	-7.90879
()%></	-7.91107
▁session	-7.91346
")	-7.92017
▁%></	-7.92077
buf	-7.92122
▁out	-7.92192
1060_	-7.92386
▁no	-7.92582
if	-7.92872
▁col	-7.93022
parse	-7.93118
10_	-7.94161
value	-7.94989
----------------	-7.94994
prepare	-7.9501
509	-7.95173
Statement	-7.95349
Attribute	-7.95473
▁ID	-7.95489
▁mid	-7.955
execute	-7.95961
▁date	-7.96033
7_	-7.96708
R	-7.96887
901_	-7.9701
▁does	-7.97496
899_	-7.97812
▁proxy	-7.98032
path	-7.98495
▁If	-7.98501
java	-7.98975
▁information	-7.99382
start	-7.99443
▁csr	-7.99912
IP	-8.00389
▁DAOs	-8.00423
Y	-8.00477
loggedInMID	-8.00504
▁boolean	-8.00913
private	-8.01015
▁up	-8.01075
▁size	-8.013
xM	-8.02187
▁Get	-8.03032
HDR	-8.0339
"))	-8.03478
link	-8.03578
▁DBUtil	-8.03685
▁mode	-8.04079
B	-8.0409
64	-8.04184
Read	-8.04488
="<%=	-8.04544
></	-8.05124
▁false	-8.05155
(),	-8.05296
CACERTS	-8.05531
OTA	-8.05879
LEN	-8.06273
▁callback	-8.06339
▁buffer	-8.06448
MID	-8.06495
NM	-8.06669
▁SQLException	-8.06854
").	-8.06969
estCA	-8.07169
▁Returns	-8.07269
▁SRP	-8.07403
pkey	-8.07783
"),	-8.08602
UIDPWD	-8.08673
send	-8.08855
▁DAOFactory	-8.10211
FUNC	-8.10307
▁str	-8.10323
cb	-8.10448
▁PoP	-8.10973
▁time	-8.11463
▁<%=	-8.11558
G	-8.11697
TransactionType	-8.12333
▁break	-8.12535
NO	-8.13276
▁string	-8.13882
patient	-8.14054
▁LOG	-8.14514
}	-8.14566
raw	-8.14676
Z	-8.1476
▁visit	-8.1496
INFO	-8.15405
▁office	-8.15407
pid	-8.15708
bean	-8.15973
▁finally	-8.15983
?	-8.1692
▁pid	-8.17229
▁email	-8.17623
prodDAO	-8.17659
▁while	-8.17739
▁database	-8.1776
Description	-8.18246
▁attributes	-8.18263
password	-8.18276
PEM	-8.1889
10	-8.18943
TEST	-8.19369
▁check	-8.19438
crt	-8.19556
▁certificates	-8.19841
▁any	-8.19885
read	-8.19926
out	-8.20537
▁given	-8.20761
z	-8.20859
check	-8.21325
PersonnelBean	-8.21363
4020_	-8.21365
and	-8.22461
FORMAT	-8.22603
UT	-8.23005
id	-8.23163
INVALID	-8.23233
▁\	-8.23533
file	-8.23838
BAD	-8.23929
▁pkcs	-8.24475
▁password	-8.24554
destroy	-8.25768
header	-8.26135
▁certs	-8.26661
certs	-8.26777
▁valid	-8.2721
ertical	-8.27551
(1);	-8.27781
M	-8.28076
ly	-8.28188
PatientBean	-8.28512
H	-8.28833
F	-8.29141
RFC	-8.29178
Null	-8.29798
▁http	-8.30232
▁Date	-8.30701
pop	-8.31936
▁ArrayList	-8.32045
u	-8.32157
Name	-8.32161
attr	-8.32213
▁curl	-8.3232
▁then	-8.32779
q	-8.32801
▁><%=	-8.32865
▁method	-8.33148
log	-8.33302
re	-8.33348
;">	-8.33437
▁messages	-8.33624
endif	-8.33813
to	-8.33929
▁ResultSet	-8.33948
etLong	-8.34645
TC	-8.34661
WH	-8.35131
post	-8.35221
▁must	-8.35277
Update	-8.35297
▁other	-8.35517
898_	-8.35634
▁been	-8.35933
▁errorList	-8.36036
){	-8.36045
!	-8.36116
▁1;	-8.3651
▁one	-8.36772
verify	-8.36928
▁0,	-8.37488
token	-8.37669
J	-8.37769
EEP	-8.38083
▁passed	-8.38102
▁see	-8.38209
▁SL	-8.38246
ERE	-8.38294
▁b	-8.3837
Date	-8.39096
cred	-8.39531
Query	-8.39535
name	-8.39651
load	-8.39825
Table	-8.40318
3512_	-8.40384
bio	-8.40683
▁address	-8.41284
longValue	-8.41789
AxM	-8.41813
DBException	-8.42202
char	-8.42862
▁header	-8.42901
▁token	-8.42953
Long	-8.43723
▁transDAO	-8.44569
▁FROM	-8.44906
GOOD	-8.45228
mid	-8.45234
suite	-8.45352
▁mg	-8.454
ca	-8.4551
author	-8.46245
mode	-8.46449
K	-8.46503
▁system	-8.46505
▁document	-8.4685
▁TEST	-8.47339
▁patients	-8.4741
▁length	-8.47435
SSL	-8.48537
▁patientDAO	-8.48552
nable	-8.48642
SEL	-8.48794
ECT	-8.48828
▁failed	-8.48854
▁create	-8.48917
OT	-8.4922
hcp	-8.49278
format	-8.49329
const	-8.494
▁format	-8.49473
k	-8.49577
▁do	-8.49712
credentials	-8.50231
align	-8.50238
retrieved	-8.5025
is	-8.50388
er	-8.50484
If	-8.50567
▁add	-8.51138
748_	-8.51437
▁+=	-8.51564
@	-8.516
▁ov	-8.51633
ResultSet	-8.51922
TCP	-8.51969
submit	-8.521
Not	-8.52792
▁Use	-8.53147
▁Section	-8.53236
▁segment	-8.53515
RemoteMonitoring	-8.53869
903_	-8.54237
▁PEM	-8.5472
ullName	-8.54726
▁suite	-8.54782
stop	-8.55201
getF	-8.55308
▁200	-8.55344
req	-8.55357
cmd	-8.55502
▁question	-8.55546
▁pidString	-8.55574
LabProcedureBean	-8.56144
Patient	-8.56175
global	-8.56208
font	-8.56426
▁generate	-8.56615
▁called	-8.5697
hdr	-8.57035
▁DAO	-8.5812
▁CURL	-8.58461
▁only	-8.58466
897_	-8.58531
Format	-8.58618
BASIC	-8.58926
ENROLL	-8.59026
▁1);	-8.59178
▁1	-8.6032
uri	-8.6054
▁number	-8.60738
priv	-8.60814
▁ca	-8.60863
▁priv	-8.60863
Transaction	-8.60916
▁added	-8.60927
CACERT	-8.61024
▁malloc	-8.61108
ptr	-8.61113
▁true	-8.61487
Loader	-8.6153
URL	-8.61694
▁default	-8.61724
enable	-8.61735
chain	-8.61745
Q	-8.61994
("\	-8.6237
select	-8.6261
message	-8.62634
Calendar	-8.62636
▁following	-8.62696
▁provided	-8.62844
No	-8.63406
▁pageTitle	-8.63698
un	-8.637
▁at	-8.63958
CT	-8.64193
segment	-8.64616
▁AND	-8.65131
err	-8.65478
ooter	-8.65564
▁prescription	-8.65741
▁All	-8.65944
port	-8.66273
▁Add	-8.66504
TransactionDAO	-8.66562
++	-8.67015
next	-8.67527
▁MUST	-8.67548
MessageBean	-8.67649
▁who	-8.67904
manual	-8.68543
der	-8.68635
POP	-8.68645
▁const	-8.68701
1005_	-8.68848
▁send	-8.68857
Error	-8.68879
▁View	-8.69246
Int	-8.69543
BIO	-8.69568
enums	-8.69575
curl	-8.69602
iTrustException	-8.69623
▁patientID	-8.69717
▁t	-8.70041
NAME	-8.70414
ValidationFormat	-8.70419
CUnit	-8.70421
factory	-8.70588
▁report	-8.70596
Exception	-8.71107
getMessage	-8.71729
▁role	-8.7207
▁provide	-8.72343
Page	-8.72451
▁LHCP	-8.72538
▁personnel	-8.72566
type	-8.72647
{	-8.73071
32	-8.73239
▁what	-8.73254
▁f	-8.73266
Validator	-8.7343
binary	-8.73478
code	-8.73594
%	-8.73775
PrescriptionBean	-8.74336
▁OpenSSL	-8.74569
SimpleDateFormat	-8.74585
▁specified	-8.74623
getTime	-8.7471
▁sent	-8.74847
date	-8.74865
cacert	-8.74884
estserver	-8.7522
▁uri	-8.75566
▁PKCS	-8.75735
{@	-8.7576
validate	-8.76218
hidden	-8.76636
1159_	-8.76915
▁For	-8.77401
getName	-8.77528
BloodPressure	-8.77574
▁Andy	-8.77713
▁procedure	-8.77862
true	-8.78051
▁ma	-8.78216
(2,	-8.78257
formIsFilled	-8.78798
▁PatientBean	-8.79713
▁into	-8.7977
getElementById	-8.79897
▁pointer	-8.79908
TOKEN	-8.80175
▁body	-8.8018
getPatient	-8.80195
▁len	-8.8023
▁operation	-8.80641
Code	-8.81152
estuser	-8.81159
2174_	-8.81497
li	-8.81529
▁ectx	-8.81859
▁these	-8.8188
()%>	-8.81928
Handler	-8.82132
PersonnelDAO	-8.82151
PatientDAO	-8.82466
▁Client	-8.82481
list	-8.82662
▁base	-8.8325
HCP	-8.83254
Redirect	-8.83261
ov	-8.83585
Subject	-8.8361
▁current	-8.83643
DER	-8.83717
▁API	-8.83886
str	-8.84228
top	-8.84248
▁maxlength	-8.84425
Pointer	-8.84437
estpwd	-8.84458
▁encoded	-8.84564
UID	-8.85002
▁chain	-8.85597
From	-8.85629
strnlen	-8.85636
='	-8.85779
sock	-8.86059
TO	-8.86089
or	-8.86122
▁include	-8.862
▁Check	-8.86836
▁We	-8.8684
▁'	-8.86855
▁layer	-8.87654
(&	-8.87667
▁store	-8.87858
LIB	-8.87947
▁invalid	-8.88
CERTKEY	-8.8815
openssl	-8.88506
API	-8.88507
▁status	-8.88959
▁obtain	-8.89079
▁AUTH	-8.89116
PUBKEY	-8.89153
▁Create	-8.89301
logger	-8.89679
▁description	-8.90084
▁constructor	-8.90372
stderr	-8.90378
▁loader	-8.90393
easy	-8.90489
▁but	-8.90526
▁reason	-8.90598
Str	-8.90715
▁cur	-8.90752
▁retrieved	-8.90764
▁load	-8.90888
[0	-8.91048
▁parameters	-8.91345
▁Code	-8.91369
▁RSA	-8.91456
▁An	-8.91788
▁need	-8.91812
▁sizeof	-8.92133
▁form	-8.9256
▁simple	-8.92678
123456789012345	-8.92777
▁l	-8.92927
CERTS	-8.93151
▁credentials	-8.93506
OfficeVisitBean	-8.93535
ArrayList	-8.93543
▁personnelDAO	-8.9362
▁member	-8.93895
cw	-8.93988
▁first	-8.94244
*)	-8.94331
▁parameter	-8.94392
"></	-8.94477
▁fail	-8.94507
Status	-8.94784
▁!	-8.94964
▁re	-8.95097
=?	-8.95278
script	-8.95368
FamilyMemberBean	-8.95405
▁PersonnelBean	-8.95421
=<%=	-8.95477
remove	-8.95914
▁input	-8.96115
▁being	-8.96439
▁/><	-8.96568
"><%=	-8.9659
PWD	-8.96702
1883_	-8.96703
▁than	-8.96704
▁contains	-8.96737
3496_	-8.96818
ex	-8.97132
▁content	-8.97261
Email	-8.97962
dd	-8.97997
▁associate	-8.98019
▁logged	-8.98019
▁more	-8.98107
▁enrollment	-8.98128
▁Re	-8.9838
▁/	-8.98533
▁record	-8.98702
Timestamp	-8.98818
▁patientMID	-8.99176
▁n	-8.99184
cur	-8.99288
*	-8.9938
▁perform	-8.99446
Of	-8.9966
def	-8.99712
▁hospital	-8.99874
▁month	-9.0005
▁back	-9.00273
++)	-9.00421
▁count	-9.00561
Role	-9.00717
▁end	-9.00807
DiagnosisBean	-9.01002
MD	-9.01077
▁Simple	-9.01093
after	-9.01576
handle	-9.0158
View	-9.01592
▁phone	-9.01725
errors	-9.02043
NOT	-9.0209
▁match	-9.02787
1_	-9.02835
▁openssl	-9.02853
▁PatientDAO	-9.02967
▁nid	-9.03004
▁WI	-9.03481
▁confirm	-9.04247
▁tests	-9.04629
▁d	-9.04667
prescription	-9.04813
ATH	-9.04883
▁ossl	-9.05126
Personnel	-9.05223
▁enabled	-9.05265
▁required	-9.05267
▁Long	-9.05487
length	-9.05875
Type	-9.05891
▁uses	-9.06095
tag	-9.06288
▁mem	-9.06414
ef	-9.06742
▁visitID	-9.06792
AdverseEventBean	-9.06851
color	-9.07315
null	-9.07356
mp	-9.07367
▁its	-9.07642
addr	-9.07695
WARN	-9.07748
▁library	-9.07818
▁containing	-9.07888
▁correct	-9.07958
EB	-9.08015
▁verify	-9.08357
ah	-9.08417
▁start	-9.08555
user	-9.08626
▁Test	-9.08784
body	-9.08841
▁sure	-9.09231
HealthRecord	-9.0932
▁validator	-9.09379
OF	-9.09387
▁index	-9.09518
▁respond	-9.096
▁OR	-9.0968
st	-9.09852
update	-9.1017
▁Name	-9.10275
mem	-9.10375
BA	-9.10487
VisitID	-9.10871
▁It	-9.10905
▁border	-9.10927
getDate	-9.11337
▁PersonnelDAO	-9.11691
ASN	-9.11872
from	-9.11889
else	-9.11904
▁visits	-9.11973
▁m	-9.1209
▁patientAge	-9.12231
ters	-9.12542
▁call	-9.12611
▁CLIENT	-9.12931
index	-9.13425
TLS	-9.13449
▁family	-9.13657
registry	-9.13765
CN	-9.13797
▁Used	-9.14064
▁4	-9.14168
▁60	-9.14477
3612_	-9.14787
▁page	-9.14793
see	-9.14814
us	-9.14912
copy	-9.15032
html	-9.15331
loaders	-9.15332
▁Edit	-9.15443
++;	-9.15576
▁hdr	-9.15673
▁ASN	-9.15684
getPersonnel	-9.15759
▁safe	-9.15821
es	-9.16006
▁realm	-9.16134
lib	-9.163
▁Email	-9.16503
()%>"	-9.16543
ther	-9.1668
FAIL	-9.16914
EXPLICIT	-9.16915
▁already	-9.16915
Parameters	-9.16915
▁specific	-9.16954
javascript	-9.16957
all	-9.16969
▁access	-9.17045
▁details	-9.17103
▁cases	-9.17109
write	-9.17216
()))	-9.17646
OfficeVisit	-9.17789
DAO	-9.17801
▁original	-9.17855
--	-9.17922
fp	-9.18041
time	-9.1812
▁digest	-9.1818
▁Integer	-9.18272
▁**	-9.18473
uap	-9.18515
▁configured	-9.18563
\0"	-9.18566
▁existing	-9.18596
▁pass	-9.18682
-1	-9.19002
MM	-9.19009
▁hcpID	-9.19065
▁over	-9.19313
▁C	-9.19678
base	-9.19732
pwd	-9.19937
▁retry	-9.20009
ApptBean	-9.20029
▁routine	-9.20167
▁cannot	-9.20176
OFF	-9.20201
▁width	-9.20226
▁Patient	-9.20329
hallengePassword	-9.20356
no	-9.20882
▁drug	-9.20996
cleanup	-9.21575
Edit	-9.21629
▁result	-9.21648
▁records	-9.21697
lease	-9.21819
ProcedureBean	-9.21905
BY	-9.21929
▁values	-9.21991
▁validated	-9.21999
dump	-9.22003
▁structure	-9.22041
▁characters	-9.22046
▁H	-9.22061
io	-9.22097
▁socket	-9.22154
▁allocate	-9.22451
&	-9.2275
ir	-9.22758
▁>=	-9.22811
Prescription	-9.22849
▁-1)	-9.22904
▁found	-9.23228
▁manual	-9.23296
▁allow	-9.23446
▁so	-9.23538
▁final	-9.23619
SurveyResultBean	-9.23768
Bean	-9.23948
%></	-9.24129
▁pSuite	-9.24288
ever	-9.24424
▁there	-9.24905
▁libEST	-9.25256
MENT	-9.25268
ince	-9.2531
▁prefix	-9.25336
MA	-9.2536
ndef	-9.25461
▁last	-9.25562
▁here	-9.25663
certin	-9.25684
strnc	-9.25739
},	-9.25924
getAll	-9.25943
end	-9.26027
nError	-9.26087
▁r	-9.26094
▁log	-9.26109
se	-9.26125
Add	-9.26588
▁center	-9.26611
▁returned	-9.26646
session	-9.26647
▁lab	-9.26803
com	-9.26805
MONTH	-9.27007
PARAMETERS	-9.27007
▁whether	-9.27007
Case	-9.27008
▁ret	-9.27041
able	-9.2734
▁diag	-9.27465
▁"",	-9.27609
(*	-9.27665
getEmail	-9.27878
▁connections	-9.27925
Id	-9.28597
▁implement	-9.2871
width	-9.28736
append	-9.288
▁Setters	-9.28843
▁Server	-9.29197
▁filter	-9.29342
▁NID	-9.29511
▁""	-9.29675
▁Basic	-9.30047
tags	-9.30066
DataBean	-9.3021
▁"%	-9.30452
▁you	-9.30538
store	-9.30592
INF	-9.30605
yyyy	-9.30615
▁proc	-9.30678
▁disabled	-9.30692
▁just	-9.30805
mdctx	-9.30856
▁x	-9.31009
▁failure	-9.31308
Hospital	-9.31542
▁ErrorList	-9.31552
▁max	-9.31841
▁j	-9.31881
▁T	-9.32206
▁BeanLoader	-9.3227
snprintf	-9.32415
▁con	-9.32422
Satisfaction	-9.32438
▁<%}	-9.32481
srp	-9.32481
tld	-9.32492
CSR	-9.32497
patientID	-9.32629
1864_	-9.32739
▁ICD	-9.3287
▁setting	-9.32928
(0,	-9.33185
16	-9.33186
▁basic	-9.33299
getPatientID	-9.33436
▁attribute	-9.33611
(!	-9.33844
▁Information	-9.34196
▁struct	-9.34266
TRUST	-9.34348
▁health	-9.3435
▁particular	-9.3435
▁representing	-9.34377
zero	-9.34385
risk	-9.34386
▁extends	-9.34484
▁your	-9.34517
▁w	-9.34647
this	-9.34721
SOCKS	-9.34833
▁cal	-9.34913
▁contain	-9.35074
▁attempts	-9.3528
▁iTrust	-9.35712
▁RFC	-9.35865
▁procedures	-9.36147
REQUIRE	-9.3623
▁When	-9.36273
less	-9.36325
struct	-9.36359
▁2	-9.36374
▁Generate	-9.36378
▁cipher	-9.36439
3,	-9.36581
cnt	-9.36734
▁ref	-9.36876
keyin	-9.36947
▁zip	-9.37163
▁indicat	-9.37432
▁TA	-9.37584
▁buf	-9.37929
State	-9.37991
▁TransactionDAO	-9.38079
HospitalBean	-9.38112
▁exception	-9.38184
method	-9.3819
▁suc	-9.38202
info	-9.3822
▁again	-9.38221
Example	-9.38234
MISMATCH	-9.38234
round	-9.38234
▁succeed	-9.38234
SEGMENT	-9.38237
trustedcerts	-9.3825
▁look	-9.38254
CRE	-9.38275
▁survey	-9.38297
right	-9.38362
cnf	-9.38399
%>	-9.3873
▁connection	-9.39002
▁OfficeVisitBean	-9.39167
▁In	-9.39272
▁change	-9.39341
▁dur	-9.40249
▁since	-9.40255
▁currently	-9.40279
simple	-9.40355
Information	-9.40397
=\"	-9.4051
▁empty	-9.4056
mg	-9.4057
enrolled	-9.40664
by	-9.4075
▁they	-9.40896
NL	-9.40935
▁per	-9.40942
errorList	-9.41008
▁ssl	-9.41172
▁I	-9.41238
▁(%	-9.41847
City	-9.42035
▁port	-9.42115
Report	-9.42165
of	-9.42174
rsa	-9.42216
▁successful	-9.42249
DIGEST	-9.42275
▁strncpy	-9.42275
▁enter	-9.42307
▁about	-9.42336
▁instance	-9.42417
Digest	-9.42478
connection	-9.42484
retry	-9.425
▁approve	-9.42523
▁identity	-9.42576
Medication	-9.43205
▁validate	-9.43761
PatientID	-9.43796
hk	-9.43816
HealthRecords	-9.43827
string	-9.43919
▁needs	-9.43964
)))	-9.43966
▁representative	-9.43971
2>	-9.44288
SUCCESS	-9.44358
textarea	-9.44358
FQDN	-9.44363
num	-9.44366
▁done	-9.44403
://	-9.44535
left	-9.44571
▁switch	-9.44615
RSA	-9.44624
uid	-9.44642
▁support	-9.44666
well	-9.44681
▁open	-9.44691
▁HAV	-9.44757
ul	-9.45249
▁attempt	-9.45391
▁entry	-9.45423
each	-9.45712
('	-9.46027
edit	-9.4636
45	-9.46417
getStreetAddress	-9.46486
NumberFormat	-9.46505
▁expect	-9.46555
("<	-9.46603
▁Enroll	-9.46646
▁security	-9.46749
BeanLoader	-9.4685
▁update	-9.4692
MB	-9.47212
▁pres	-9.47273
▁table	-9.47312
▁Content	-9.47697
▁person	-9.47856
▁timeout	-9.48012
FirstName	-9.48415
▁hold	-9.4866
▁Attributes	-9.4892
Integer	-9.49007
status	-9.4901
outfile	-9.4903
=?,	-9.49105
▁v	-9.49134
▁both	-9.49141
▁requests	-9.49152
▁LOINC	-9.49164
ion	-9.49633
7,	-9.49641
▁reenroll	-9.50438
▁CRL	-9.50486
▁Digest	-9.50661
atientRiskFactor	-9.50663
on	-9.50766
▁make	-9.50849
clean	-9.50866
ZSB	-9.50871
menu	-9.50882
▁also	-9.50882
MALLOC	-9.50884
SIGN	-9.51037
▁through	-9.51074
label	-9.51207
▁User	-9.51211
known	-9.51232
CRL	-9.51278
found	-9.51279
▁hostname	-9.5134
▁prescriptions	-9.51372
▁rows	-9.51632
DE	-9.51745
NUM	-9.51895
IG	-9.51907
▁types	-9.52016
EyMzQ	-9.52063
▁authDAO	-9.52124
64_	-9.52241
▁No	-9.52595
678901234567890	-9.52625
getLong	-9.52723
op	-9.53061
STORE	-9.53154
+1	-9.53216
SELF	-9.53226
▁initialize	-9.5325
cn	-9.5327
GA	-9.53362
head	-9.53472
▁diagnoses	-9.53484
weight	-9.53544
eportRequestBean	-9.53568
state	-9.53591
phone	-9.53606
present	-9.53607
▁calendar	-9.53746
▁hospitalID	-9.5378
xc	-9.53865
▁reading	-9.54163
Time	-9.54228
pidString	-9.5426
▁appointment	-9.54413
▁subject	-9.54628
▁based	-9.54645
==	-9.55256
▁local	-9.55282
▁risk	-9.5544
ReturnForm	-9.55461
resources	-9.55481
UNIT	-9.55481
▁representee	-9.55488
NOPOP	-9.55533
OK	-9.55794
▁where	-9.55864
Select	-9.55935
force	-9.55936
loadSingle	-9.5597
digest	-9.56029
▁URI	-9.56057
▁(*	-9.56103
gU	-9.56393
▁methods	-9.56598
▁Prescription	-9.56694
▁System	-9.56762
▁Visit	-9.56868
▁immunization	-9.57438
▁Type	-9.57446
ve	-9.57451
OP	-9.5758
MTIzNDU	-9.57645
sort	-9.57695
al	-9.57848
verride	-9.5786
▁libcurl	-9.57861
TRUSTED	-9.57862
▁because	-9.57863
▁Make	-9.57866
Bhc	-9.57924
▁allowed	-9.57963
▁DESC	-9.57976
▁B	-9.57985
▁go	-9.5812
current	-9.58417
reenroll	-9.58418
firstName	-9.58426
simpleenroll	-9.58427
description	-9.58428
email	-9.58499
▁5	-9.58523
Ib	-9.58799
ln	-9.5882
ON	-9.58898
<%=	-9.59238
▁DER	-9.59376
▁sort	-9.59951
MedicationBean	-9.59956
▁select	-9.6022
▁bold	-9.60225
qGS	-9.60252
CSRATTRS	-9.603
▁running	-9.603
▁choose	-9.60301
For	-9.60539
▁sql	-9.60591
LastName	-9.60823
STR	-9.6087
AuthDAO	-9.609
decoded	-9.60935
DAY	-9.61397
(""))	-9.61502
Results	-9.61603
▁Return	-9.61791
Enroll	-9.61878
▁10	-9.6192
▁{%>	-9.61939
▁between	-9.62803
▁Calendar	-9.62806
▁401	-9.62867
onclick	-9.63174
ation	-9.63222
895_	-9.63319
▁requested	-9.63351
le	-9.63361
forward	-9.63458
disable	-9.63471
lastName	-9.63491
DATE	-9.63502
▁Personnel	-9.63519
▁Report	-9.6383
Instance	-9.63954
▁checked	-9.64099
nb	-9.64147
▁link	-9.64228
crl	-9.64402
▁lastName	-9.64707
20	-9.64722
▁firstName	-9.64818
▁%>"	-9.6502
▁remove	-9.65148
ol	-9.65309
back	-9.65313
▁our	-9.6533
INSERT	-9.65364
STRING	-9.65368
▁different	-9.65375
msg	-9.6538
substring	-9.65415
▁prodDAO	-9.65715
▁ovDAO	-9.65817
▁comment	-9.65884
src	-9.65928
▁height	-9.65935
▁handle	-9.66105
array	-9.66109
URI	-9.66114
with	-9.66134
▁expired	-9.66202
▁csrattrs	-9.66228
256	-9.66242
selected	-9.66287
▁after	-9.66299
VU	-9.66412
has	-9.66557
▁generated	-9.66582
▁assume	-9.66605
▁signature	-9.66837
▁attr	-9.6687
▁specialty	-9.66984
▁woul	-9.67108
nU	-9.67259
ie	-9.67811
▁too	-9.67907
Proxy	-9.67996
▁weeks	-9.67996
▁super	-9.67999
▁against	-9.68012
Next	-9.6805
▁received	-9.68084
▁old	-9.68278
▁defined	-9.6848
getNDCode	-9.68507
▁400	-9.68534
OTk	-9.68571
hr	-9.68738
peer	-9.6881
Basic	-9.68821
tls	-9.68961
ll	-9.69027
VL	-9.6913
ri	-9.69265
▁view	-9.69376
▁INT	-9.69541
opt	-9.69828
nvalid	-9.69903
▁factors	-9.7008
By	-9.70186
Mi	-9.70222
><%	-9.70347
ODkw	-9.70482
▁der	-9.70507
XMg	-9.70702
BUF	-9.70714
▁administrator	-9.70718
word	-9.7073
▁available	-9.70778
▁determine	-9.7079
▁authorization	-9.70831
view	-9.70903
▁parse	-9.70956
▁numbers	-9.71006
▁enable	-9.71064
SAN	-9.71095
▁req	-9.71179
▁hcp	-9.71197
▁copy	-9.71216
VI	-9.7123
15	-9.71295
▁answer	-9.71405
RV	-9.7143
▁CPT	-9.71442
member	-9.71602
zip	-9.71615
GET	-9.71657
ovID	-9.71704
▁Role	-9.71718
=2>	-9.71737
▁headerMessage	-9.71792
NT	-9.71844
iG	-9.71928
Re	-9.72248
▁From	-9.72326
bn	-9.72341
UC	-9.72374
Test	-9.72455
▁(0	-9.72983
critical	-9.73476
▁Load	-9.73476
READ	-9.73479
▁made	-9.73483
iTrustMessage	-9.73529
▁did	-9.73545
▁%><	-9.73573
OPT	-9.73582
resp	-9.73591
To	-9.73626
Pid	-9.73768
▁visitBean	-9.73821
▁order	-9.73836
▁cmd	-9.73914
▁-1;	-9.74241
fd	-9.74392
▁double	-9.74419
most	-9.74423
transDAO	-9.74465
SRP	-9.74477
timeout	-9.74502
="3">	-9.74508
factors	-9.74583
callback	-9.74616
patientMID	-9.74619
EW	-9.75214
ng	-9.75238
nid	-9.75245
▁O	-9.75801
▁event	-9.75893
▁months	-9.75917
IA	-9.75961
▁enum	-9.76065
▁operations	-9.76097
▁Se	-9.76179
)",	-9.76261
▁prior	-9.76332
replace	-9.76333
HospitalID	-9.76349
REQUIRED	-9.76397
▁defaults	-9.76631
▁'\0';	-9.76696
▁TC	-9.76879
▁example	-9.76915
▁aeBean	-9.77194
▁ovID	-9.77217
ParseException	-9.77239
▁rsa	-9.77291
▁MessageBean	-9.77371
subject	-9.77393
called	-9.77406
role	-9.77407
Iu	-9.77408
▁Send	-9.7764
▁MedicationBean	-9.77914
29	-9.77972
▁sets	-9.77993
▁sock	-9.78034
2()	-9.78175
▁R	-9.78218
cate	-9.78296
▁array	-9.78425
▁purpose	-9.78428
▁de	-9.78599
64,	-9.78726
="2"	-9.78911
▁Patients	-9.79154
▁point	-9.79245
LinkedList	-9.79274
▁functionality	-9.79274
radio	-9.79275
getHcp	-9.79304
GFy	-9.79313
Commentary	-9.79351
she	-9.79442
▁Note	-9.79543
▁M	-9.79579
▁va	-9.79719
▁retrieve	-9.79722
protected	-9.79725
▁enforce	-9.79776
▁included	-9.79805
▁unique	-9.79989
▁formatt	-9.80258
▁search	-9.80317
▁BN	-9.80346
object	-9.80413
specialty	-9.8042
endDate	-9.8044
TAL	-9.80462
patientDAO	-9.8049
startDate	-9.80541
▁DiagnosisBean	-9.80544
1>	-9.80771
Up	-9.8078
Data	-9.8078
ip	-9.80811
4,	-9.80828
▁full	-9.80846
ww	-9.80865
QgY	-9.80912
IN	-9.80981
▁24	-9.81076
▁expected	-9.81077
cl	-9.8122
▁/></	-9.81312
="3"	-9.81319
▁row	-9.81552
Now	-9.81937
nR	-9.82108
)");	-9.82206
gnore	-9.82254
▁verification	-9.82305
Inbox	-9.82305
▁intended	-9.82305
▁monitoring	-9.82305
target	-9.82305
▁medical	-9.82306
title	-9.82307
reply	-9.82317
▁validation	-9.82342
▁hosp	-9.82381
▁another	-9.82397
jk	-9.82588
cmp	-9.8261
▁Office	-9.82698
tle	-9.82873
IGF	-9.83166
▁med	-9.83167
▁stack	-9.83173
proc	-9.83389
OPTIONAL	-9.83395
section	-9.83506
display	-9.83537
▁Timestamp	-9.8354
getInt	-9.83556
operation	-9.83558
personnelDAO	-9.83565
username	-9.83571
PatientMID	-9.83578
▁My	-9.83719
▁+--------------	-9.83838
▁LabProcedure	-9.83855
AND	-9.84112
▁them	-9.84222
▁referral	-9.84365
▁extension	-9.84403
▁peer	-9.84473
▁text	-9.84537
▁src	-9.84849
▁includ	-9.8499
("%	-9.8514
Jl	-9.85263
▁30	-9.85332
cisco	-9.8543
▁simplifie	-9.8543
BeanBuilder	-9.8543
▁pair	-9.8543
▁same	-9.85433
Failed	-9.8552
▁etc	-9.85578
dig	-9.8562
▁timestamp	-9.85643
▁some	-9.85645
VisitReminder	-9.85654
899/	-9.85656
▁authenticate	-9.85692
▁SQL	-9.85748
▁errno	-9.85832
▁pwd	-9.85858
▁success	-9.85881
▁Object	-9.85946
▁diagnosis	-9.86052
▁now	-9.86075
▁supported	-9.86361
filter	-9.86671
match	-9.86691
diff	-9.86755
build	-9.86766
original	-9.8678
DrugInteraction	-9.86789
DBUtil	-9.8679
it	-9.86938
▁thrown	-9.86974
messages	-9.87014
getPhone	-9.87049
▁transaction	-9.87216
ApptTypeBean	-9.8724
▁build	-9.87294
OfficeVisitDAO	-9.87403
="5"	-9.87583
roof	-9.87725
oid	-9.87799
opts	-9.87885
YXJ	-9.87915
▁W	-9.87985
Message	-9.88044
AllergyBean	-9.88275
"><	-9.88502
▁EC	-9.88505
▁zero	-9.88596
yA	-9.8863
METHOD	-9.88656
category	-9.88656
▁memory	-9.88656
TYPE	-9.88656
▁together	-9.88657
▁certain	-9.88657
UPDATE	-9.88658
▁could	-9.88659
MODE	-9.88666
▁every	-9.88692
EgZG	-9.88774
▁accessed	-9.88805
TransactionBean	-9.88826
▁authenticated	-9.88828
▁SET	-9.88888
result	-9.89079
▁updated	-9.89121
▁Access	-9.89154
▁before	-9.8919
ous	-9.89206
▁apptType	-9.89333
illi	-9.89344
User	-9.89439
confirm	-9.89484
GE	-9.89487
AD	-9.89641
▁HCPs	-9.89701
tory	-9.89716
▁state	-9.89845
Address	-9.89876
New	-9.89939
trusted	-9.89994
▁sign	-9.90004
LOINC	-9.90064
Gender	-9.90068
signature	-9.90098
Content	-9.90108
max	-9.90113
document	-9.90121
UAP	-9.90123
▁Request	-9.90128
reserved	-9.90205
getZip	-9.90305
▁PKI	-9.90405
▁"+	-9.90501
▁optional	-9.90507
▁DrugInteraction	-9.90579
▁functions	-9.906
BeanValidator	-9.90797
▁Procedures	-9.91083
=?"	-9.91396
xf	-9.91552
tm	-9.91578
▁D	-9.91665
srv	-9.91766
11	-9.91842
▁Li	-9.91877
Instructions	-9.91989
keypair	-9.91989
▁JDBC	-9.91989
antinat	-9.91989
cmcRA	-9.91989
▁Cleanup	-9.92027
▁adverse	-9.92064
Map	-9.92109
▁working	-9.92112
▁additional	-9.9216
▁Database	-9.92161
▁solid	-9.92217
▁var	-9.92282
estrealm	-9.92295
sin	-9.92412
▁space	-9.92608
▁Message	-9.92702
▁hcpid	-9.92706
▁years	-9.92918
▁his	-9.93242
button	-9.93452
▁temp	-9.93521
System	-9.93555
▁la	-9.93637
tc	-9.93727
zA	-9.93735
▁how	-9.93783
cli	-9.93868
et	-9.93878
▁object	-9.94115
▁loadSingle	-9.94711
56	-9.94745
md	-9.94763
;"><%=	-9.94844
AdverseEvent	-9.95134
RETRY	-9.95437
CONTENT	-9.95437
Float	-9.95437
▁easily	-9.95437
SPECIALTY	-9.95437
▁blood	-9.95462
OBJECT	-9.95468
HTML	-9.95482
Bg	-9.95484
ISO	-9.95492
ee	-9.95492
▁describe	-9.9557
▁Source	-9.95606
▁minutes	-9.95673
▁output	-9.95767
pse	-9.95776
ry	-9.95792
▁surveyBean	-9.95825
LU	-9.9587
=%	-9.95903
▁Only	-9.95953
▁convert	-9.96009
▁sender	-9.9607
▁ND	-9.9613
▁close	-9.96146
896_	-9.96157
▁ipAddr	-9.96212
▁Certs	-9.96364
Body	-9.96365
▁codes	-9.96497
▁3	-9.96762
▁Start	-9.9697
connect	-9.9701
▁Status	-9.97061
▁HospitalBean	-9.97067
authDAO	-9.97379
▁UAP	-9.97424
Height	-9.97569
▁ProcedureBean	-9.976
900_	-9.97686
▁right	-9.97753
sp	-9.97843
▁minor	-9.97915
})	-9.98042
26	-9.98583
eriod	-9.98768
▁results	-9.98867
▁stor	-9.98874
▁para	-9.98969
MATCH	-9.98977
▁extra	-9.99004
nating	-9.99008
Dosage	-9.99009
▁appropriate	-9.99009
▁handshake	-9.99009
▁queries	-9.99009
▁Auth	-9.99009
laure	-9.99009
After	-9.99009
▁superclass	-9.99012
txt	-9.99034
EOL	-9.99054
▁2013	-9.99086
Password	-9.99107
▁Perform	-9.99118
▁fingerprint	-9.99184
getPrescriptions	-9.993
The	-9.99399
':	-9.99453
getICDCode	-9.99621
▁write	-9.99732
▁hdrlen	-9.99773
▁diastolic	-9.99812
678901234567890"	-9.99853
▁EmailUtil	-9.99882
1()	-10.0002
▁ReferralBean	-10.0015
▁way	-10.0018
nonce	-10.003
Lj	-10.0032
▁personal	-10.0039
realm	-10.0049
sh	-10.0057
personnelForm	-10.0077
Ethnicity	-10.0078
save	-10.0079
▁medication	-10.0083
entry	-10.0084
curlcode	-10.0088
▁curlcode	-10.0096
contains	-10.0103
▁trusted	-10.0114
ErrorList	-10.0118
based	-10.0119
ReferralBean	-10.013
';	-10.0146
▁GET	-10.0151
▁disable	-10.0156
▁IP	-10.0157
▁interaction	-10.0167
▁field	-10.0168
▁require	-10.0177
getApptType	-10.0184
▁year	-10.0222
up	-10.0233
▁validat	-10.0235
▁ha	-10.0264
▁typical	-10.0269
Implicit	-10.0271
▁consistency	-10.0271
▁memcpy	-10.0271
Ascending	-10.0271
▁prompt	-10.0271
home	-10.0271
TXT	-10.0271
msgIndex	-10.0272
GBysGAQEBARY	-10.0272
899\\	-10.0274
▁ah	-10.0277
▁presented	-10.0279
possession	-10.028
▁handler	-10.0283
lections	-10.0292
▁depend	-10.031
▁These	-10.0319
------+	-10.0321
▁CMC	-10.0333
▁Retrieve	-10.0345
▁ViewMyMessages	-10.0355
▁toList	-10.0358
▁requires	-10.0375
removeID	-10.0377
1))	-10.038
▁rights	-10.0383
▁Update	-10.0384
ZT	-10.0384
▁VALUES	-10.0435
sign	-10.0443
ListAction	-10.0449
Encoding	-10.0452
version	-10.0459
tst	-10.0464
ER	-10.0466
You	-10.0467
oductionInstance	-10.0477
ICDCode	-10.048
In	-10.0484
▁UID	-10.0508
hdrs	-10.0517
▁><	-10.0533
Procedures	-10.0536
▁tls	-10.0538
Phone	-10.0549
▁credential	-10.0555
3>	-10.0563
▁act	-10.0567
▁Cert	-10.0579
▁NOTE	-10.0581
2))	-10.06
Diagnoses	-10.0638
▁process	-10.0648
an	-10.0648
aboratory	-10.0649
FILE	-10.0649
Systolic	-10.0656
!!!	-10.0656
-8859-1"	-10.0656
mime	-10.0656
▁occurred	-10.0656
▁pressure	-10.0656
▁range	-10.0656
matrix	-10.0656
▁pstmt	-10.0656
▁Verify	-10.0656
▁Unit	-10.0656
▁otherwise	-10.066
▁bad	-10.0662
yY	-10.0666
▁desired	-10.0679
ProcedureID	-10.068
sendEmail	-10.0696
▁OVMedication	-10.0712
39	-10.0732
▁pb	-10.0733
ta	-10.0741
representee	-10.0762
▁OID	-10.0764
▁POST	-10.0765
▁Key	-10.0773
▁checking	-10.078
▁he	-10.0787
ce	-10.0788
flu	-10.0792
ward	-10.0796
▁userid	-10.08
▁assign	-10.0805
▁"127.0.0.1",	-10.0807
Prescriptions	-10.0807
mail	-10.081
ref	-10.0811
▁Procedure	-10.0812
▁tempCode	-10.0836
▁'\0')	-10.0846
Start	-10.0864
>");	-10.0881
IF	-10.0884
3))	-10.0898
▁Data	-10.09
▁signed	-10.0907
▁challenge	-10.0908
▁comple	-10.0909
pC	-10.0936
▁checks	-10.0941
▁Sett	-10.0958
mU	-10.0961
HCPMID	-10.0997
▁Men	-10.1002
▁approved	-10.103
Diastolic	-10.1056
LIST	-10.1056
Outbox	-10.1056
internal	-10.1056
▁prescribed	-10.1056
▁logging	-10.1056
SecurityQuestion	-10.1056
▁ensure	-10.1057
▁fam	-10.1057
▁cause	-10.1057
▁2016	-10.1058
▁displayed	-10.1062
898/	-10.1077
▁stand	-10.1091
getPr	-10.1096
*2	-10.1127
NON	-10.1136
:\	-10.1136
ment	-10.1158
lg	-10.1164
san	-10.1164
Last	-10.1175
▁got	-10.119
▁indicate	-10.1193
▁Lab	-10.1197
▁1,	-10.1206
2"	-10.1207
Answer	-10.1208
search	-10.1209
91	-10.1211
ReportRequest	-10.122
rong	-10.1225
ting	-10.124
▁extensions	-10.1241
ra	-10.1242
.*	-10.1257
personnel	-10.1265
generate	-10.1269
admin	-10.1272
one	-10.1277
VisitFlag	-10.1278
other	-10.1279
mismatch	-10.1283
tempCode	-10.1283
basic	-10.1285
▁beans	-10.1295
="2">	-10.1323
PK	-10.1328
An	-10.1337
▁systolic	-10.1359
▁ri	-10.1359
▁Event	-10.1366
ele	-10.1379
(0);	-10.141
▁testing	-10.1427
▁err	-10.1454
▁second	-10.1454
Nav	-10.1466
STAT	-10.1466
WRONG	-10.1472
TIMEOUT	-10.1472
strcasecmp	-10.1472
▁Response	-10.1473
▁encoding	-10.1473
▁Copy	-10.1473
▁initial	-10.1473
▁exit	-10.1473
▁tell	-10.1474
Weight	-10.1475
GCS	-10.1475
▁identifier	-10.1475
EmergencyPhone	-10.1485
PersonnelAction	-10.1485
xlQ	-10.1487
nha	-10.149
WC	-10.1493
▁cell	-10.1501
▁Illegal	-10.1501
▁part	-10.1507
▁issued	-10.1508
▁clear	-10.1526
▁bytes	-10.1534
▁Details	-10.1536
▁requesting	-10.1537
▁removed	-10.1544
"/>	-10.1548
▁Abo	-10.1557
MG	-10.158
LE	-10.1596
▁Health	-10.16
▁NOT	-10.1621
Send	-10.1628
ent	-10.1632
4))	-10.1637
vB	-10.1651
▁side	-10.1658
All	-10.1669
▁mismatch	-10.1673
My	-10.1679
▁version	-10.1683
▁fields	-10.1685
kp	-10.1687
Ai	-10.169
▁actual	-10.1704
self	-10.1708
Errors	-10.1714
Curl	-10.1717
side	-10.1719
provision	-10.172
VALUES	-10.172
content	-10.172
This	-10.1722
▁Messages	-10.1723
GY	-10.1741
ar	-10.1744
Specialty	-10.1753
▁exist	-10.1786
Zw	-10.1801
OS	-10.1803
pb	-10.1805
▁op	-10.1829
▁disease	-10.1833
allocate	-10.1883
AwYDiDcEE	-10.1887
wMTIzNDU	-10.1892
go	-10.1892
SIZE	-10.1903
BZQ	-10.1904
facebox	-10.1907
▁future	-10.1907
▁identify	-10.1907
▁integer	-10.1907
▁previous	-10.1907
mainForm	-10.1907
LONG	-10.1907
5272	-10.1908
ReportBean	-10.1908
getIcAddress	-10.1909
ApptTypeAction	-10.1909
em	-10.191
▁locally	-10.1912
CMD	-10.1918
▁wait	-10.1918
384	-10.192
RE	-10.192
wI	-10.1923
UTF	-10.1925
▁incoming	-10.1926
▁Attempt	-10.1929
rting	-10.1931
▁needed	-10.1933
▁obtained	-10.1934
▁performerID	-10.1937
mF	-10.1951
Mid	-10.1953
▁down	-10.1954
▁insert	-10.1955
NDCode	-10.1971
▁reset	-10.1978
▁trust	-10.1982
▁HashMap	-10.1997
%>"	-10.2004
▁"<	-10.2006
▁exists	-10.2018
▁surveyResult	-10.2031
▁CN	-10.2032
▁Updates	-10.204
1)	-10.2049
MAkG	-10.2051
'>	-10.2056
▁getAll	-10.2062
7->	-10.2065
▁clients	-10.2065
VC	-10.2073
1",	-10.2074
▁provision	-10.2105
▁uninitialize	-10.2113
18	-10.2115
|	-10.2162
First	-10.2167
▁%>">	-10.2167
LOINCbean	-10.217
padding	-10.2171
false	-10.2175
sizeof	-10.2185
▁representees	-10.2186
▁events	-10.2195
09	-10.2197
forms	-10.2197
dst	-10.2223
8,	-10.2228
hall	-10.2229
HER	-10.2245
Immunization	-10.2246
▁AuthDAO	-10.2251
82	-10.2256
Transactions	-10.2266
setDate	-10.2278
▁setter	-10.2287
▁"\	-10.2289
NF	-10.23
for	-10.2307
▁pre	-10.2317
▁verifie	-10.2345
ODkwE	-10.2357
AVAILABLE	-10.2362
▁alphanumeric	-10.2362
▁instead	-10.2362
▁large	-10.2362
OPERATION	-10.2362
sanity	-10.2362
PrivateKey	-10.2362
▁JSP	-10.2363
▁skip	-10.2363
getUserName	-10.2364
▁sockaddr	-10.2364
ALL	-10.2365
nNl	-10.2365
sendMessage	-10.2372
helper	-10.2376
://127.0.0.1:	-10.2381
getCPTCode	-10.2383
▁continue	-10.2384
getOv	-10.2389
▁viewing	-10.2395
MessageFilter	-10.2405
****************	-10.2413
▁single	-10.2429
dCB	-10.2432
=0;	-10.2444
99	-10.2449
▁suites	-10.2463
Ll	-10.2464
mu	-10.247
▁within	-10.2476
▁EOK	-10.2509
▁RA	-10.2524
(5,	-10.2544
▁personnelList	-10.2544
▁OfficeVisits	-10.2545
▁Inc	-10.2553
etBody	-10.2575
LO	-10.2584
▁bio	-10.261
myRef	-10.2642
pattern	-10.2646
12	-10.2646
Simple	-10.265
50	-10.2652
response	-10.2652
headerMessage	-10.2653
▁drugs	-10.2655
put	-10.2668
rm	-10.2676
▁nf	-10.2687
▁pkey	-10.27
nt	-10.2701
checked	-10.2707
="100	-10.2711
Un	-10.2712
▁take	-10.2717
▁fails	-10.2742
▁Codes	-10.2763
▁getName	-10.2767
NID	-10.2781
▁getPatient	-10.279
BgNVBA	-10.2831
▁(1	-10.2838
proto	-10.2838
GRAPH	-10.2838
PROCEDURE	-10.2838
WRITE	-10.2838
utomat	-10.2838
▁above	-10.2838
▁maximum	-10.2838
▁policy	-10.2838
▁specify	-10.2838
getAllMyMessages	-10.2838
▁<!--	-10.2838
Tag	-10.284
▁corrupted	-10.2841
StateException	-10.2842
MEA	-10.2843
func	-10.2844
CMDS	-10.2845
CODE	-10.285
▁care	-10.2852
▁SOCK	-10.2854
17	-10.2855
▁thisYear	-10.2856
▁had	-10.2859
xa	-10.2861
MAY	-10.2862
ad	-10.2865
ps	-10.2873
getEndDate	-10.2887
1"	-10.2913
▁J	-10.2917
▁sys	-10.2925
dL	-10.2968
yL	-10.2971
getBody	-10.2977
ur	-10.2982
tmp	-10.2994
Lab	-10.3013
ct	-10.3013
▁ASC	-10.3015
▁varie	-10.3026
▁edit	-10.3027
qd	-10.3042
la	-10.3049
desc	-10.3055
AA	-10.3065
getPrescription	-10.3065
TE	-10.3068
itingRoomMinutes	-10.3076
Treatment	-10.3076
bz	-10.3093
▁startDate	-10.3112
▁endDate	-10.3112
encode	-10.313
▁display	-10.3131
getIc	-10.3136
Survey	-10.3137
implemented	-10.314
atientBaseAction	-10.3141
10);	-10.3143
Length	-10.3143
visitID	-10.315
1);	-10.3176
appts	-10.3192
sha	-10.3208
ally	-10.3209
newMID	-10.3228
▁issue	-10.325
Full	-10.3277
uni	-10.3293
▁work	-10.3309
Factor	-10.3309
Notes	-10.3311
4>	-10.3312
▁even	-10.3327
CAQAw	-10.333
BASE	-10.3332
PATIENT	-10.3333
SIMPLE	-10.3338
Component	-10.3338
NABLE	-10.3338
PARSE	-10.3338
▁Explicit	-10.3338
▁responsible	-10.3338
FamilyMemberHave	-10.3338
UNKNOWN	-10.3338
CholesterolHDL	-10.3338
CholesterolLDL	-10.3338
image	-10.3338
▁later	-10.3338
IGCSskAwMCCAEBCz	-10.3338
▁flow	-10.3339
▁two	-10.3339
hnd	-10.3339
SEG	-10.3343
▁successfully	-10.3345
▁invoked	-10.3345
_1024_	-10.3348
getParameterMap	-10.335
ReferralStatus	-10.335
▁taken	-10.3355
▁represented	-10.3356
▁services	-10.3357
▁possible	-10.3363
editPatient	-10.3365
MEM	-10.3375
▁Certificate	-10.3382
getStartDate	-10.3386
getDuration	-10.3396
▁upper	-10.3405
▁reported	-10.341
▁wildcard	-10.3412
2()%>"	-10.3413
tDate	-10.3415
1()%>"	-10.3415
xe	-10.342
▁F	-10.342
▁curve	-10.3425
▁compare	-10.343
▁Laboratory	-10.3433
sen	-10.3435
▁created	-10.3442
▁non	-10.3446
▁explicit	-10.3452
▁sk	-10.3455
▁seconds	-10.3464
Di	-10.3476
vd	-10.348
▁12	-10.348
▁Records	-10.3489
eS	-10.3493
ification	-10.3494
▁Survey	-10.3501
day	-10.3505
▁referrals	-10.3507
▁VisitReminder	-10.3523
pt	-10.3531
patients	-10.3543
how	-10.3572
getLabProcedure	-10.3587
▁You	-10.3593
"%></	-10.3598
<%	-10.3616
▁Address	-10.3633
▁diff	-10.3643
xA	-10.3646
diag	-10.366
Allergies	-10.3661
Rights	-10.3661
calDay	-10.3661
address	-10.3668
ASC	-10.3669
("[	-10.3669
Section	-10.3677
application	-10.3678
nZ	-10.3696
nq	-10.3697
am	-10.37
▁username	-10.3701
CURL	-10.3704
attributes	-10.372
PY	-10.3727
2)	-10.3752
▁newMID	-10.3758
▁present	-10.376
▁forward	-10.3765
▁cn	-10.3769
PatientName	-10.3783
▁MB	-10.38
▁Change	-10.3809
IS	-10.3811
Smoker	-10.3831
▁HealthRecord	-10.3833
results	-10.3842
HCPName	-10.3842
▁State	-10.3844
▁":"	-10.385
▁16	-10.3853
▁login	-10.3856
her	-10.386
BgcrBgEBAQEW	-10.3864
DatePicker	-10.3864
Lower	-10.3864
EXPIRED	-10.3864
VERIFY	-10.3864
URLEncoder	-10.3864
Double	-10.3864
PENDING	-10.3864
tempDescrip	-10.3864
▁Handle	-10.3864
▁anchor	-10.3864
▁written	-10.3864
▁isNullable	-10.3864
▁Require	-10.3864
CLOSE	-10.3864
NOTUNNEL	-10.3865
mostRecent	-10.3865
endMessageAction	-10.3865
CreditCardType	-10.3865
▁populate	-10.3866
Xa	-10.3866
alive	-10.3867
ditPatientAction	-10.3868
InM	-10.3868
▁typically	-10.3868
REPORT	-10.387
Completed	-10.387
ecdhe	-10.387
Out	-10.3871
Free	-10.3873
element	-10.3876
▁saved	-10.3876
getVisitDate	-10.3879
RO	-10.3883
Interaction	-10.3884
df	-10.3895
▁officeVisits	-10.3897
▁Authentication	-10.3901
▁changed	-10.3908
▁typedef	-10.3909
▁fmt	-10.3912
Zip	-10.3914
MyRecordsAction	-10.393
▁Appointment	-10.3931
ver	-10.3936
xJ	-10.3949
▁mBean	-10.3978
WW	-10.3989
14	-10.3992
▁lower	-10.3995
="10">	-10.4004
▁glucoseLevel	-10.4006
dh	-10.4032
▁connect	-10.4034
▁"-"	-10.4041
▁color	-10.4044
▁assigned	-10.4049
2048,	-10.405
▁(<%=	-10.4054
▁days	-10.4056
EP	-10.4071
ff	-10.4076
val	-10.4095
pw	-10.411
record	-10.4126
▁Password	-10.4136
LabProcedureCode	-10.4142
inc	-10.4174
▁comp	-10.4184
▁OfficeVisitDAO	-10.4186
+--------------	-10.4188
ut	-10.4204
asn	-10.4211
▁+"	-10.4216
▁"127.0.0.1"	-10.4221
float	-10.4225
Remove	-10.4227
shutdown	-10.4227
sZ	-10.4228
obj	-10.4228
▁headers	-10.423
double	-10.4231
representative	-10.4233
create	-10.4233
▁calls	-10.4234
▁N	-10.4244
city	-10.4249
CM	-10.4255
▁hr	-10.4256
HCPDiagnosisBean	-10.4257
MT	-10.4268
ty	-10.4269
▁Results	-10.4278
org	-10.4286
=1	-10.4292
Wa	-10.4307
▁want	-10.4311
▁command	-10.4312
▁ex	-10.4326
0-9	-10.4338
CE	-10.4346
5))	-10.4351
58	-10.436
en	-10.4373
▁allergy	-10.4384
▁info	-10.4393
VALID	-10.4419
CholesterolTri	-10.442
equiv	-10.442
CONNECT	-10.442
▁contact	-10.442
▁inbox	-10.442
cacrlcerts	-10.442
Enter	-10.442
UPD	-10.4421
getLo	-10.4421
▁authenticating	-10.4423
▁entries	-10.4423
MGA	-10.4424
stdout	-10.4424
▁problem	-10.4426
HEX	-10.4427
▁parent	-10.4431
▁reports	-10.4432
ely	-10.4437
▁SHOULD	-10.4437
HealthRecordsDAO	-10.4438
TOO	-10.4438
FA	-10.4441
▁show	-10.4443
▁Token	-10.4448
▁ovIDString	-10.4452
2;	-10.4454
▁Hashtable	-10.4459
▁under	-10.446
▁click	-10.446
xd	-10.4465
xx	-10.447
mm	-10.4475
▁flag	-10.4492
▁keep	-10.4492
▁represents	-10.4493
▁1024	-10.4493
▁secondDrug	-10.4503
▁firstDrug	-10.4504
▁Description	-10.4505
VD	-10.4505
▁stored	-10.4511
tempName	-10.4521
Patients	-10.4522
ant	-10.4528
app	-10.4531
(0)	-10.4534
▁Adverse	-10.4537
drug	-10.4562
▁raw	-10.4572
▁TCP	-10.4578
xO	-10.4583
rWs	-10.4588
▁notes	-10.4588
2048	-10.4606
▁EditOfficeVisit	-10.461
js	-10.4635
BaseAction	-10.4645
RA	-10.4646
at	-10.4653
EY	-10.4654
▁Curl	-10.4672
="4"	-10.4672
▁cb	-10.4684
ZG	-10.4687
AllOfficeVisits	-10.4694
Form	-10.47
Appointment	-10.471
flag	-10.4711
Comment	-10.4715
▁nonce	-10.4719
getSen	-10.4722
GF	-10.4728
BN	-10.4737
At	-10.4739
87	-10.4746
gp	-10.4748
way	-10.4772
▁addr	-10.4776
▁init	-10.4803
▁most	-10.4807
pres	-10.4811
BloodType	-10.4812
systolic	-10.4817
expired	-10.482
EditOfficeVisit	-10.4823
safe	-10.483
()).	-10.4836
▁TransactionBean	-10.4844
hcpID	-10.4854
▁selected	-10.486
=2	-10.4878
▁occur	-10.4891
▁pop	-10.4896
do	-10.4905
","	-10.4908
="4">	-10.4932
▁num	-10.4941
Fr	-10.4957
hh	-10.4958
LabProcedureDAO	-10.4964
▁next	-10.4968
getClass	-10.4969
sent	-10.4992
CriticalSection	-10.4993
MIIB	-10.5002
task	-10.5006
▁register	-10.5007
▁automatic	-10.5008
ExamRoomMinutes	-10.5008
LoggedInMID	-10.5008
FUNCTION	-10.5008
Authenticate	-10.5008
ReceiverID	-10.5008
SecondDrug	-10.5008
▁Pressure	-10.5008
▁according	-10.5008
▁correspond	-10.5008
▁least	-10.5008
▁protocol	-10.5008
▁updating	-10.5008
Doctor	-10.5008
bottom	-10.5008
▁recent	-10.5008
nsurance	-10.5008
EDIT	-10.5008
▁cho	-10.5009
/1.1	-10.5009
Represented	-10.501
SenderID	-10.501
▁thre	-10.501
▁bit	-10.501
▁declared	-10.5011
RequestsAction	-10.5016
Print	-10.5019
editPersonnel	-10.5021
▁ordered	-10.5024
gen	-10.5025
▁Initialize	-10.5026
▁lpDAO	-10.5026
▁multiple	-10.5026
xml	-10.5027
[0-9	-10.5028
▁reject	-10.503
▁editing	-10.5032
▁-1	-10.5039
▁Spi	-10.5039
▁performed	-10.5041
▁remote	-10.5049
▁tbList	-10.5061
6))	-10.5064
RiskFactors	-10.5067
▁bogus	-10.5073
▁matched	-10.5082
▁loaded	-10.5097
▁main	-10.5106
▁nread	-10.5109
Fu	-10.5109
7-	-10.5112
▁age	-10.5112
gm	-10.5121
▁ovd	-10.5129
▁host	-10.513
)){	-10.5162
▁V	-10.5167
SY	-10.5172
alt	-10.5183
:%	-10.5184
▁gen	-10.5196
")))	-10.5211
▁errorMessage	-10.5219
use	-10.5231
▁padding	-10.5265
yw	-10.5266
unit	-10.527
▁immunizations	-10.5274
Month	-10.5289
Consultation	-10.531
equal	-10.5329
month	-10.5339
OR	-10.5342
▁(6	-10.5347
iz	-10.542
Qw	-10.5421
the	-10.5423
Health	-10.5424
decode	-10.5426
payload	-10.543
RiskChecker	-10.5438
first	-10.544
margin	-10.5441
Certificate	-10.5442
last	-10.5442
Key	-10.5444
aeBean	-10.5444
family	-10.5445
malloc	-10.5446
EC	-10.5456
personnelList	-10.5457
="10"	-10.5536
▁param	-10.5538
TH	-10.5557
▁1)	-10.5568
▁left	-10.5568
Updated	-10.5584
CS	-10.5585
▁PatientID	-10.5591
etToList	-10.5607
Value	-10.5608
▁know	-10.5617
ell	-10.562
30,	-10.5622
rationalProfile	-10.5631
ervlet	-10.5632
ords	-10.5632
TimeLogged	-10.5633
BlackBoxTest	-10.5633
Descending	-10.5633
KindOfProperty	-10.5633
Relation	-10.5633
▁interface	-10.5633
▁negative	-10.5633
▁parsing	-10.5633
4_122	-10.5633
Transfer	-10.5633
▁mbList	-10.5633
5_117	-10.5633
▁exchange	-10.5633
Insert	-10.5634
▁fake	-10.5634
push	-10.5634
FirstDrug	-10.5634
▁representer	-10.5634
▁necessary	-10.5634
▁many	-10.5635
vpm	-10.5635
Uri	-10.564
▁codeEntry	-10.564
▁abstract	-10.5641
▁listen	-10.5642
LAB	-10.5642
▁below	-10.5642
addAll	-10.565
▁encryption	-10.5652
899	-10.5661
▁CACerts	-10.5665
KR	-10.5665
▁1000	-10.5666
▁hrDAO	-10.5666
HospitalName	-10.5672
▁timeLogged	-10.5677
Wp	-10.5679
▁Gra	-10.5682
▁print	-10.5687
VM	-10.569
▁transactionDAO	-10.5704
UEB	-10.5705
ok	-10.5708
ies	-10.5711
sBy	-10.5718
ic	-10.5718
cnonce	-10.5719
CK	-10.572
hI	-10.5722
▁emailer	-10.5725
▁without	-10.575
▁diagn	-10.5753
(",",	-10.5755
ML	-10.5757
▁none	-10.5761
sultationDetails	-10.5762
▁cols	-10.5763
▁streetAddress	-10.5778
▁ADD	-10.579
initialized	-10.5791
wc	-10.5814
headers	-10.5815
90	-10.582
getHCP	-10.5827
▁IN	-10.5829
actually	-10.5831
wC	-10.5835
oids	-10.5841
nk	-10.5847
▁Referral	-10.5852
▁hash	-10.5856
▁First	-10.5895
TU	-10.5897
del	-10.5912
ap	-10.5932
▁map	-10.5937
▁11	-10.5956
9))	-10.5973
▁appts	-10.5979
("")	-10.5986
nX	-10.6001
events	-10.6018
RD	-10.6025
And	-10.604
GV	-10.604
Au	-10.6044
Diagnosis	-10.605
de	-10.6052
NC	-10.6058
65	-10.6078
Allergy	-10.6084
stack	-10.6088
Fail	-10.6094
YEAR	-10.6097
End	-10.61
Pending	-10.61
cal	-10.6103
SOCK	-10.6105
POST	-10.611
apptType	-10.6111
CPT	-10.6114
GB	-10.612
Get	-10.6121
surveyResult	-10.6126
HCPID	-10.6135
EOK	-10.6137
generated	-10.6138
ZW	-10.6146
vg	-10.6169
hex	-10.6176
Representatives	-10.6185
');"	-10.619
med	-10.6197
hos	-10.6204
▁HA	-10.6204
Duration	-10.6211
isitSatisfaction	-10.6214
▁AdverseEvents	-10.6246
Empty	-10.6249
04,	-10.6251
▁100	-10.6253
aw	-10.6254
▁RE	-10.6259
aW	-10.6263
/6	-10.6264
nL	-10.6264
net	-10.6267
vb	-10.628
AU	-10.6289
DAK	-10.629
HEADER	-10.6293
BgOINwEx	-10.6294
▁treatment	-10.6298
getRole	-10.6298
Members	-10.6299
Demographics	-10.63
INITIALIZED	-10.63
fancyTable	-10.63
parms	-10.63
▁Also	-10.63
▁SubjectAltName	-10.63
▁applicable	-10.63
DISABLE	-10.63
tempVal	-10.63
BODY	-10.63
threadid	-10.63
ScaleType	-10.63
Version	-10.63
▁wish	-10.63
▁grep	-10.63
▁History	-10.63
MotherMID	-10.63
FatherMID	-10.63
Prescribing	-10.6301
▁special	-10.6301
asce	-10.6302
2616	-10.6302
LA	-10.6303
('<%=	-10.6303
REENROLL	-10.6303
disconnect	-10.6303
▁receive	-10.6303
cleanse	-10.6303
▁creating	-10.6303
irus	-10.6305
MethodType	-10.6305
▁registered	-10.6308
reportRequestDAO	-10.6308
INET	-10.6309
xxxxxxxxxxxxxxxx	-10.6311
OVE	-10.6312
▁correctly	-10.6312
INE	-10.6314
▁appt	-10.6316
▁terminated	-10.6316
TimeAspect	-10.6316
Ku	-10.6317
MANA	-10.6317
▁begin	-10.6319
▁similar	-10.632
▁missing	-10.632
ReportRequestDAO	-10.6323
Messages	-10.6323
ZU	-10.6325
Oz	-10.6328
ose	-10.633
Ah	-10.6338
())%></	-10.6344
ticipat	-10.6348
▁designated	-10.6348
rW	-10.6358
▁confirmPassword	-10.6363
▁(1000	-10.6368
iB	-10.637
Med	-10.6374
HealthRecordForm	-10.6378
▁accepted	-10.6381
OV	-10.6383
gy	-10.6384
▁conflicts	-10.6387
▁url	-10.6388
▁gender	-10.6389
▁Security	-10.6406
OfficeVisitID	-10.6406
presID	-10.6407
UM	-10.641
893	-10.6415
▁duration	-10.6417
REM	-10.6419
▁dates	-10.642
getUser	-10.6431
pos	-10.644
▁Do	-10.6443
rep	-10.6446
▁day	-10.6454
▁delete	-10.6456
off	-10.6456
8))	-10.646
▁++;	-10.6462
▁diseases	-10.6464
<%}%>	-10.6465
OfficeVisits	-10.649
ec	-10.6496
▁ok	-10.6506
▁margin	-10.651
▁NDCodes	-10.6514
▁Month	-10.652
▁shutdown	-10.6537
oB	-10.6543
ary	-10.6544
▁Remove	-10.6545
ING	-10.6548
▁encode	-10.6549
jc	-10.6564
▁tag	-10.6565
▁HCPID	-10.6571
▁pattern	-10.6578
kw	-10.6606
sWith	-10.6607
Db	-10.6633
MyApptsAction	-10.6635
()+"	-10.6651
ME	-10.6653
CON	-10.6675
▁HCPMID	-10.6682
▁(-1	-10.6708
="+	-10.671
Emergency	-10.6716
DM	-10.6717
QH	-10.6719
Sort	-10.6721
coming	-10.6723
▁ApptTypeBean	-10.6728
▁section	-10.6731
▁cl	-10.6749
css	-10.6752
DateFormat	-10.6794
21	-10.6798
gE	-10.6806
7))	-10.6806
()){	-10.681
MU	-10.6811
Success	-10.6814
Zh	-10.6818
delay	-10.6818
strcmp	-10.682
31	-10.6823
answer	-10.6825
immunization	-10.6826
calendar	-10.6826
Client	-10.6827
PHA	-10.6829
supported	-10.683
only	-10.6831
glucoseLevel	-10.6834
userid	-10.6838
▁hospitals	-10.6844
03,	-10.6857
tU	-10.6864
HO	-10.6878
▁simpleenroll	-10.6882
cpt	-10.6888
93	-10.689
▁place	-10.6892
OID	-10.6899
ight	-10.6914
▁known	-10.6918
▁Exception	-10.6924
▁AllergyBean	-10.6925
values	-10.6932
BU	-10.6938
▁force	-10.6942
ProcedureCode	-10.6943
▁parsed	-10.6945
Bgkq	-10.6956
▁level	-10.6958
SessionTimeout	-10.6962
verage	-10.697
▁receiv	-10.6976
▁retriev	-10.6977
ill	-10.6986
▁-->	-10.6993
JU	-10.6995
Trust	-10.6995
MIIC	-10.7001
DQEBBQUA	-10.7004
sig	-10.7006
INVAL	-10.701
▁Common	-10.7011
▁Log	-10.7013
YDiDcCMS	-10.7014
CHAIN	-10.7014
CauseOfDeath	-10.7014
▁leastVisits	-10.7014
HCPLinkBean	-10.7014
PRESCRIPTION	-10.7014
REVOKED	-10.7014
cewolf	-10.7014
▁Convert	-10.7014
▁invoking	-10.7014
▁language	-10.7014
▁reference	-10.7014
▁transport	-10.7014
▁small	-10.7014
NONCE	-10.7015
▁media	-10.7015
UserIn	-10.7015
RequesterMID	-10.7015
getUserRole	-10.7016
▁diagnosed	-10.7016
Received	-10.7017
▁Pass	-10.7017
▁operational	-10.7019
UGA	-10.7022
▁run	-10.7022
▁IPv	-10.7024
IHN	-10.7024
▁itself	-10.7026
▁messageNew	-10.7026
▁accept	-10.7028
DEL	-10.7032
JY	-10.7035
▁descriptor	-10.7036
▁ftlObj	-10.7036
Qz	-10.7037
qName	-10.7041
▁usage	-10.7043
▁L	-10.7047
▁random	-10.7047
ZC	-10.7057
▁short	-10.7065
▁normal	-10.7066
38	-10.7068
24	-10.7077
▁November	-10.7079
RC	-10.708
DQ	-10.7082
CB	-10.7085
alg	-10.7087
▁query	-10.7094
▁BASIC	-10.71
getOfficeVisit	-10.71
lL	-10.7104
▁da	-10.712
▁ApptBean	-10.7131
30	-10.7133
+"</	-10.7134
Fk	-10.7135
▁period	-10.7138
▁SecurityQA	-10.7152
▁SurveyBean	-10.7154
▁logic	-10.7154
▁He	-10.7173
getTo	-10.7181
SE	-10.7185
sortBy	-10.7194
▁signing	-10.7199
▁Hospital	-10.7205
!</	-10.721
▁PHA	-10.7212
CC	-10.7213
4",	-10.7217
10))	-10.7224
▁decode	-10.7229
▁DateFormat	-10.7234
setTime	-10.7239
qj	-10.7244
tempID	-10.7247
▁Requests	-10.7252
?</	-10.7252
▁ptr	-10.7254
gg	-10.7257
ia	-10.7259
ATE	-10.7264
FH	-10.727
▁purposes	-10.7278
▁her	-10.7283
00,	-10.7296
(6,	-10.7308
▁el	-10.7316
Xp	-10.7342
▁self	-10.7344
Dd	-10.7348
79	-10.7359
▁Un	-10.7361
uE	-10.7375
▁save	-10.7387
_250	-10.7397
BloodPressureD	-10.7397
▁tm	-10.7401
SK	-10.7415
▁Ver	-10.7418
Added	-10.7433
48	-10.744
▁al	-10.744
▁Gender	-10.7447
ha	-10.7453
zs	-10.7455
72	-10.7458
mctx	-10.7471
Method	-10.7481
ba	-10.7484
comp	-10.7486
Jz	-10.749
nK	-10.7491
etrieved	-10.751
▁ER	-10.7515
▁relat	-10.7524
JA	-10.7534
▁note	-10.7534
lY	-10.7537
MAk	-10.7542
%>"><%=	-10.757
ny	-10.7574
reminder	-10.7581
class	-10.7582
RandomPassword	-10.7583
getIcPhone	-10.7584
▁DATE	-10.7585
hospital	-10.7589
dlhcp	-10.7592
lower	-10.7594
EmailUtil	-10.7594
unique	-10.7596
public	-10.7597
hospitalID	-10.76
required	-10.7601
my	-10.7605
ED	-10.7608
▁listing	-10.7608
▁decoded	-10.7617
())){	-10.7618
Sat	-10.7625
894/	-10.7646
bptr	-10.7671
()%>">	-10.7683
toList	-10.77
YHKwYBAQEBFg	-10.7714
getLast	-10.7717
Mo	-10.7719
asy	-10.772
EM	-10.7726
xD	-10.7763
gYDVQQ	-10.7774
oGA	-10.7775
BoB	-10.7776
valid	-10.7778
xIGRhdGE	-10.778
nv	-10.7783
PARAM	-10.7783
IMPLICIT	-10.7783
Expired	-10.7783
built	-10.7783
▁criteria	-10.7783
CORRUPT	-10.7783
January	-10.7783
PatientVisitBean	-10.7783
MESSAGE	-10.7783
FOUND	-10.7783
managing	-10.7783
▁greate	-10.7783
OVSubAction	-10.7784
▁own	-10.7784
AddPatientAction	-10.7784
secp	-10.7784
▁priority	-10.7784
▁officevisits	-10.7784
▁satisfaction	-10.7785
▁upstream	-10.7785
▁aeList	-10.7786
WZ	-10.7786
▁cached	-10.7788
▁passes	-10.7789
▁Figure	-10.7792
▁RECOMMENDED	-10.7792
PEN	-10.7792
▁hcpMID	-10.7793
▁terminate	-10.7796
LM	-10.7798
▁caller	-10.7803
/8	-10.7807
▁like	-10.7807
ION	-10.781
▁"</	-10.781
ust	-10.7813
▁1.1	-10.7816
▁Record	-10.7822
▁warning	-10.7823
viewPrescription	-10.7824
▁Context	-10.7824
mQ	-10.7824
YG	-10.7826
position	-10.7829
▁G	-10.7831
MIN	-10.7831
▁reporterRole	-10.7839
▁reporterMID	-10.784
()%>"><%=	-10.7844
co	-10.7847
----------+	-10.7851
▁ViewMyReport	-10.7861
ADD	-10.7865
ble	-10.7869
▁adverseEvent	-10.787
\"":""	-10.7872
▁SHA	-10.7872
Qu	-10.7872
Kp	-10.7876
IGN	-10.7877
BloodPressureN	-10.7878
▁prime	-10.7886
▁good	-10.7886
▁ViewMy	-10.789
▁accesses	-10.7892
NDU	-10.7897
getComment	-10.7897
▁thisMonth	-10.79
▁Filter	-10.7902
(0)"	-10.7906
NTER	-10.792
▁keyin	-10.7927
setHCP	-10.7929
ncoming	-10.793
10"	-10.793
Ox	-10.7932
Tre	-10.7937
▁don	-10.7938
13	-10.7943
reh	-10.7949
Visit	-10.7953
RU	-10.7973
2.1	-10.7975
▁U	-10.8011
▁inter	-10.8034
▁web	-10.8036
zk	-10.8039
62	-10.804
}",	-10.8041
▁Comment	-10.8046
KH	-10.8053
getA	-10.8055
3612	-10.8062
Oq	-10.807
ive	-10.807
▁val	-10.8076
Fz	-10.808
06,	-10.8084
sForPatient	-10.8103
EO	-10.8124
▁dst	-10.8133
fW	-10.8137
▁appointments	-10.8148
via	-10.8153
Requested	-10.8159
("/	-10.8165
)?"	-10.8165
Server	-10.8176
CL	-10.8186
getBloodPressure	-10.8193
▁150	-10.8199
+0	-10.8203
6+	-10.8209
%>">	-10.821
mx	-10.8218
bC	-10.8226
="">	-10.8233
ied	-10.8233
▁logger	-10.8236
ont	-10.8262
▁getZip	-10.8266
#	-10.8281
wB	-10.8282
▁To	-10.8283
ImmunizationID	-10.8285
▁allocat	-10.8286
Rj	-10.8303
▁On	-10.8303
▁PatientMID	-10.8306
▁20	-10.8307
▁attrs	-10.8312
om	-10.8331
dG	-10.835
▁extern	-10.839
Request	-10.8403
Day	-10.8411
blob	-10.8414
implicit	-10.8418
▁STR	-10.8419
group	-10.842
ipAddr	-10.842
fillUpdate	-10.8423
delete	-10.8423
icPhone	-10.8423
YS	-10.8424
streetAddress	-10.8425
explicit	-10.8426
fields	-10.8427
ViewMyMessages	-10.8427
diastolic	-10.8427
qop	-10.8427
ICD	-10.8428
both	-10.8429
LoginFailure	-10.8429
userRole	-10.843
gY	-10.8431
height	-10.8432
context	-10.8436
83	-10.8436
2-	-10.8443
▁Select	-10.845
ers	-10.8462
Interactions	-10.8465
Reset	-10.8474
▁Sign	-10.8498
INT	-10.8505
Representative	-10.8513
▁detail	-10.8515
ter	-10.852
qS	-10.8543
ro	-10.8551
CH	-10.8552
1000	-10.8557
jF	-10.8557
Immunizations	-10.8563
Timeout	-10.8567
▁addition	-10.8573
cation	-10.8576
hvcNAQEBBQADgg	-10.8583
enabled	-10.8583
▁factor	-10.8585
▁viewed	-10.8589
getDiagnose	-10.8594
▁PatientBeans	-10.8595
');">	-10.8597
lucoseLevel	-10.8603
BgNVBAoMC	-10.8608
▁maintain	-10.8609
▁complete	-10.861
▁Need	-10.8611
▁50	-10.8611
nDANSVFAxE	-10.8612
YJYIZIAWUDBAIC	-10.8613
nger	-10.8613
xYR	-10.8615
Validation	-10.8615
HOST	-10.8615
SubAction	-10.8616
Default	-10.8617
ensive	-10.8617
Click	-10.8617
MISSING	-10.8617
▁amount	-10.8617
▁glucose	-10.8617
▁recipient	-10.8617
APPT	-10.8617
High	-10.8617
▁pull	-10.8617
▁"../../	-10.8617
FLAG	-10.8617
▁ascending	-10.8617
▁prBean	-10.8617
ReferralDetails	-10.8617
▁assert	-10.8617
mbLoader	-10.8617
escapedDescrip	-10.8617
aptIndex	-10.8617
▁yet	-10.8617
PageContext	-10.8617
MCV	-10.8617
backtrace	-10.8617
YQYHKwYBAQEBFg	-10.8618
CzA	-10.8618
OVDate	-10.8618
894\\	-10.8619
▁secondaryMID	-10.8619
▁physician	-10.862
beginning	-10.8622
Back	-10.8622
pub	-10.8623
NDCodes	-10.8623
▁interest	-10.8623
▁authorized	-10.8625
testFilter	-10.8626
pha	-10.8627
sess	-10.8627
ErrorCode	-10.863
nl	-10.8632
Failures	-10.8635
▁placed	-10.8636
Ru	-10.864
▁restart	-10.8641
▁Validate	-10.8643
▁allergies	-10.8643
▁firstMonth	-10.8645
▁messageDAO	-10.8646
▁ovid	-10.8646
("[\\	-10.8647
UZ	-10.8649
▁processing	-10.8659
▁algorithm	-10.866
▁rmDAO	-10.866
yes	-10.8663
jq	-10.8664
▁min	-10.8666
▁matches	-10.8668
▁"#	-10.8674
▁direct	-10.8676
▁Transport	-10.8677
Cg	-10.8679
▁dsa	-10.8679
Assignments	-10.8684
here	-10.8693
▁common	-10.8694
900	-10.8695
Nvb	-10.8702
HC	-10.8707
SQ	-10.8716
▁dlhcp	-10.8718
mA	-10.8719
ANY	-10.8723
▁dlhcps	-10.8723
▁ec	-10.874
▁Blood	-10.8744
▁doctor	-10.8745
▁revoked	-10.8745
▁memset	-10.8755
yE	-10.8756
▁emergencyPhone	-10.8763
▁Chronic	-10.8764
sa	-10.8767
▁hdrs	-10.8772
kC	-10.8778
▁pageContext	-10.878
▁250	-10.8786
16894	-10.8789
=0	-10.8803
▁takes	-10.8808
Drug	-10.8813
▁icPhone	-10.8815
▁fillUpdate	-10.8817
Representing	-10.8817
▁cat	-10.8835
attrs	-10.8842
▁bptr	-10.8856
wQ	-10.8856
▁userRole	-10.8858
[1	-10.8861
pK	-10.8862
49	-10.8869
Bf	-10.8873
uW	-10.8885
MIG	-10.8904
ould	-10.8911
898	-10.8914
▁city	-10.8919
oP	-10.8946
="0"	-10.8946
▁TransactionType	-10.8946
ZK	-10.895
zE	-10.895
▁6	-10.8967
nW	-10.9006
01,	-10.9011
tester	-10.9017
▁midString	-10.902
Index	-10.9037
El	-10.9051
AB	-10.9053
94	-10.9068
mP	-10.9071
▁Ethnicity	-10.9076
▁changes	-10.9082
rq	-10.9087
tion	-10.9091
▁ele	-10.9096
acting	-10.9097
MQ	-10.9113
dY	-10.9116
NW	-10.9141
WA	-10.9151
?"	-10.9156
▁getPhone	-10.9167
Qf	-10.9168
6,	-10.9169
%20	-10.9183
▁sub	-10.9186
▁Be	-10.9189
▁Up	-10.9202
report	-10.9207
gL	-10.9208
parent	-10.9225
kD	-10.9234
EndDate	-10.9251
+"	-10.9252
Number	-10.9254
//	-10.9272
QX	-10.9275
PatientData	-10.9279
▁256	-10.9282
nfe	-10.9287
1"));	-10.9291
ow	-10.9296
host	-10.9308
survey	-10.9311
▁labProcedure	-10.9311
bE	-10.9311
loinc	-10.9319
isSmoker	-10.9329
ICDCodesDAO	-10.933
receiver	-10.933
ReminderType	-10.933
icdcode	-10.9332
diagnosis	-10.9333
Adverse	-10.9334
second	-10.9336
HashMap	-10.9336
example	-10.9337
▁-1,	-10.9338
approve	-10.9339
comment	-10.9339
hostname	-10.934
PoP	-10.9346
avg	-10.9347
errorMessage	-10.9349
ToList	-10.935
▁Call	-10.9356
mBean	-10.9358
hcpid	-10.937
▁weight	-10.9375
▁fd	-10.9379
not	-10.9396
sk	-10.9415
▁How	-10.9415
RecordsAction	-10.9418
▁establish	-10.9421
▁204	-10.9429
OC	-10.9431
▁initializ	-10.9436
▁uid	-10.9443
eW	-10.9455
")){	-10.9457
▁DH	-10.9457
901/	-10.9465
▁bn	-10.9467
ontains	-10.9477
Question	-10.9487
ZX	-10.949
ND	-10.9492
DES	-10.9495
Ek	-10.9503
▁find	-10.9505
EPADCCAQoCggEBA	-10.9505
alk	-10.9505
hj	-10.9509
spac	-10.9511
xists	-10.9512
---------------+	-10.9513
IBAQB	-10.9513
DSA	-10.9515
VtM	-10.9516
kfS	-10.9518
BgkrJAMDAggBAQsw	-10.9522
▁proper	-10.9523
days	-10.9523
dDescrip	-10.9526
GROUP	-10.9526
Warning	-10.9526
999999999	-10.9526
Finished	-10.9526
HEIGHT	-10.9526
REALM	-10.9526
Telemedicine	-10.9526
AFTER	-10.9526
Document	-10.9526
▁3.3.2	-10.9526
▁Layer	-10.9526
▁behavio	-10.9526
▁mechanism	-10.9526
▁physi	-10.9526
▁reppeeMID	-10.9526
▁third	-10.9526
Designated	-10.9526
▁moment	-10.9526
▁nmemb	-10.9526
▁regard	-10.9526
%>')"><%=	-10.9526
ompany	-10.9526
July	-10.9526
Home	-10.9526
Segment	-10.9526
DQEJBw	-10.9526
▁alternative	-10.9526
▁configuration	-10.9526
tzoff	-10.9526
▁ageFirst	-10.9526
▁generation	-10.9527
AAAA	-10.9527
▁nothing	-10.9528
LabProcHCPAction	-10.9528
▁selection	-10.9529
\">"+	-10.9529
cfg	-10.9529
ManagementAction	-10.953
▁thread	-10.953
nF	-10.9531
▁readonly	-10.9531
▁bsearch	-10.9532
compareTo	-10.9532
▁OfficeVisit	-10.9532
-8")	-10.9534
▁words	-10.9534
SING	-10.9535
▁DB	-10.9535
▁become	-10.9535
▁350	-10.9536
)|(	-10.9536
▁identifi	-10.9538
▁upon	-10.9541
ational	-10.9543
dateOfBirthStr	-10.9543
quoted	-10.9544
▁500	-10.9549
IGRv	-10.9551
▁means	-10.9551
ih	-10.9552
escape	-10.9553
▁symbol	-10.9554
▁Successfully	-10.9555
endMonth	-10.9556
csrattr	-10.9557
Path	-10.956
Iw	-10.9561
bi	-10.9563
el	-10.9571
Arrays	-10.9571
jJ	-10.9582
simplereenroll	-10.9582
ODE	-10.9587
▁important	-10.959
XZ	-10.959
893/	-10.9591
subj	-10.9591
fZ	-10.9591
▁FIPS	-10.9592
="2"><	-10.9593
▁Any	-10.9594
startup	-10.9594
rl	-10.9595
▁away	-10.9602
▁digits	-10.9602
▁--	-10.9603
mW	-10.9607
▁offset	-10.9609
UpdatedDate	-10.9612
▁HealthRecords	-10.9621
May	-10.9621
*)&	-10.9627
128	-10.9628
Ww	-10.9632
ZE	-10.9634
getDrug	-10.9636
▁come	-10.964
spl	-10.9641
▁line	-10.9647
▁hint	-10.965
▁verifying	-10.9655
"\"	-10.9657
ai	-10.9659
XQ	-10.9661
Retrieve	-10.9661
▁places	-10.9663
HW	-10.9666
ntop	-10.9666
▁vf	-10.968
▁filtered	-10.9688
▁Init	-10.9691
xb	-10.9692
▁ready	-10.9696
kQ	-10.9696
yv	-10.9705
▁cpt	-10.9709
▁global	-10.9709
Bz	-10.9714
▁today	-10.9716
%2	-10.9717
▁icdcode	-10.9726
ob	-10.9736
wF	-10.9737
-9	-10.9744
="15	-10.9745
setTo	-10.9764
▁stop	-10.9772
▁personnelb	-10.9776
oca	-10.9778
▁external	-10.978
eq	-10.9782
allback	-10.9783
AdverseEvents	-10.9792
▁coming	-10.9795
rke	-10.9801
IT	-10.9804
socket	-10.9809
▁RiskChecker	-10.982
▁(4	-10.9821
enc	-10.9832
HN	-10.9834
▁LabProcedureDAO	-10.9841
▁{"6	-10.9842
▁"&	-10.9843
34	-10.9851
toupper	-10.9855
▁Appointments	-10.9855
▁float	-10.9859
per	-10.9865
▁{"4	-10.9867
*,	-10.9867
▁params	-10.987
tz	-10.9883
▁MessageBeans	-10.9892
▁Length	-10.9898
nD	-10.9905
▁8	-10.9907
te	-10.9909
TA	-10.9918
▁MD	-10.9932
){%>	-10.9934
ml	-10.9946
Fv	-10.9951
="5">	-10.9957
▁(1)	-10.9967
▁VisitFlag	-10.9976
Dr	-10.9979
UE	-10.9979
getDateOfDeath	-10.9985
ws	-10.9989
QT	-11.0006
Ha	-11.0011
JR	-11.0014
rK	-11.0029
▁real	-11.003
7",	-11.0037
▁personnelForm	-11.0038
as	-11.0041
IL	-11.0043
ka	-11.0051
addMedID	-11.0061
AP	-11.0076
903	-11.0084
EG	-11.0086
WV	-11.0093
node	-11.0113
signing	-11.0113
ju	-11.0119
vM	-11.0121
wGA	-11.0123
▁wh	-11.0129
▁du	-11.0135
▁chart	-11.0143
▁7)	-11.0148
lw	-11.0156
Log	-11.0163
dy	-11.0168
MC	-11.0177
▁Emails	-11.0189
Record	-11.0217
0\	-11.0218
event	-11.0228
▁LOINCbean	-11.0244
rd	-11.0255
▁(2)	-11.0274
StartDate	-11.0279
');	-11.0282
40	-11.0286
▁emails	-11.0288
pat	-11.0293
ByRole	-11.0314
RS	-11.0316
xv	-11.0316
staff	-11.0319
getParent	-11.0319
familyDAO	-11.0321
visitDate	-11.0323
Search	-11.0325
HCPVisitBean	-11.0327
ev	-11.0328
AllergyDAO	-11.0329
fullname	-11.033
support	-11.0331
ret	-11.0332
SecurityQA	-11.0333
open	-11.0334
SurveyBean	-11.0335
7+	-11.0335
pageContext	-11.0335
ou	-11.0336
Office	-11.0336
logic	-11.0338
does	-11.0342
TB	-11.0342
space	-11.0344
Vm	-11.0345
400	-11.0349
trust	-11.0349
var	-11.0351
Laboratory	-11.0353
icd	-11.0353
ext	-11.0359
zIG	-11.0373
act	-11.0376
▁label	-11.0377
sys	-11.0382
sender	-11.0382
HospitalsDAO	-11.0391
Result	-11.0399
Ub	-11.0413
witch	-11.0416
ni	-11.042
▁character	-11.0424
▁Some	-11.0427
FM	-11.043
mgctx	-11.0435
Xo	-11.0442
XP	-11.0449
De	-11.0454
▁outfile	-11.0458
▁vari	-11.0461
ossl	-11.0461
▁provid	-11.0463
▁strings	-11.0464
▁names	-11.0472
LCB	-11.0481
▁Mo	-11.0488
min	-11.0493
▁generat	-11.0502
flags	-11.0505
CAwEAAa	-11.0507
stum	-11.0508
Gj	-11.051
AwDgYDV	-11.0512
▁describ	-11.0516
▁MIN	-11.0516
bAQ	-11.0517
▁fill	-11.0518
jCCA	-11.0519
dD	-11.052
ical	-11.0522
BgOINw	-11.0524
▁give	-11.0525
OTkuMiBkYXRhBg	-11.0525
▁serial	-11.0526
ApproverMID	-11.0526
PRIVATE	-11.0526
earchUsersAction	-11.0526
treRadio	-11.0526
DiseaseMediator	-11.0526
IMMUNIZATION	-11.0526
LEVEL	-11.0526
September	-11.0526
fullcmc	-11.0526
msgParameter	-11.0526
▁3.3.1	-11.0526
▁Anchor	-11.0526
▁Windows	-11.0526
▁earlier	-11.0526
▁feature	-11.0526
▁mutual	-11.0526
VISIT	-11.0526
HtmlEncoder	-11.0526
bool	-11.0526
satRadio	-11.0526
▁approverMID	-11.0526
ability	-11.0526
4020-	-11.0526
▁communicate	-11.0526
4020/	-11.0526
privacy	-11.0526
probab	-11.0526
▁zone	-11.0526
TICA	-11.0526
▁something	-11.0526
YET	-11.0526
▁hack	-11.0526
somestring	-11.0526
CRI	-11.0526
LjIg	-11.0526
▁4.1.1	-11.0526
CreditCardNumber	-11.0526
▁secondMonth	-11.0526
cancel	-11.0527
▁agent	-11.0527
LabProcUAPAction	-11.0527
▁myEmail	-11.0527
YDiDcBMR	-11.0527
▁rendered	-11.0528
TAIN	-11.0528
srA	-11.053
pBX	-11.053
()==0){	-11.053
sequence	-11.0532
XZa	-11.0533
893\\	-11.0533
NOPOPPOP	-11.0534
LETE	-11.0534
Zp	-11.0534
localhost	-11.0535
UEAxM	-11.0536
FIX	-11.0536
TLSUID	-11.0536
endYear	-11.0537
"")+"	-11.0537
TCCAa	-11.0537
=\"%	-11.0537
kip	-11.0537
ICE	-11.0537
_200,	-11.0537
▁Tomcat	-11.0537
rtn	-11.0538
ECDSA	-11.0539
▁1.0	-11.0539
▁Medica	-11.054
sslversion	-11.054
DEF	-11.0541
DataAction	-11.0541
64"	-11.0541
Management	-11.0542
dXN	-11.0543
▁6.4	-11.0543
▁inline	-11.0543
▁personnelLoader	-11.0545
Dea	-11.0546
RiskDAO	-11.0547
QJ	-11.0547
()%>)</	-11.0548
▁refAction	-11.055
SEND	-11.0552
▁startY	-11.0553
startMonth	-11.0553
+",	-11.0554
representeeIndex	-11.0554
▁fly	-11.0556
▁mostVisits	-11.0558
▁stats	-11.0558
ONE	-11.0558
AGA	-11.0564
▁addedInfo	-11.0565
▁202	-11.0565
securityQuestion	-11.0565
FL	-11.0573
▁CMS	-11.0577
▁grandparents	-11.0578
labproc	-11.0579
▁arg	-11.058
JG	-11.0581
ize	-11.0584
editor	-11.0584
ru	-11.0585
viewedDate	-11.0589
HCPAddr	-11.0589
IGJ	-11.0591
hashCode	-11.0595
▁outbox	-11.0599
▁Identifier	-11.0599
nh	-11.0603
FF	-11.0603
▁modified	-11.0605
lj	-11.0609
jj	-11.0609
HL	-11.0611
representees	-11.0613
xxx	-11.0619
light	-11.0619
yjc	-11.062
▁yearsAgo	-11.062
▁25	-11.0626
ate	-11.063
QU	-11.0632
▁allocated	-11.064
▁Monitor	-11.0641
2=?,	-11.0641
1=?,	-11.0645
ware	-11.0645
hu	-11.0653
▁corrupt	-11.0654
getDeclaredHCP	-11.0655
Zy	-11.0655
▁fromEmail	-11.0656
▁ap	-11.0658
▁'\	-11.0659
▁ethnicity	-11.0662
▁getA	-11.067
11))	-11.0672
hQ	-11.0673
apt	-11.0676
▁OBJ	-11.0676
Kv	-11.0682
▁wbuf	-11.0683
▁arguments	-11.0684
XY	-11.0688
ual	-11.0699
fc	-11.07
▁orig	-11.0701
▁REQUEST	-11.0704
▁lbean	-11.0709
jN	-11.0719
(*(	-11.0721
Hospitals	-11.0721
Nl	-11.0723
ach	-11.0729
▁buffered	-11.0729
▁...)	-11.0729
▁fullname	-11.0734
▁Consultation	-11.0746
▁ReminderType	-11.0747
ji	-11.0752
▁Added	-11.077
dp	-11.078
Yj	-11.0791
tE	-11.0792
CCASIwDQYJKoZI	-11.08
509(	-11.0801
▁Updated	-11.0804
zu	-11.0804
▁delay	-11.0811
Qj	-11.0813
im	-11.0823
tC	-11.0825
▁12;	-11.0828
▁Representatives	-11.0833
RT	-11.0838
▁parents	-11.0839
Cq	-11.0847
▁VisitID	-11.0848
lpid	-11.0849
19	-11.085
▁{"2	-11.0857
ditPHR	-11.0858
YN	-11.0866
oose	-11.0871
lated	-11.0877
Br	-11.0879
▁obj	-11.0897
gc	-11.0898
SG	-11.0903
▁{"3	-11.0917
ocation	-11.0921
▁ovIDs	-11.0922
zJ	-11.0922
▁let	-11.0925
250	-11.0925
layers	-11.0933
dateFormat	-11.0951
pr	-11.0953
▁myRef	-11.0961
()%><	-11.0965
▁getHCP	-11.0969
GN	-11.0973
patientIndex	-11.0983
ecurityAnswer	-11.0983
rX	-11.0995
Cholesterol	-11.1
▁put	-11.1001
▁3)	-11.1003
▁Visits	-11.1005
fR	-11.1015
EIS	-11.1016
GVy	-11.1029
kg	-11.1029
Cv	-11.1047
ial	-11.1047
pq	-11.1052
EH	-11.1055
68	-11.1077
VJ	-11.1081
setTreatmentSat	-11.1088
NU	-11.1093
gaG	-11.1108
wZ	-11.1108
UN	-11.1115
With	-11.1134
062	-11.1135
NG	-11.1147
nz	-11.1154
▁gets	-11.1159
haa	-11.1182
▁rel	-11.1185
NS	-11.121
Pr	-11.1219
2"));	-11.1222
▁Not	-11.1242
LabProcedure	-11.1252
iD	-11.1261
XD	-11.1264
cG	-11.127
sumed	-11.1292
Referral	-11.1292
ENG	-11.1304
gZG	-11.1323
FI	-11.1324
200	-11.1327
con	-11.1351
appt	-11.136
count	-11.1415
)*	-11.1417
*/	-11.1422
correct	-11.1423
Xw	-11.1424
▁Error	-11.1428
config	-11.143
retrieve	-11.1432
FakeEmailDAO	-11.1434
ONLY	-11.1437
getIcZip	-11.1437
▁OK	-11.1438
ResetPassword	-11.144
security	-11.144
dosage	-11.144
instructions	-11.144
eg	-11.144
pv	-11.144
AdverseEventDAO	-11.144
Chronic	-11.144
orig	-11.1441
REQUEST	-11.1441
NDCodesDAO	-11.1442
temp	-11.1442
digit	-11.1442
emergencyPhone	-11.1443
duration	-11.1444
Init	-11.1445
convert	-11.1448
before	-11.1448
Object	-11.1448
change	-11.1448
empty	-11.1449
fail	-11.145
curve	-11.1452
where	-11.1454
ovDAO	-11.1459
kRT	-11.146
CMC	-11.1461
eckey	-11.1465
personnelb	-11.1469
▁Real	-11.1472
▁Null	-11.1472
diagn	-11.1482
none	-11.1486
cz	-11.1492
ht	-11.1496
Rq	-11.1509
uM	-11.1513
Rn	-11.1521
AY	-11.1522
YW	-11.1531
▁emergency	-11.1535
▁dis	-11.154
UU	-11.1542
slist	-11.1544
defined	-11.1555
VisitReminders	-11.1561
try	-11.1561
XH	-11.1562
wo	-11.1562
Records	-11.1562
▁(!"	-11.1569
MR	-11.157
▁Per	-11.1575
+7	-11.1575
getReportRequest	-11.1577
Cl	-11.1581
AjGCA	-11.1585
etry	-11.1597
27	-11.1599
AAMA	-11.1607
stance	-11.1608
MF	-11.1608
TW	-11.1608
▁numer	-11.1612
PL	-11.1613
▁specifie	-11.1621
QQD	-11.1621
YJKoZIhvcNAQkBFg	-11.1621
bZGD	-11.1622
▁invoke	-11.1625
App	-11.1626
nDA	-11.1626
GNh	-11.1627
gpl	-11.1627
lMR	-11.1627
▁3.6	-11.1629
▁3.3.3	-11.1631
TQW	-11.1631
nA	-11.1632
yZzE	-11.1633
▁install	-11.1636
▁Clean	-11.1636
▁high	-11.1637
Leav	-11.1637
LAST	-11.1637
▁medEntry	-11.1637
1883-	-11.1637
PURPOSE	-11.1637
▁modify	-11.1637
Continue	-11.1637
DIAGNOSIS	-11.1637
Female	-11.1637
IMPORTANT	-11.1637
JspException	-11.1637
Pneumo	-11.1637
RESPONSE	-11.1637
UNAUTHORIZED	-11.1637
▁3600	-11.1637
▁Constructor	-11.1637
▁HTNextField	-11.1637
▁Public	-11.1637
▁Technician	-11.1637
▁approval	-11.1637
▁debug	-11.1637
▁exceed	-11.1637
▁facility	-11.1637
▁secret	-11.1637
Submit	-11.1637
ADDRESS	-11.1637
MULT	-11.1637
▁'\\'	-11.1637
▁human	-11.1637
MIH	-11.1637
▁utility	-11.1637
▁Function	-11.1637
Accept	-11.1637
reportingFor	-11.1637
▁escaped	-11.1637
="40"	-11.1637
▁Whit	-11.1637
▁cholesterol	-11.1637
5273	-11.1637
▁representation	-11.1637
NDCodeListAction	-11.1638
IOException	-11.1639
901\\	-11.1639
▁room	-11.1639
OUR	-11.164
repDLHCP	-11.164
psy	-11.1642
='<%=	-11.1644
Approved	-11.1646
Notification	-11.1646
▁copied	-11.1648
UEC	-11.1648
wwD	-11.1648
FQ	-11.1648
Ja	-11.1649
Male	-11.165
ite	-11.1651
▁rejected	-11.1652
43	-11.1654
▁edited	-11.1656
▁One	-11.1659
▁completed	-11.166
▁processed	-11.166
nut	-11.1663
USER	-11.1663
▁incorrect	-11.1663
Ih	-11.1668
▁designed	-11.167
ditHealthHistory	-11.1671
records	-11.1672
▁strength	-11.1672
▁failureCount	-11.1673
127	-11.1679
resetPassword	-11.1679
▁verified	-11.1679
▁Disease	-11.168
:#	-11.168
cnN	-11.1683
▁waiting	-11.1687
MIID	-11.1689
requestID	-11.1694
getPersonnelID	-11.1694
ity	-11.1695
▁Store	-11.1696
▁source	-11.1696
▁toAddrs	-11.1696
▁icdCodes	-11.1706
po	-11.1707
ccc	-11.1715
Classification	-11.1716
HJ	-11.1719
="#	-11.1721
▁handled	-11.1721
▁bloodPressureD	-11.1721
▁relation	-11.1721
▁allergyDAO	-11.1722
getNumPatient	-11.1722
Fq	-11.1722
▁bloodPressureN	-11.1724
addEmpty	-11.1724
▁getDisease	-11.1725
HOL	-11.1725
▁indicated	-11.173
kZ	-11.1739
sew	-11.174
▁reg	-11.1741
Login	-11.1747
HE	-11.1753
KT	-11.1779
Hy	-11.1781
MS	-11.1783
low	-11.1783
▁mins	-11.1784
bM	-11.1787
NY	-11.179
▁Risk	-11.1793
Nu	-11.1796
VB	-11.1802
aY	-11.1805
approvedDate	-11.1805
)+"	-11.1808
▁levels	-11.1808
▁Ope	-11.1811
▁June	-11.1814
▁emailutil	-11.1814
▁cleanup	-11.1822
2.0	-11.1822
tH	-11.1829
ify	-11.1831
▁STA	-11.1834
▁dosage	-11.1838
STA	-11.1842
▁patientName	-11.1847
Ibn	-11.1854
▁instructions	-11.1857
▁HospitalsDAO	-11.1861
ffc	-11.1864
▁Reminders	-11.1868
/<%=	-11.187
lu	-11.1873
▁52	-11.1876
▁Number	-11.1879
▁Drug	-11.1891
▁receiver	-11.1895
requestedDate	-11.1908
▁group	-11.191
+=	-11.1912
searchFor	-11.1912
▁Car	-11.1915
revent	-11.1925
▁19	-11.1928
▁2008	-11.1931
xY	-11.1933
▁Events	-11.1937
GL	-11.194
Nb	-11.1941
PID	-11.1942
PatientValidator	-11.1948
▁my	-11.1958
▁app	-11.1962
▁lo	-11.1965
pZ	-11.1966
WN	-11.1985
81,	-11.1995
OX	-11.1999
)%></	-11.2017
▁4)	-11.2028
▁BloodType	-11.2032
dl	-11.2039
▁NDCode	-11.2054
▁Disabl	-11.2058
Ok	-11.206
We	-11.2075
DR	-11.2089
Ba	-11.2091
getMy	-11.2104
66	-11.2125
[20	-11.2138
mo	-11.2144
Lw	-11.2149
Security	-11.2151
▁Mon	-11.2154
/%	-11.2166
▁ct	-11.2166
bm	-11.2179
▁Fal	-11.2179
▁alt	-11.2182
897	-11.2191
art	-11.2195
▁Last	-11.2198
tus	-11.2256
DD	-11.226
2174	-11.2268
AL	-11.2274
Procedure	-11.2306
ise	-11.231
CI	-11.2313
IO	-11.2315
Rk	-11.2325
[4	-11.2349
prescriptions	-11.2351
nf	-11.236
ti	-11.2361
▁procs	-11.2361
50%	-11.2371
69	-11.2379
CP	-11.2385
▁setA	-11.2386
cm	-11.2397
07	-11.2418
Details	-11.2426
Ce	-11.2434
invalidate	-11.2435
ine	-11.2449
▁le	-11.246
▁limit	-11.2464
ending	-11.2485
gf	-11.2486
1005	-11.2488
=5>	-11.2494
Current	-11.2502
KZ	-11.2502
▁equals	-11.2503
▁{"1	-11.2509
Ob	-11.2517
02	-11.2526
);%>	-11.2527
▁Verifi	-11.2536
EF	-11.2538
▁setHCP	-11.2539
▁<%=(	-11.255
Filter	-11.2553
▁TOKEN	-11.2558
yg	-11.2559
ather	-11.256
over	-11.2567
Access	-11.2567
Risk	-11.2587
Bkb	-11.2595
attribute	-11.2596
isRepresenting	-11.2596
getType	-11.2596
DeclaredHCP	-11.2603
Info	-11.2605
Ix	-11.2605
zQ	-11.2621
▁6.	-11.2633
AQ	-11.2638
▁dataset	-11.2642
MessageI	-11.2654
rk	-11.2658
MySentMessages	-11.2673
▁40	-11.2677
cS	-11.2683
▁strnc	-11.2685
LOINCDAO	-11.2688
makeEmail	-11.2688
party	-11.2689
interactions	-11.2689
icZip	-11.2689
SurveyDAO	-11.2689
Ope	-11.269
icAddress	-11.269
June	-11.269
OBJ	-11.2691
Blood	-11.2692
doctor	-11.2693
▁13	-11.2693
secondDrug	-11.2696
firstDrug	-11.2696
wildcard	-11.2696
revoked	-11.2696
year	-11.2696
single	-11.2698
access	-11.2698
diagnoses	-11.2699
OVMedication	-11.2699
procedure	-11.27
Only	-11.27
identity	-11.2701
certificate	-11.2704
border	-11.2704
▁reasons	-11.2707
pass	-11.2709
▁histor	-11.2714
yO	-11.2716
Pu	-11.2751
isfaction	-11.2759
▁Attribute	-11.276
MonitoringList	-11.2763
▁represent	-11.2763
gre	-11.2764
Viewed	-11.2768
9/	-11.2773
On	-11.2774
▁Protocol	-11.2777
lbean	-11.2778
▁prototype	-11.278
▁argument	-11.2781
Assignment	-11.2784
AF	-11.2786
CU	-11.2788
getReferralsSent	-11.2817
MIIE	-11.2826
Color	-11.2834
BF	-11.2849
ton	-11.2857
clude	-11.2859
cipa	-11.2861
▁typ	-11.2865
▁follow	-11.2869
▁BE	-11.2875
▁visi	-11.2876
dentifier	-11.2876
Prin	-11.2881
▁Dur	-11.2882
nvoke	-11.2882
iewMyAppts	-11.2883
DRUG	-11.2887
SUPPORTED	-11.2887
EMAIL	-11.2887
SHORT	-11.2887
MEDIC	-11.2887
WIDTH	-11.2887
PASSWORD	-11.2887
SurveyResultsFor	-11.2887
module	-11.2887
HOSPITAL	-11.2887
addOrRemove	-11.2887
▁RECEIVED	-11.2887
▁Should	-11.2887
COMPLETED	-11.2887
DecryptKeyI	-11.2887
Haemo	-11.2887
INTERVAL	-11.2887
JspWriter	-11.2887
MONITORING	-11.2887
NotSpecified	-11.2887
VERIFICATION	-11.2887
collapse	-11.2887
▁Distribution	-11.2887
▁Java	-11.2887
▁Otherwise	-11.2887
▁collect	-11.2887
▁demographic	-11.2887
▁individual	-11.2887
▁kick	-11.2887
▁professional	-11.2887
6_116	-11.2887
December	-11.2887
setStreetAddress	-11.2887
▁EnvelopedData	-11.2887
▁OVDiagnosis	-11.2887
▁OVSurvey	-11.2887
▁ageInMs	-11.2887
▁descending	-11.2887
getRequestedDate	-11.2887
▁distribut	-11.2887
5751	-11.2887
▁intText	-11.2887
MEDICATION	-11.2887
▁ntoh	-11.2887
EVENT	-11.2887
▁Rule	-11.2887
▁combine	-11.2887
DESCRIPTION	-11.2887
▁totalCount	-11.2887
COMPRE	-11.2887
TopicalNotes	-11.2887
standard	-11.2887
4346	-11.2887
{1,30	-11.2887
5280	-11.2887
Formatted	-11.2887
SOCKET	-11.2887
▁account	-11.2887
▁channel	-11.2887
lt	-11.2887
Reply	-11.2887
="11">	-11.2887
UNTRUSTED	-11.2888
▁thisTitle	-11.2888
▁personnelCount	-11.2888
SIGNED	-11.2888
Save	-11.2888
▁letters	-11.2888
=-1;	-11.2888
▁hand	-11.2889
▁None	-11.2889
▁profile	-11.2889
whitespace	-11.2889
ue	-11.2889
xRQ	-11.2889
eSwg	-11.2889
▁move	-11.289
▁potential	-11.289
▁notifie	-11.289
_244	-11.289
afterLast	-11.2891
▁Tet	-11.2892
▁securityAnswer	-11.2892
IGhhdmUg	-11.2892
▁far	-11.2892
ecdh	-11.2893
▁messageFilter	-11.2893
▁getFamilyMember	-11.2893
icCity	-11.2893
dbe	-11.2893
icState	-11.2893
▁allHospitals	-11.2893
recv	-11.2893
validSession	-11.2894
AjF	-11.2894
▁diagnosisLoader	-11.2895
UgDQp	-11.2896
▁reps	-11.2896
▁patientCount	-11.2896
▁senderName	-11.2897
_245	-11.2897
="48"	-11.2897
ReturnFormLoader	-11.2898
ReportBeanLoader	-11.2898
removeDiagID	-11.2899
removeMedID	-11.2899
removeLabProcID	-11.2899
removeProcID	-11.2899
rfc	-11.2899
BAQEF	-11.29
startYear	-11.29
ZXN	-11.2901
▁drugInt	-11.2901
▁Sent	-11.2901
▁Build	-11.2902
▁encrypted	-11.2902
▁404	-11.2905
icName	-11.2905
IEkg	-11.2905
Reminders	-11.2906
▁item	-11.2908
▁proves	-11.2909
▁checkAdd	-11.291
Zd	-11.2912
que	-11.2912
getElement	-11.2912
ddedInfo	-11.2913
JhenksI	-11.2915
+1,	-11.2917
▁once	-11.2919
eCriticalSection	-11.292
icID	-11.292
()%>&	-11.2921
setIc	-11.2921
very	-11.2923
Bh	-11.2923
▁Parse	-11.2926
▁Application	-11.2928
▁patDAO	-11.2928
▁medList	-11.2929
▁Personal	-11.2929
GVhc	-11.2929
ration	-11.2931
removeId	-11.2931
86,	-11.2932
Appointments	-11.2932
11_	-11.2932
55,	-11.2933
NEW	-11.2936
29001	-11.2942
dateOfDeathStr	-11.2944
tcp	-11.2945
regex	-11.2946
▁Dip	-11.2951
CalendarAction	-11.2952
getFirstFound	-11.2953
▁causeOfDeath	-11.2954
▁cholesterolTri	-11.2954
▁cholesterolLDL	-11.2954
▁cholesterolHDL	-11.2954
▁pthread	-11.2955
getAge	-11.2955
▁adverseEventDAO	-11.2956
▁pfd	-11.2958
▁rtable	-11.296
SSLv	-11.2961
▁ReportRequests	-11.2965
pZG	-11.2967
ople	-11.297
Rl	-11.2975
getDateOfBirth	-11.2975
reporterName	-11.2979
▁Base	-11.2981
zB	-11.2983
▁surveyDAO	-11.2988
LastOVDateY	-11.2994
▁prototypes	-11.2995
CTION	-11.2997
Accesse	-11.3005
▁general	-11.3006
▁digit	-11.3006
▁chronic	-11.3008
▁myLHCP	-11.3008
▁vsnprintf	-11.3014
QA	-11.3018
DY	-11.3032
▁FOR	-11.3036
innerH	-11.3037
ky	-11.3039
elV	-11.3047
BP	-11.3048
2045	-11.3054
:<%=	-11.3059
▁setPhone	-11.3062
▁patientLoader	-11.3063
▁FamilyDAO	-11.3063
nread	-11.3067
="50	-11.3067
tK	-11.3067
sD	-11.3069
Vu	-11.3081
▁enrolled	-11.3088
▁icZip	-11.3089
▁icAddress	-11.3089
fu	-11.3091
▁makeEmail	-11.3097
','	-11.3099
surveyDate	-11.3099
VERS	-11.3101
bits	-11.3109
▁calculate	-11.3117
▁ResetPassword	-11.3118
YI	-11.3119
drugDAO	-11.3125
▁buflen	-11.3135
▁toSend	-11.3137
tic	-11.3138
▁commands	-11.3142
▁HCPVisitBean	-11.3144
▁AllergyDAO	-11.3144
▁Search	-11.3144
▁ext	-11.3151
Mc	-11.3154
\">"	-11.3158
patientid	-11.3159
▁AdverseEvent	-11.316
10)	-11.3172
zipCode	-11.3184
▁implicit	-11.3196
getLab	-11.3197
▁qop	-11.3199
ily	-11.3199
Mw	-11.3207
DJ	-11.3216
FO	-11.3221
▁Method	-11.3222
▁challenges	-11.3229
▁Ex	-11.3237
▁adding	-11.3243
currentCode	-11.3256
▁Fail	-11.3257
▁subs	-11.3257
▁segments	-11.3258
anu	-11.3259
=1;	-11.3266
▁strcmp	-11.3269
=10	-11.3271
▁End	-11.3272
▁medications	-11.328
vr	-11.3285
CW	-11.3297
uper	-11.3302
otalTransactions	-11.3325
ercentSat	-11.3327
▁hex	-11.3328
GT	-11.333
▁Fil	-11.335
▁dataList	-11.3354
▁2048	-11.3359
toFrom	-11.3379
HEA	-11.3381
fU	-11.3389
age	-11.3392
xtended	-11.3399
EA	-11.3416
::	-11.3431
ddImmunizationID	-11.3431
ki	-11.3437
▁14	-11.3444
▁sp	-11.3445
▁suit	-11.3452
};	-11.3465
me	-11.3467
▁'\0'	-11.3469
setZip	-11.3469
▁implemented	-11.3481
kt	-11.3483
▁interactions	-11.3483
addPatient	-11.3486
▁*/*	-11.3504
▁%>"><%=	-11.3507
JH	-11.3512
tableName	-11.3516
fully	-11.3519
▁2)	-11.3557
▁1))	-11.3571
YV	-11.3577
des	-11.3581
BI	-11.3584
Hc	-11.3594
▁representatives	-11.3597
gu	-11.3607
upper	-11.3616
ness	-11.3625
▁getOfficeVisit	-11.3633
tter	-11.3636
uY	-11.3655
▁Errors	-11.367
Bj	-11.3673
▁extend	-11.3677
▁button	-11.368
86	-11.3687
Total	-11.3695
1060	-11.37
74	-11.372
▁md	-11.3731
%>)</	-11.3734
▁opts	-11.3737
▁amode	-11.3737
gt	-11.3742
Uu	-11.375
nAQ	-11.3781
ge	-11.38
96	-11.3809
UF	-11.3813
▁u	-11.3827
lus	-11.3837
[3	-11.3862
ey	-11.3863
▁Subject	-11.3867
▁ptable	-11.3873
setAvg	-11.3894
userName	-11.3911
▁rr	-11.3927
ew	-11.3958
ApptType	-11.3959
▁DAY	-11.3995
▁Ma	-11.3996
PrescriptionRe	-11.4012
1"))	-11.4016
oop	-11.4016
▁variet	-11.4021
-------------	-11.4024
DLHCP	-11.4027
▁relative	-11.4036
istory	-11.4037
getAvg	-11.4055
[2	-11.4056
ELE	-11.4056
Disease	-11.4065
Me	-11.4079
▁15	-11.4081
url	-11.4085
▁members	-11.4087
▁head	-11.409
1024	-11.4102
GENERA	-11.4109
setHcp	-11.4109
Authorization	-11.4109
OQ	-11.411
system	-11.4113
CPTCodesDAO	-11.4115
classification	-11.4116
Recorded	-11.4116
FamilyDAO	-11.4118
ethnicity	-11.412
prime	-11.4122
good	-11.4122
main	-11.4122
allergy	-11.4122
accesses	-11.4124
compare	-11.4124
keep	-11.4124
corrupt	-11.4124
insert	-11.4125
clear	-11.4126
extensions	-11.4126
assign	-11.4127
gender	-11.4128
authenticate	-11.4128
structure	-11.4128
line	-11.4128
Create	-11.4128
enforce	-11.4129
boolean	-11.4129
map	-11.4134
xclass	-11.4134
what	-11.4137
<%@	-11.414
errno	-11.4144
-----+	-11.4148
hosp	-11.4149
but	-11.4155
filtered	-11.4157
period	-11.4166
strstr	-11.417
6/	-11.4199
NR	-11.4199
Confirm	-11.4232
▁Clients	-11.4234
▁reporter	-11.4238
usa	-11.4239
▁operat	-11.4239
WD	-11.4245
too	-11.4247
sB	-11.4252
chart	-11.4255
hZ	-11.4264
wbuf	-11.4276
▁90	-11.4277
▁handl	-11.4278
HV	-11.4283
9",	-11.4287
switch	-11.429
▁authenti	-11.4293
getNum	-11.4293
▁warn	-11.4296
ack	-11.4299
Complete	-11.4299
▁desire	-11.4299
stablish	-11.4301
getVisit	-11.4303
CPTCode	-11.4305
nveloped	-11.4306
VALUE	-11.4309
cyB	-11.4309
nymo	-11.431
stream	-11.4312
DNS	-11.4313
UECgw	-11.4314
aintain	-11.4314
gIBADB	-11.4314
hour	-11.4315
MQswCQYDVQQGEwJ	-11.4315
UECAw	-11.4315
▁alternat	-11.4315
HDL	-11.4315
▁"#00	-11.4315
Credit	-11.4315
valueRange	-11.4315
DDDDD	-11.4315
tempClass	-11.4315
▁Cisco	-11.4315
CategoryDataset	-11.4315
LIKE	-11.4315
PROTOCOL	-11.4315
Street	-11.4315
creditCardNumber	-11.4315
▁Hepatit	-11.4315
▁appear	-11.4315
▁component	-11.4315
▁diabetes	-11.4315
▁enough	-11.4315
▁ourselves	-11.4315
▁rules	-11.4315
▁scenario	-11.4315
▁symptoms	-11.4315
▁taking	-11.4315
DEMOGRAPHICS	-11.4315
Sanity	-11.4315
▁distinct	-11.4315
Declined	-11.4315
EmailHistory	-11.4315
▁communication	-11.4315
ALLOWED	-11.4315
cture	-11.4315
6460	-11.4316
▁proceed	-11.4316
fcntl	-11.4316
TotalCount	-11.4316
▁decoding	-11.4316
▁directory	-11.4316
▁newRef	-11.4316
chpw	-11.4316
Presc	-11.4316
Agent	-11.4316
YJKoZIhvcNAQk	-11.4316
▁icdLower	-11.4316
SIVE	-11.4316
ITEM	-11.4316
iscard	-11.4316
▁exact	-11.4316
▁anything	-11.4316
equent	-11.4316
medEnd	-11.4316
▁'/'	-11.4316
medStart	-11.4316
AAAAAA	-11.4317
intDrugsString	-11.4317
▁lowerICDCode	-11.4317
▁upperICDCode	-11.4317
▁embedd	-11.4317
▁assignment	-11.4317
COMMENTS	-11.4317
▁ovDiagnosisID	-11.4317
▁term	-11.4318
wgg	-11.4319
ReporterRole	-11.4319
▁cry	-11.432
▁maxHeight	-11.432
▁applies	-11.432
EaM	-11.432
ToOfficeVisit	-11.4322
ADDR	-11.4322
curYear	-11.4322
repMID	-11.4324
▁ovProcedureID	-11.4324
▁simpl	-11.4325
Needers	-11.4325
▁ignored	-11.4327
depth	-11.4328
NOMATCH	-11.4329
EditPHR	-11.4329
Rota	-11.433
getPrescriber	-11.433
▁dBean	-11.433
MIIBIjANBgkq	-11.433
AAOCAQ	-11.4331
Siblings	-11.4331
▁cURL	-11.4331
▁pneumo	-11.4332
▁frames	-11.4333
▁icdUpper	-11.4333
fwF	-11.4334
▁warningList	-11.4334
EEN	-11.4336
▁2989	-11.4337
▁2010	-11.4338
iTrustNav	-11.4339
▁getPrescription	-11.4339
▁newline	-11.4339
loc	-11.434
newalNeedsAction	-11.4343
Final	-11.4344
visitDateStr	-11.4346
wAw	-11.4347
rt	-11.4352
STATE	-11.4353
▁highlight	-11.4355
GYN	-11.4357
myPatient	-11.4358
altptr	-11.4359
UND	-11.4361
FamilyHistory	-11.4361
KQ	-11.4362
▁AUTHENTICAT	-11.4363
▁screen	-11.4363
▁though	-11.4363
▁tunnel	-11.4363
▁adults	-11.4363
▁requesterMID	-11.4363
▁heightCount	-11.4364
▁share	-11.4366
1060/	-11.4367
vK	-11.4368
WP	-11.4369
akes	-11.4369
▁attempted	-11.4371
wq	-11.4372
ass	-11.4372
Dn	-11.4372
▁entered	-11.4373
editPrescription	-11.4373
6402	-11.4374
SimpleEnroll	-11.4378
ANBgkq	-11.4386
km	-11.4388
pu	-11.4388
(?)	-11.4389
Fa	-11.4392
▁finished	-11.4394
▁visitFlags	-11.4394
▁lvl	-11.4394
▁death	-11.4394
▁icdDAO	-11.4395
▁filterList	-11.4399
entity	-11.44
▁org	-11.4404
Sender	-11.4404
sis	-11.4405
:<	-11.4405
vF	-11.4411
▁CPTCode	-11.4414
uriparser	-11.4415
idString	-11.4415
▁locale	-11.4415
patID	-11.4416
oK	-11.4418
LastOVDateM	-11.4419
▁prep	-11.4419
vZ	-11.4421
qW	-11.4425
▁Privacy	-11.4425
-----	-11.4433
▁Manage	-11.4434
TCCA	-11.4434
show	-11.4438
SP	-11.4447
SUR	-11.4447
▁Session	-11.4448
PersonnelCount	-11.4451
WQ	-11.4453
holesterol	-11.4456
▁August	-11.4457
▁Diabetes	-11.4457
▁threshold	-11.4457
▁Find	-11.4457
▁Found	-11.4457
▁(?,?	-11.4458
ReportAction	-11.446
▁location	-11.446
▁AccessDAO	-11.4462
getTotalC	-11.4462
Old	-11.4468
qL	-11.447
lastname	-11.4474
▁Consultations	-11.4476
haproxy	-11.4476
▁6.1	-11.4481
▁CERTIFICATE	-11.4481
XB	-11.4484
▁res	-11.4484
▁compl	-11.4486
qZ	-11.4486
[5	-11.4488
▁March	-11.4488
LastOVDateD	-11.4489
▁release	-11.4491
▁yearnum	-11.4492
89	-11.4493
▁allowing	-11.4494
512	-11.4496
AR	-11.4499
KN	-11.45
▁options	-11.4505
()==	-11.4508
▁255	-11.4515
pstr	-11.4518
MN	-11.4519
firstname	-11.4524
JN	-11.454
▁MIDs	-11.4542
ICDCodes	-11.4542
mZ	-11.4542
▁Medication	-11.4546
PatientCount	-11.455
▁AllergyBeans	-11.4553
▁Current	-11.4553
▁SurveyDAO	-11.4555
kM	-11.4557
▁classification	-11.4564
uj	-11.4575
="6"	-11.4576
oz	-11.4578
▁capab	-11.4583
▁ONLY	-11.4583
▁getIcZip	-11.4584
▁AdverseEventDAO	-11.4585
amp	-11.4585
▁42	-11.4587
▁occurs	-11.4596
▁CPTCodes	-11.4596
"+	-11.46
cat	-11.4601
Bw	-11.4601
chr	-11.4603
▁icd	-11.4614
wP	-11.4618
▁eckey	-11.4622
VE	-11.4639
Za	-11.4644
▁Certificates	-11.4648
▁ICDCodesDAO	-11.4648
getG	-11.4655
HA	-11.4656
LT	-11.4684
hint	-11.4684
KDQp	-11.4684
getC	-11.4692
"90696	-11.4694
wb	-11.4695
▁%>&	-11.4707
▁LoginFailure	-11.4707
eria	-11.4709
vertical	-11.4711
▁RandomPassword	-11.4712
▁getIcPhone	-11.4712
100%	-11.4722
eSB	-11.4722
IAN	-11.473
▁ne	-11.473
▁production	-11.4731
lv	-11.4734
899-1	-11.474
▁AF	-11.4743
▁isSmoker	-11.4743
▁Success	-11.4744
wU	-11.4758
Lv	-11.4796
▁48	-11.4802
Min	-11.4807
▁"0"	-11.4809
setPassword	-11.4821
yx	-11.4831
econdaryMID	-11.4836
▁transactions	-11.4843
▁Hospitals	-11.4858
exdata	-11.4865
▁64	-11.4867
Pe	-11.4877
Vk	-11.4878
▁Form	-11.4911
▁authorit	-11.4913
CCC	-11.4922
▁initialized	-11.4926
ond	-11.4927
▁Emergency	-11.4928
patientList	-11.4933
Yz	-11.4939
▁IS	-11.4939
▁Avg	-11.4969
ud	-11.4972
▁ano	-11.4979
▁hcps	-11.498
KsT	-11.4996
05,	-11.5
oL	-11.501
HI	-11.5011
Family	-11.5011
Ex	-11.5011
XO	-11.502
ddMedID	-11.5035
▁pi	-11.504
Th	-11.5044
cU	-11.5059
▁requestID	-11.5061
▁admin	-11.5069
▁amo	-11.5086
1005-	-11.5092
YM	-11.5096
▁mail	-11.5112
▁GOOD	-11.5118
▁Family	-11.5125
ame	-11.5132
PN	-11.5154
ZA	-11.5166
▁option	-11.5167
▁06	-11.5179
DiseaseRisks	-11.5182
Vl	-11.5193
▁TAs	-11.5201
cM	-11.5205
▁vi	-11.5208
▁}%>	-11.521
gA	-11.521
oe	-11.5215
()%>'>	-11.5251
pY	-11.5255
llocate	-11.53
Le	-11.5315
Cy	-11.534
92	-11.5345
▁officeVisit	-11.5367
uch	-11.5375
Count	-11.5376
vp	-11.5377
MI	-11.5403
IX	-11.5414
PHR	-11.5423
cJ	-11.5423
ES	-11.5427
AC	-11.5433
Percent	-11.5437
▁Interaction	-11.5446
DLHCPs	-11.5459
aGV	-11.5473
tx	-11.5484
▁SAN	-11.5491
▁responds	-11.5499
getR	-11.5511
▁AS	-11.5528
▁70	-11.5557
=4>	-11.5558
vf	-11.5566
%"	-11.5567
editM	-11.557
899-	-11.5601
oi	-11.5605
RY	-11.5607
DAQ	-11.5663
▁Provide	-11.5669
▁MI	-11.5696
▁Char	-11.5731
VER	-11.5732
La	-11.5732
bit	-11.5733
AwwG	-11.5734
sData	-11.5734
Appt	-11.5747
CUR	-11.5754
success	-11.5755
Comp	-11.5755
Change	-11.5759
%>&	-11.5763
Ko	-11.5763
2008	-11.5763
1234567890	-11.5772
relative	-11.5772
ApptDAO	-11.578
CERTIFICATE	-11.5782
March	-11.5782
yearnum	-11.5783
Monitor	-11.5784
adverseEvent	-11.5785
255	-11.5789
query	-11.579
medication	-11.579
transactionDAO	-11.5791
thisMonth	-11.5791
accepted	-11.5792
down	-11.5792
visitBean	-11.5794
validator	-11.5795
surveyBean	-11.5795
MUST	-11.5796
FOR	-11.5796
SHA	-11.5797
bogus	-11.5797
allow	-11.5799
Offset	-11.5802
function	-11.5805
Row	-11.5805
SQL	-11.5806
emailer	-11.5806
just	-11.5807
must	-11.581
Set	-11.5833
Qy	-11.5836
dU	-11.5836
+5	-11.5848
Reporter	-11.5848
▁10);	-11.5849
encoded	-11.5856
▁condition	-11.5872
tayTopLeft	-11.5872
▁icdCode	-11.5877
nB	-11.588
LabProceduresFor	-11.5881
lO	-11.5884
setPhone	-11.5891
▁authoriz	-11.5899
**)&	-11.5901
LOW	-11.5904
CPTCodes	-11.5908
OB	-11.5909
mergencyReport	-11.591
Ue	-11.5913
now	-11.5914
ODkwMTI	-11.5922
748/	-11.5924
come	-11.5926
AgMBAAGg	-11.5931
wYHKoZIzj	-11.5931
▁conflict	-11.5935
▁reflect	-11.5936
1()%><	-11.5938
slashes	-11.5946
95/	-11.5949
+"-"+	-11.5954
▁byte	-11.5955
▁giv	-11.5956
rovision	-11.5959
eter	-11.5963
KBgD	-11.5963
▁block	-11.5965
▁copie	-11.5965
ld	-11.5965
ZHNh	-11.5966
OTkuM	-11.5967
eKB	-11.5967
Link	-11.597
Ci	-11.5971
YJKyQDAwIIAQELM	-11.5971
▁Satisf	-11.5972
FamilyMember	-11.5973
▁configure	-11.5973
Ohj	-11.5977
▁medID	-11.5977
JKoZIhvcNAQkBFg	-11.5978
LabProcHCP	-11.5979
etween	-11.598
lock	-11.598
uppress	-11.598
wDAYDVQQLDAVFQ	-11.598
alculate	-11.5981
MRkwFwY	-11.5981
BCQc	-11.5982
BgOINwIx	-11.5982
ATTRIBUTE	-11.5982
LDL	-11.5982
29496	-11.5982
CLASS	-11.5982
checkbox	-11.5982
hosAssignManager	-11.5982
Delete	-11.5982
DiabetesRisks	-11.5982
RepresenterMID	-11.5982
medDos	-11.5982
medInst	-11.5982
▁arrive	-11.5982
▁personnelEditor	-11.5982
Algorithm	-11.5982
AssignedHos	-11.5982
CHECK	-11.5982
DISCOVER	-11.5982
February	-11.5982
Hispanic	-11.5982
MASTERCARD	-11.5982
Measles	-11.5982
NEEDERS	-11.5982
OTkuMSBkYXRh	-11.5982
RepresenteeMID	-11.5982
Representees	-11.5982
Varicella	-11.5982
arbitrary	-11.5982
bservation	-11.5982
diasBP	-11.5982
examMinutes	-11.5982
gluLvl	-11.5982
mediate	-11.5982
possibly	-11.5982
regorianCalendar	-11.5982
scrollTop	-11.5982
ynamic	-11.5982
▁Level	-11.5982
▁Look	-11.5982
▁Specification	-11.5982
▁administrative	-11.5982
▁attack	-11.5982
▁existence	-11.5982
▁front	-11.5982
▁initiate	-11.5982
▁insensitive	-11.5982
▁overflow	-11.5982
▁riskCheckers	-11.5982
▁separate	-11.5982
▁transferred	-11.5982
▁universal	-11.5982
"<%}%>><%=	-11.5982
+">"+	-11.5982
AMEX	-11.5982
PERSONNELID	-11.5982
RESTRICTED	-11.5982
Schedule	-11.5982
Vector	-11.5982
selectRep	-11.5982
▁WSA	-11.5982
▁discuss	-11.5982
▁ovOffsets	-11.5982
Zero	-11.5982
numCol	-11.5982
▁expAction	-11.5982
getApprovedDate	-11.5982
designateHCP	-11.5982
RFeGFt	-11.5982
VISA	-11.5982
▁examin	-11.5982
▁making	-11.5982
-',!;:()?	-11.5982
Cancer	-11.5982
intDescsString	-11.5982
5967	-11.5982
2818	-11.5982
▁PDB	-11.5982
2.993.8	-11.5982
consDetails	-11.5982
▁box	-11.5982
5929	-11.5982
srpdb	-11.5982
▁TransactionLog	-11.5982
CONTEXT	-11.5982
oadOVDiagnosisID	-11.5982
▁ASCII	-11.5982
DATA	-11.5982
MIME	-11.5982
Temp	-11.5982
waitingMinutes	-11.5982
▁Death	-11.5983
pkctx	-11.5983
▁haemofluTime	-11.5983
▁say	-11.5983
▁override	-11.5983
setIcPhone	-11.5983
▁Give	-11.5983
birth	-11.5983
altnames	-11.5983
RECORDS	-11.5983
scheduleAppt	-11.5983
▁GMT	-11.5983
hournum	-11.5983
▁automatically	-11.5983
▁libest	-11.5983
▁initialization	-11.5983
▁negotiated	-11.5984
having	-11.5984
KoZIzj	-11.5984
▁250.0	-11.5984
2617	-11.5984
phi	-11.5984
_401,	-11.5984
▁product	-11.5985
▁acceptable	-11.5985
SYMB	-11.5985
NTLM	-11.5985
▁extract	-11.5985
▁caclen	-11.5985
pBT	-11.5985
oadOVProcedureID	-11.5986
viewMessage	-11.5986
▁deal	-11.5987
wYW	-11.5987
treatmentSat	-11.5987
▁properly	-11.5987
▁definition	-11.5988
serverkeygen	-11.5988
▁adminID	-11.5988
alProfileLoader	-11.5988
▁ipstr	-11.5988
Rejected	-11.5988
▁fou	-11.5989
▁Factors	-11.5989
jR	-11.5989
YWI	-11.599
▁CERTIFICATES	-11.599
uff	-11.5991
Missing	-11.5991
editApptType	-11.5991
▁5)	-11.5991
sysBP	-11.5991
Fake	-11.5992
gDQoNCk	-11.5993
pbiB	-11.5993
DiagnosisID	-11.5993
Yg	-11.5993
Enveloped	-11.5993
▁referralLoader	-11.5993
▁Has	-11.5993
▁assi	-11.5994
refDetails	-11.5995
nique	-11.5995
xH	-11.5995
▁filled	-11.5996
PH	-11.5997
AIg	-11.5999
parents	-11.5999
HEN	-11.5999
KSSdtI	-11.6
ZXAg	-11.6
AMIIBCgKCAQEA	-11.6
▁Provided	-11.6
dev	-11.6
canned	-11.6
kW	-11.6003
▁examRoomMinutes	-11.6003
_400,	-11.6004
xld	-11.6004
AQEFBQADggEBA	-11.6007
cmV	-11.6007
saWV	-11.6007
QIDAQABo	-11.6007
gnu	-11.6007
▁intLink	-11.6007
▁declaredhcp	-11.601
IGZvciB	-11.601
kwE	-11.6011
▁1.2	-11.6012
OLIC	-11.6012
silver	-11.6013
zCCA	-11.6014
zaW	-11.6014
PER	-11.6014
owS	-11.6019
yen	-11.6019
▁asymmetric	-11.6024
YHKoZIzjgEA	-11.6025
yaW	-11.6025
CLA	-11.6027
byB	-11.6027
▁3.1	-11.6028
▁6.2	-11.6028
▁searched	-11.603
removed	-11.6032
minnum	-11.6033
DI	-11.6034
▁CreditCard	-11.6035
▁altlen	-11.6035
▁schedule	-11.6038
ache	-11.6038
▁Private	-11.6038
▁presence	-11.6039
▁DateUtil	-11.6039
Pop	-11.6039
▁bolded	-11.6039
▁linked	-11.6042
happ	-11.6043
▁mID	-11.6046
=\	-11.6047
.85	-11.6048
loginMessage	-11.605
▁satisfie	-11.6051
(""+	-11.6052
ePhone	-11.6054
897/	-11.6054
▁wa	-11.6063
▁tbuf	-11.6063
SM	-11.6066
Kx	-11.6068
YWxs	-11.607
addrinfo	-11.6072
▁3.5)	-11.6073
scan	-11.6074
▁reminders	-11.6074
Uj	-11.6074
▁Contact	-11.6076
kz	-11.6082
▁saction	-11.6089
statement	-11.6093
stayTopLeft	-11.6093
---------------	-11.6094
▁undeclare	-11.6094
▁seve	-11.6095
VR	-11.6097
▁VisitDate	-11.6098
IPAddress	-11.6099
▁Operation	-11.6103
▁transactionID	-11.6104
▁renew	-11.6105
AES	-11.6106
GluZyB	-11.6109
months	-11.6109
▁240	-11.611
▁LoginFailures	-11.6113
▁total	-11.6113
▁Localization	-11.6114
▁absolute	-11.6114
▁monthValue	-11.6117
▁Allow	-11.6117
▁ovdiagnosis	-11.6118
▁conversion	-11.6118
▁Cholesterol	-11.6122
▁808	-11.6122
▁beaner	-11.6125
Flu	-11.6126
VF	-11.613
bid	-11.6132
endDateStr	-11.6142
startDateStr	-11.6142
0}",	-11.6145
*****	-11.6148
▁October	-11.6151
nIG	-11.6152
▁Diseases	-11.6154
▁Protocols	-11.6155
codeCount	-11.6155
MRs	-11.6156
▁Go	-11.6166
▁MessageDAO	-11.6172
▁NDC	-11.6175
'0'	-11.6178
getHospitals	-11.6184
12))	-11.6187
▁hospitalName	-11.6188
▁ApptDAO	-11.6189
Child	-11.6191
midString	-11.6193
aGF	-11.6194
getEmergency	-11.6196
Drugs	-11.6201
▁reco	-11.6201
man	-11.6207
▁ovp	-11.622
Bu	-11.6222
▁ICDCodes	-11.6226
getCurrent	-11.6229
[\\	-11.6229
Wl	-11.6233
▁conf	-11.6237
kRTQ	-11.6237
21,	-11.6243
va	-11.6247
▁pat	-11.6247
▁loo	-11.6249
▁LOINCDAO	-11.6275
SentMessagesName	-11.6281
ql	-11.6283
QM	-11.6289
▁pe	-11.6289
▁RI	-11.6297
▁14,	-11.6298
▁party	-11.6299
▁FakeEmailDAO	-11.6304
▁NDCodesDAO	-11.6306
Asymmetric	-11.6307
CX	-11.6315
removeHCP	-11.6315
getAllMy	-11.6315
plus	-11.6318
▁Us	-11.6332
HCPSpecialty	-11.6338
▁wants	-11.6339
qz	-11.6341
kk	-11.6349
WI	-11.635
tl	-11.6351
()%>'	-11.6364
DA	-11.6372
▁k	-11.6374
PP	-11.6378
▁visitDate	-11.6386
getToList	-11.6386
addReport	-11.6406
SurveyDate	-11.641
xz	-11.6418
▁blob	-11.6419
bD	-11.6427
"90669	-11.6437
lBean	-11.6448
setVisit	-11.6457
▁%><%=	-11.646
jA	-11.6463
▁equal	-11.6473
RJ	-11.6474
▁201	-11.6476
ks	-11.6485
▁getPersonnel	-11.6488
YX	-11.6493
▁avg	-11.6521
--</	-11.6524
▁YEAR	-11.6537
Rp	-11.6543
▁getImmunization	-11.6543
▁Pending	-11.6548
"<%	-11.6562
▁There	-11.6569
VA	-11.6573
▁payload	-11.6576
▁codeList	-11.6581
())%>	-11.6586
RP	-11.6594
rgumentException	-11.6602
ATV	-11.6603
WR	-11.6604
PZ	-11.661
▁states	-11.6617
geW	-11.6624
YP	-11.6628
▁minors	-11.6649
ait	-11.6651
▁gp	-11.6653
sbCB	-11.6661
TP	-11.6662
iewVisitedHCPs	-11.6666
')[	-11.6667
▁Zip	-11.6679
yu	-11.6681
py	-11.6689
▁Allergies	-11.6696
▁Rights	-11.6696
▁calDay	-11.6698
▁Inf	-11.6717
readable	-11.6725
PRE	-11.673
▁getIc	-11.6733
Tk	-11.6755
AndS	-11.6759
strings	-11.6761
▁Sch	-11.6775
yd	-11.6778
crls	-11.6786
intDrug	-11.6788
band	-11.6809
▁Reports	-11.681
kv	-11.681
eclareHCP	-11.681
OL	-11.6819
sGA	-11.6856
Bl	-11.6874
▁URIs	-11.6875
▁Types	-11.6876
▁testList	-11.6879
:10	-11.688
SF	-11.6897
▁DLHCP	-11.69
Ux	-11.6907
▁mgctx	-11.6907
▁Diagnoses	-11.6921
yQ	-11.6935
MH	-11.6947
HH	-11.6961
▁declare	-11.6971
▁Encoding	-11.698
iewMyApptsAction	-11.6982
bT	-11.6984
▁setDate	-11.6993
Ql	-11.7008
Ak	-11.7012
inform	-11.7039
DOC	-11.706
zI	-11.7065
ADA	-11.7084
uJ	-11.7117
▁failures	-11.7121
kT	-11.7129
MHw	-11.7137
▁New	-11.7137
vH	-11.7139
▁31	-11.7145
FC	-11.7164
MessageDAO	-11.7172
QP	-11.7172
Ig	-11.7173
▁"123456789	-11.7178
AE	-11.7197
▁OPTIONAL	-11.7231
cial	-11.7235
DIA	-11.7238
Uw	-11.7253
wM	-11.7266
▁pro	-11.7295
▁wrap	-11.7303
▁ParseException	-11.7319
UB	-11.7331
▁Dis	-11.7373
894	-11.7407
1159	-11.7422
gR	-11.7441
Kr	-11.745
old	-11.7476
Yl	-11.748
IHlvdS	-11.7501
▁acc	-11.7503
Card	-11.7508
FFER	-11.7525
symmetric	-11.7549
Jw	-11.7549
eel	-11.7583
Viewing	-11.7589
*2+2	-11.759
ForLHCP	-11.76
ery	-11.7603
Vo	-11.7613
wf	-11.7614
Go	-11.7648
▁protect	-11.7654
Reminder	-11.7667
▁reuse	-11.7674
SurveyResult	-11.7677
▁produce	-11.7679
factor	-11.7679
location	-11.7692
layer	-11.7695
▁199	-11.7703
▁At	-11.7709
▁fall	-11.7722
Pro	-11.7725
▁(12	-11.7734
portRequestsFor	-11.7771
April	-11.7776
Found	-11.7776
propagate	-11.7777
October	-11.7779
threshold	-11.7782
August	-11.7782
Diabetes	-11.7782
Manage	-11.7782
Find	-11.7782
GC	-11.7782
(?,?	-11.7783
AccessDAO	-11.7784
chronic	-11.7784
myLHCP	-11.7784
yearsAgo	-11.7787
hospitalName	-11.7787
November	-11.7789
common	-11.779
NDC	-11.7791
wW	-11.7791
fmt	-11.7792
tbList	-11.7792
part	-11.7793
confirmPassword	-11.7793
notes	-11.7794
cipher	-11.7794
specified	-11.7795
pageTitle	-11.7795
FROM	-11.7796
today	-11.7799
through	-11.7799
conf	-11.78
ViewMyReport	-11.7802
output	-11.7807
row	-11.7823
CdX	-11.7824
bytes	-11.783
="1"	-11.7831
catch	-11.7836
optional	-11.7838
vsnprintf	-11.7838
Xk	-11.784
getAllRe	-11.7847
uC	-11.7847
getting	-11.785
Array	-11.7868
▁Assign	-11.7876
SL	-11.7877
visits	-11.7881
▁3.5	-11.7881
Fi	-11.7882
▁Thi	-11.7885
▁80	-11.7885
Checked	-11.7887
LQ	-11.7897
JBn	-11.7908
HistoryFactor	-11.7916
HistoryAction	-11.7918
ddDiagID	-11.7931
ddProcID	-11.7931
ddLabProcID	-11.7932
zC	-11.7933
▁help	-11.7936
hlV	-11.7937
Element	-11.794
RenewalNeeds	-11.7942
Bhb	-11.7948
▁inclusi	-11.7952
Ov	-11.7959
▁terminat	-11.7961
▁bind	-11.7962
GCWCGSAFlAwQCAg	-11.7964
Approve	-11.7965
▁expire	-11.7966
uB	-11.7969
CgYEA	-11.7969
YDiDcBM	-11.7969
mYI	-11.7971
AllLabProcedures	-11.7972
urn	-11.7973
unction	-11.7973
COD	-11.7973
SxT	-11.7973
Reject	-11.7974
wDQYJKoZI	-11.7975
Smoke	-11.7975
Receiv	-11.7976
▁roo	-11.7978
deco	-11.798
▁control	-11.798
Recent	-11.7981
monitor	-11.7982
sAgo	-11.7982
isValid	-11.7982
BLOOD	-11.7982
graph	-11.7982
TRIC	-11.7982
hcpHash	-11.7982
calendarEntry	-11.7982
ZIPCODE	-11.7982
(?,?,?,?,?,?	-11.7982
000000009	-11.7982
Pattern	-11.7982
▁transfer	-11.7982
AddressToString	-11.7982
CRYPT	-11.7982
ConnectionDriver	-11.7982
ootstrap	-11.7982
ATTEMPTS	-11.7982
Boolean	-11.7982
Compile	-11.7982
Digits	-11.7982
EXCEED	-11.7982
FIRST	-11.7982
Glucose	-11.7982
RESOLV	-11.7982
dential	-11.7982
dummy	-11.7982
incorporate	-11.7982
ounds	-11.7982
parentMsgId	-11.7982
▁251.0	-11.7982
▁65535	-11.7982
▁DISTINCT	-11.7982
▁Determine	-11.7982
▁Extension	-11.7982
▁Support	-11.7982
▁administer	-11.7982
▁circu	-11.7982
▁comparison	-11.7982
▁explict	-11.7982
▁iterate	-11.7982
▁mandatory	-11.7982
▁measurements	-11.7982
▁permission	-11.7982
▁preceded	-11.7982
▁repPIDString	-11.7982
▁scope	-11.7982
▁shot	-11.7982
▁situation	-11.7982
▁understand	-11.7982
"90645	-11.7982
AmericanIndian	-11.7982
UseCase	-11.7982
blank	-11.7982
strcspn	-11.7982
▁drugIt	-11.7982
▁explanat	-11.7982
▁mBeanTwo	-11.7982
▁variations	-11.7982
:5%">	-11.7982
:808	-11.7982
AfricanAmerican	-11.7982
▁repeat	-11.7982
▁secure	-11.7982
RecipientInfo	-11.7982
abloader	-11.7982
▁chtype	-11.7982
SURVEY	-11.7982
Policy	-11.7982
▁unassigned	-11.7982
extusage	-11.7982
TIME	-11.7982
Cancel	-11.7982
series	-11.7982
getProperty	-11.7982
▁retain	-11.7982
6125	-11.7982
FFFFFF	-11.7982
5958	-11.7982
Cause	-11.7982
EgTnd	-11.7982
▁docDAO	-11.7982
until	-11.7982
▁ipAddress	-11.7982
142.9999.2.1883.	-11.7982
▁doclist	-11.7982
▁lowercase	-11.7982
ietf	-11.7982
Birth	-11.7982
messagesSent	-11.7982
▁nowrap	-11.7982
calloc	-11.7982
visitReminderDAO	-11.7982
VERSION	-11.7983
refore	-11.7983
▁capabilities	-11.7983
NUMBER	-11.7983
▁9065	-11.7983
BgNVHQ	-11.7983
','<%=	-11.7983
▁protection	-11.7983
Media	-11.7983
0-9.\\	-11.7983
▁traces	-11.7983
▁step	-11.7983
▁hard	-11.7983
Doc	-11.7983
▁ViewVisitedHCPs	-11.7983
▁Syntax	-11.7984
=\""+	-11.7984
/7.2	-11.7984
▁heap	-11.7984
ADMIN	-11.7984
▁pure	-11.7984
▁Certification	-11.7984
▁commentary	-11.7984
AccessLogAction	-11.7985
Requester	-11.7985
life	-11.7985
uman	-11.7985
.690	-11.7985
ience	-11.7985
LOINCListAction	-11.7985
ECDHE	-11.7985
▁runtime	-11.7986
▁incomplete	-11.7986
▁hospitalsDAO	-11.7986
▁familyMembers	-11.7986
▁repDLHCPs	-11.7986
======+	-11.7986
▁confi	-11.7986
rBg	-11.7986
HOSTNAME	-11.7987
▁declareAction	-11.7987
UpdateLabProc	-11.7988
1060\\	-11.799
ately	-11.799
RiskAction	-11.799
▁receiverID	-11.7992
▁portion	-11.7992
QOP	-11.7993
▁soon	-11.7993
▁meaning	-11.7993
yDiagnosisAction	-11.7994
dlhcpIndex	-11.7994
▁asked	-11.7994
firstYear	-11.7995
TUV	-11.7995
2986	-11.7995
NOMEM	-11.7996
▁4.4	-11.7996
KI	-11.7997
repID	-11.7998
drive	-11.7999
DateModified	-11.7999
iAN	-11.7999
▁reach	-11.7999
Resource	-11.8
▁PersonnelLoader	-11.8
▁ignore	-11.8003
▁lDAO	-11.8003
PATIENTID	-11.8004
joy	-11.8004
▁drugCode	-11.8004
Pos	-11.8004
▁mlist	-11.8008
▁influenza	-11.8008
▁minimum	-11.8008
▁precondition	-11.8008
▁bmiThreshold	-11.8008
▁mBeanOne	-11.8008
QG	-11.8009
▁Setup	-11.8009
NumPatient	-11.801
▁startdate	-11.801
CMP	-11.8011
loggerfunc	-11.8011
▁setValue	-11.8011
▁enddate	-11.8011
IBMQ	-11.8012
▁senderID	-11.8014
▁emailBeanLoader	-11.8016
▁referralDAO	-11.8016
ZHh	-11.8017
SBi	-11.8017
TEXT	-11.8017
()+"-"+	-11.8018
VFILE	-11.8021
DpR	-11.8021
▁viewAction	-11.8021
▁inserted	-11.8022
GI	-11.8022
dWr	-11.8022
▁qualifies	-11.8022
wqE	-11.8028
Jk	-11.803
4210	-11.8032
pjj	-11.8034
MIICh	-11.8034
FamilyBeanLoader	-11.8036
Cp	-11.8037
Iterator	-11.8037
MBYG	-11.8039
▁(?,	-11.8046
▁spec	-11.8048
▁0.9	-11.8049
Main	-11.805
hcpZip	-11.8051
▁icdUpdater	-11.8053
▁mmHg	-11.8053
▁practice	-11.8053
▁Polio	-11.8053
▁hcpsHospitals	-11.8053
▁referralDetails	-11.8054
▁surveyCount	-11.8054
▁firstFound	-11.8054
▁aeLoader	-11.8055
▁doubleValue	-11.8055
▁apptDAO	-11.8056
▁lookup	-11.8058
▁transactionCode	-11.8064
firstVisit	-11.8065
ama	-11.8066
hcpSpecialty	-11.8067
currentColor	-11.8071
2174/	-11.8071
nSY	-11.8073
cptcode	-11.8075
Sept	-11.8077
▁bloodType	-11.8077
GG	-11.8078
Author	-11.8081
224	-11.8083
▁2000	-11.8084
▁Reminder	-11.8085
htm	-11.8088
lbs	-11.8094
getViewedDate	-11.8094
▁120	-11.8097
▁Corrupt	-11.8098
▁Secure	-11.8099
setVisitDate	-11.8099
▁4096	-11.8099
ViewReportAction	-11.8099
▁leap	-11.81
▁EthnicityFactor	-11.81
▁monthCount	-11.8101
▁IE	-11.8102
▁Currently	-11.8103
FR	-11.8105
ZO	-11.8107
badreq	-11.811
=3>	-11.811
hcpHospitalID	-11.811
▁recorded	-11.8115
Part	-11.8116
Other	-11.8117
▁binding	-11.812
▁conditions	-11.812
UP	-11.8121
▁rid	-11.8122
▁blocking	-11.8124
▁addrlen	-11.8125
aData	-11.8125
lval	-11.8127
atRisk	-11.8134
▁average	-11.8134
How	-11.8137
▁delimiters	-11.8138
Mj	-11.814
▁white	-11.8142
▁thisIdEvents	-11.8146
▁SEQUENCE	-11.8146
▁mdaynum	-11.8146
▁secnum	-11.8146
▁Host	-11.8146
▁crypto	-11.8146
▁monnum	-11.8146
▁SurveyResultDAO	-11.8146
▁bearer	-11.8146
getAppts	-11.8146
apptTypeDAO	-11.8147
▁Serializable	-11.8147
MZ	-11.8147
▁ReferralDAO	-11.815
▁35	-11.8164
vG	-11.8165
rder	-11.8166
Decode	-11.8168
▁ApptTypeDAO	-11.8182
22,	-11.8182
▁informati	-11.8185
loaded	-11.8186
▁3.2	-11.8187
▁April	-11.8193
Max	-11.8195
▁untrusted	-11.8196
getCon	-11.8207
▁propagate	-11.8208
Qq	-11.8216
sAtRisk	-11.8217
visitIDStr	-11.8226
HAS	-11.8226
UEAww	-11.8243
FX	-11.8244
▁HCPSpecialty	-11.8248
TJ	-11.8253
▁labProcedures	-11.8256
18))	-11.8256
▁OB	-11.8265
ZXZ	-11.8266
Menu	-11.8276
visitSat	-11.8276
▁Authorization	-11.8288
▁GENERA	-11.8288
▁CPTCodesDAO	-11.8289
ousl	-11.829
▁xclass	-11.8291
▁setHcp	-11.8291
Chart	-11.8297
fq	-11.8307
▁Recorded	-11.831
LHCP	-11.8311
Hz	-11.8324
▁DeclaredHCP	-11.8341
▁Info	-11.8344
lb	-11.8347
VV	-11.8348
9+	-11.8363
limited	-11.8364
Ht	-11.8365
DateAdded	-11.8366
*2+2)	-11.8391
1999	-11.8396
setStartDate	-11.8397
▁config	-11.8398
▁Bo	-11.8399
XI	-11.8402
yW	-11.8405
▁vr	-11.841
▁nor	-11.8413
onfirmAnswer	-11.8414
02,	-11.8415
apps	-11.8419
AG	-11.8422
ApptTypeDAO	-11.8428
▁Provider	-11.8429
ui	-11.843
▁getParent	-11.8432
▁staff	-11.8432
mon	-11.8437
YA	-11.8441
setEndDate	-11.8441
yX	-11.8444
▁reminder	-11.8446
▁familyDAO	-11.8449
logout	-11.8451
▁Changes	-11.8454
EK	-11.8458
ake	-11.8458
16))	-11.8469
+8	-11.847
▁loinc	-11.848
▁issues	-11.8481
▁increase	-11.8492
charts	-11.8497
offset	-11.8497
AM	-11.8501
MessageValidator	-11.8509
▁1000;	-11.8512
nrollment	-11.8522
▁Day	-11.8535
isfactionResults	-11.8535
▁0){	-11.8542
uz	-11.8548
nY	-11.8549
GK	-11.8597
KK	-11.8603
hUC	-11.8625
Wel	-11.8644
▁getR	-11.8648
estServer	-11.8655
424	-11.8656
ficeVisitLoader	-11.8657
PriorDiagnos	-11.8707
dup	-11.8741
+","	-11.8745
▁imp	-11.8751
MO	-11.8757
▁hi	-11.8781
Dk	-11.8807
▁getRole	-11.881
xm	-11.8817
ditOfficeVisit	-11.8818
').	-11.8838
visitid	-11.8861
ams	-11.8871
holesterolFactor	-11.8889
▁flags	-11.8891
ST	-11.8945
Nw	-11.9041
402	-11.9041
LR	-11.905
▁DO	-11.9053
jm	-11.907
MTC	-11.9091
LP	-11.9094
ENT	-11.9099
kI	-11.9115
▁manage	-11.9135
01234567890	-11.9142
RM	-11.9146
/>"	-11.9156
aCB	-11.9158
SI	-11.9237
lQ	-11.9252
VK	-11.9314
met	-11.9368
Reporting	-11.9383
▁Heart	-11.9391
ice	-11.9411
Jp	-11.9489
CQ	-11.9518
▁wro	-11.9541
Gp	-11.9581
tM	-11.9597
IGR	-11.96
rDiagnosisFactor	-11.9623
jW	-11.9633
Uv	-11.9672
EQ	-11.9678
zm	-11.9694
CG	-11.9716
YO	-11.9727
▁hel	-11.9764
DDI	-11.9778
ANA	-11.9804
ViewMy	-11.9806
Sk	-11.9816
SET	-11.982
PTCodeListAction	-11.9828
settings	-11.9855
PM	-11.987
click	-11.9881
llReportRequests	-11.9883
748	-11.9917
895	-11.9953
transaction	-11.9986
896	-11.9999
▁preserve	-12.0022
visit	-12.0029
ked	-12.0075
getMessagesFrom	-12.0102
(52	-12.0116
OG	-12.0169
resented	-12.018
ance	-12.0182
oper	-12.0191
escriptionAlerts	-12.0214
umps	-12.0219
dan	-12.0247
tur	-12.0255
white	-12.0276
SEQUENCE	-12.0276
bearer	-12.0276
mdaynum	-12.0276
thisIdEvents	-12.0276
Host	-12.0276
crypto	-12.0276
secnum	-12.0276
require	-12.0277
monnum	-12.0277
SurveyResultDAO	-12.0278
eral	-12.0278
ReferralDAO	-12.0279
Serializable	-12.0279
Localization	-12.028
officeVisit	-12.028
absolute	-12.028
conversion	-12.0281
monthValue	-12.0281
Allow	-12.0281
total	-12.0282
Privacy	-12.0282
Operation	-12.0283
ovdiagnosis	-12.0285
bloodPressureD	-12.0286
bloodPressureN	-12.0286
relation	-12.0286
setNum	-12.0286
direct	-12.0286
arguments	-12.0287
outbox	-12.0287
modified	-12.0287
Check	-12.0287
surveyDAO	-12.0288
FIPS	-12.0288
allergyDAO	-12.0288
Transport	-12.0288
\"\	-12.0289
reporterMID	-12.0289
reporterRole	-12.0289
level	-12.029
normal	-12.029
short	-12.029
timeLogged	-12.0291
remote	-12.0291
Hashtable	-12.0291
Authentication	-12.0292
disease	-12.0292
performerID	-12.0292
Illegal	-12.0293
untrusted	-12.0293
Cert	-12.0293
minutes	-12.0293
some	-12.0293
timestamp	-12.0294
purpose	-12.0294
solid	-12.0294
final	-12.0295
default	-12.0296
expect	-12.0297
designated	-12.0298
Identifier	-12.0298
wait	-12.03
perform	-12.0308
fromEmail	-12.0313
DWO	-12.0314
Base	-12.0315
reported	-12.0316
more	-12.0322
order	-12.0333
matched	-12.0338
enrollment	-12.0346
FirstFound	-12.0348
▁/><%	-12.0354
▁Standard	-12.0368
":""	-12.0368
▁satisf	-12.037
getDisease	-12.037
Year	-12.0371
================	-12.0373
ARG	-12.0375
rCP	-12.0377
api	-12.0377
▁numPatient	-12.0378
conflicts	-12.0379
simp	-12.0379
▁service	-12.0379
▁succes	-12.038
lLCB	-12.0399
dsa	-12.0399
scape	-12.04
EXT	-12.0411
qD	-12.0412
▁uriparse	-12.0412
▁tri	-12.0417
bad	-12.0418
oYW	-12.0421
Addr	-12.0422
Rhb	-12.0426
▁dhcp	-12.0427
Mf	-12.0431
LIC	-12.0435
strict	-12.0439
▁percent	-12.0442
terator	-12.0448
Appts	-12.0456
egex	-12.0457
LabProc	-12.0461
MRkwFwYDVQQDExBl	-12.0463
DQEJ	-12.0465
▁cache	-12.0467
▁bloodPressure	-12.0467
ntries	-12.0468
scale	-12.0468
ogus	-12.047
Dhc	-12.0471
▁smok	-12.0471
▁differen	-12.0471
OfDa	-12.0472
▁origin	-12.0472
ULL	-12.0472
▁suppl	-12.0474
▁Class	-12.0474
iewMyRecords	-12.0475
hvcNAQEBBQAD	-12.0476
aGUg	-12.0476
BhbGwg	-12.0477
WNlLCB	-12.0477
aGlzIH	-12.0477
lkIEkg	-12.0477
nJvbSB	-12.0477
pdC	-12.0477
JAoGBA	-12.0478
oAAw	-12.0478
▁lastOVDate	-12.0478
Person	-12.0478
OVProcedure	-12.0479
▁secondary	-12.0479
BQADgYEA	-12.048
DQYJKoZIhvcNAQEF	-12.048
hisTitle	-12.048
mMv	-12.048
WITH	-12.048
ifferent	-12.0481
ALLOC	-12.0481
▁FakeEmail	-12.0481
urrentLocale	-12.0481
▁(?,?,?	-12.0481
IHRv	-12.0481
Random	-12.0482
ecause	-12.0482
▁except	-12.0482
=900000000	-12.0482
PRESSURE	-12.0482
DatasetProduce	-12.0482
HeartDisease	-12.0482
sample	-12.0482
window	-12.0482
WEEK	-12.0482
800-57	-12.0482
American	-12.0482
DEPTH	-12.0482
Maximum	-12.0482
CURRENT	-12.0482
getRemote	-12.0482
SmokingFactor	-12.0482
UserNameAction	-12.0482
▁simulat	-12.0482
OfficeVist	-12.0482
Refer	-12.0482
measles	-12.0482
nnnn	-12.0482
▁Field	-12.0482
▁testHep	-12.0482
"90649	-12.0482
"90681	-12.0482
"90712	-12.0482
){0,1}	-12.0482
BBM	-12.0482
BUNDLE	-12.0482
CALLBACK	-12.0482
DIAGNOSED	-12.0482
Encryption	-12.0482
ExampleBoundary	-12.0482
IGZlZXQ	-12.0482
MINUTE	-12.0482
PROTO	-12.0482
Precondition	-12.0482
PresImmu	-12.0482
SYSCALL	-12.0482
ToolTipGenerator	-12.0482
affected	-12.0482
aptParameter	-12.0482
arbitraryLabel	-12.0482
arkins	-12.0482
erialNumber	-12.0482
firstDoseTime	-12.0482
icious	-12.0482
lastWeekOfMonth	-12.0482
messenger	-12.0482
phrase	-12.0482
recognize	-12.0482
september	-12.0482
subjectAltName	-12.0482
tegrity	-12.0482
varicella	-12.0482
zYW	-12.0482
▁GENERATION	-12.0482
▁Global	-12.0482
▁GlobalVariables	-12.0482
▁Indicate	-12.0482
▁LAYER	-12.0482
▁PIHI	-12.0482
▁Service	-12.0482
▁Specify	-12.0482
▁TODO	-12.0482
▁altered	-12.0482
▁bail	-12.0482
▁browser	-12.0482
▁december	-12.0482
▁employee	-12.0482
▁firstDayOfMonth	-12.0482
▁fixed	-12.0482
▁identical	-12.0482
▁improve	-12.0482
▁lastDayOfMonth	-12.0482
▁manufacturer	-12.0482
▁persiste	-12.0482
▁resolve	-12.0482
▁weekDays	-12.0482
5785	-12.0482
AddERespAction	-12.0482
HANDLE	-12.0482
Optional	-12.0482
ParameterUtil	-12.0482
REMINDERS	-12.0482
Repudiation	-12.0482
addIntDesc	-12.0482
bobcat	-12.0482
darkred	-12.0482
diptet	-12.0482
jimbob	-12.0482
medMatch	-12.0482
mixed	-12.0482
oogle	-12.0482
sendMail	-12.0482
wdaynum	-12.0482
▁"2.999.	-12.0482
▁Regist	-12.0482
▁bound	-12.0482
▁entire	-12.0482
▁happen	-12.0482
▁multi	-12.0482
Comparator	-12.0482
EditOff	-12.0482
SSED	-12.0482
ckeditor	-12.0482
getSQLdateX	-12.0482
getUserFrame	-12.0482
numberFormatter	-12.0482
schedDate	-12.0482
showMine	-12.0482
▁Arial	-12.0482
▁black	-12.0482
▁compile	-12.0482
▁numalts	-12.0482
▁qua	-12.0482
▁sched	-12.0482
DeclareHCPAction	-12.0482
Shot	-12.0482
Triglycerides	-12.0482
patientHash	-12.0482
▁Papilloma	-12.0482
Asian	-12.0482
PRINT	-12.0482
memmove	-12.0482
strncasecmp	-12.0482
▁AddHCPAction	-12.0482
▁abbreviat	-12.0482
▁ndcDAO	-12.0482
Children	-12.0482
hcNMT	-12.0482
▁Identity	-12.0482
▁dbTable	-12.0482
Button	-12.0482
PEER	-12.0482
getColumn	-12.0482
▁Rube	-12.0482
"90371	-12.0482
▁4.4.1.	-12.0482
primar	-12.0482
▁Profile	-12.0482
tuation	-12.0482
'\"?!:;\\-.	-12.0482
2985	-12.0482
▁HLbean	-12.0482
{1,50	-12.0482
▁EditPHRAction	-12.0482
▁bug	-12.0482
▁DatasetProducer	-12.0482
▁poll	-12.0482
▁origYear	-12.0482
Header	-12.0482
▁Sub	-12.0482
getMet	-12.0482
▁6.6)	-12.0482
▁4.5)	-12.0482
{5}	-12.0482
▁ATTRIBUTES	-12.0482
▁everything	-12.0482
setRequestedDate	-12.0482
▁leak	-12.0482
itsThere	-12.0482
▁suffixlen	-12.0482
▁grant	-12.0482
▁consideration	-12.0482
InfectionFactor	-12.0482
WRpbicNCkFuZCBJJ	-12.0482
▁3.7.	-12.0482
ncrement	-12.0482
▁ChronicDisease	-12.0483
▁quotechar	-12.0483
▁Prio	-12.0483
▁bbt	-12.0483
▁STD	-12.0483
repDLHCPIndex	-12.0483
("::")	-12.0483
slnum	-12.0483
▁auto	-12.0483
5652	-12.0483
strspn	-12.0483
▁subclass	-12.0483
setIcZip	-12.0483
▁MailValidator	-12.0483
▁toRet	-12.0483
ecimal	-12.0483
▁4.2.3	-12.0483
hepB	-12.0483
ANCE	-12.0483
getMessagesName	-12.0483
▁ostring	-12.0483
5246	-12.0483
urgeon	-12.0483
▁cancer	-12.0483
setIcAddress	-12.0483
▁renewal	-12.0483
BkYXRh	-12.0483
▁myMap	-12.0483
▁offer	-12.0483
plain	-12.0484
▁performance	-12.0484
cept	-12.0484
▁big	-12.0484
700000000	-12.0484
▁installation	-12.0484
ceVisit	-12.0484
▁hcpHospitals	-12.0484
/1.2	-12.0484
_202,	-12.0484
▁writeMethod	-12.0484
Week	-12.0484
Gv	-12.0484
ZXQg	-12.0484
{1}	-12.0484
.680	-12.0485
invHeight	-12.0485
▁3.6.2	-12.0485
▁tableRS	-12.0485
▁remain	-12.0485
Usage	-12.0485
ffee	-12.0485
▁':'	-12.0485
376	-12.0485
unlock	-12.0485
labprocDAO	-12.0485
▁walk	-12.0485
4648	-12.0486
DQEB	-12.0486
▁fact	-12.0486
lang	-12.0486
▁Authorit	-12.0486
▁fine	-12.0487
SearchValidator	-12.0487
5054	-12.0487
ZWFoLCB	-12.0488
hbmQg	-12.0488
▁retPatients	-12.0488
:100%;	-12.0488
IGCWCGSAFlAwQCAg	-12.0488
▁adv	-12.0488
▁implicitly	-12.0488
▁hcpAddress	-12.0488
7030	-12.0489
gdGhlIG	-12.0489
▁abList	-12.0489
hasRiskFactor	-12.0489
▁surveyResultDAO	-12.0489
TML	-12.049
▁dateRecorded	-12.049
▁listLabProc	-12.049
▁1900	-12.0491
ReporterID	-12.0491
▁Can	-12.0491
▁StringBuffer	-12.0491
80)	-12.0491
soft	-12.0491
hostcheck	-12.0491
▁alert	-12.0492
▁confirmAnswer	-12.0493
AjE	-12.0493
OTkuMi	-12.0493
ANCkknbSBzdG	-12.0493
▁stamp	-12.0493
ndP	-12.0493
pbmcg	-12.0493
▁sat	-12.0493
2174\\	-12.0494
897\\	-12.0494
MANY	-12.0494
▁timeAdded	-12.0495
▁renewed	-12.0495
▁notice	-12.0495
▁UriPa	-12.0495
kop	-12.0495
CITY	-12.0495
wDQ	-12.0496
▁specification	-12.0496
AQU	-12.0496
▁implementation	-12.0496
▁upperDate	-12.0496
▁highlighted	-12.0497
tempkop	-12.0497
tempscale	-12.0497
▁descs	-12.0498
▁'.')	-12.0499
eSANCk	-12.0499
IHRo	-12.0499
JhenkgDQp	-12.0499
aCwg	-12.0499
IHJpZ	-12.0499
nVuIH	-12.0499
▁redirection	-12.0499
▁999	-12.0499
showOther	-12.0499
▁bar	-12.05
▁Statistic	-12.05
▁fit	-12.0501
AAAD	-12.0501
lXN	-12.0501
extCA	-12.0502
addRow	-12.0503
IGdv	-12.0503
▁LOINCCode	-12.0504
IHRoaXMg	-12.0504
JvdW	-12.0504
dyZSB	-12.0504
BoYX	-12.0504
RFe	-12.0504
Encode	-12.0505
setHCPaddress	-12.0505
▁hospitalDAO	-12.0506
unday	-12.0508
PCq	-12.0508
Bjg	-12.0508
▁LOINCLoader	-12.0509
▁SurveyAction	-12.0509
ized	-12.0509
UriA	-12.0509
getHCPaddress	-12.0509
BgOINwExX	-12.051
▁undeclared	-12.051
tempsystem	-12.0511
storage	-12.0511
gSSdtIG	-12.0511
xpress	-12.0511
▁2015	-12.0513
(?:	-12.0514
BJIGh	-12.0515
YSBwYXk	-12.0515
aGVyZSB	-12.0515
aWRlIH	-12.0515
▁haemoflu	-12.0516
▁AddApptAction	-12.0516
▁Bearer	-12.0516
▁EMailValidator	-12.0516
▁loggedInRole	-12.0516
▁4.2	-12.0517
▁adEventDAO	-12.0517
▁secondaryRole	-12.0518
▁uaps	-12.0519
▁devi	-12.052
bble	-12.0521
AAwDQYJKoZIhvcN	-12.0521
WtlIG	-12.0521
YSB	-12.0521
neN	-12.0521
VBASE	-12.0521
▁Prescriber	-12.0521
FJ	-12.0521
▁2014	-12.0522
DataBeanLoader	-12.0522
▁Childhood	-12.0523
setPrescriber	-12.0523
▁wid	-12.0524
restrict	-12.0525
onday	-12.0525
ZSANCk	-12.0526
gYmxh	-12.0526
▁worked	-12.0527
▁searchAction	-12.0528
kgb	-12.0532
oLCB	-12.0532
▁2)))	-12.0532
Mass	-12.0533
▁colon	-12.0534
medIDindex	-12.0534
▁dateOfDeath	-12.0535
lYW	-12.0536
cell	-12.0536
tempcomp	-12.0537
APB	-12.0538
▁emailDAO	-12.0538
dots	-12.054
▁ovlist	-12.054
AIL	-12.054
▁monthName	-12.0541
dGN	-12.0543
backslashes	-12.0543
ewL	-12.0543
▁finding	-12.0544
tempDuration	-12.0545
▁0)?"	-12.0548
▁addLabProcID	-12.0548
▁addDiagID	-12.0548
▁addProcID	-12.0548
atch	-12.055
_102	-12.055
▁conform	-12.0551
▁2012	-12.0552
ZGV	-12.0553
aGUgc	-12.0554
JQY	-12.0554
OfB	-12.0559
CBK	-12.0559
Yes	-12.0561
OSE	-12.0562
▁Hex	-12.0563
/2008	-12.0564
DAYS	-12.0566
▁adEvents	-12.0567
▁rAction	-12.0572
▁Reported	-12.0575
▁diseaseMediator	-12.0575
▁WeightFactor	-12.0575
▁HttpSession	-12.0575
▁topicalNotes	-12.0575
▁AgeFactor	-12.0575
▁POLL	-12.0576
▁fullName	-12.0576
▁userRolesString	-12.0576
▁+==============	-12.0577
▁JS	-12.0577
▁Additional	-12.0577
▁hid	-12.0578
cptDAO	-12.0578
KF	-12.0578
▁fatherMID	-12.0578
▁motherMID	-12.0578
curMonth	-12.0582
▁validateP	-12.0585
▁authorize	-12.0585
NTA	-12.0585
▁4.1	-12.0585
gXt	-12.0586
wK	-12.0593
setViewed	-12.0593
▁connecting	-12.0593
▁dhcps	-12.0598
▁Standards	-12.0598
▁numPatients	-12.06
manager	-12.06
opertyDescriptor	-12.0601
ral	-12.0606
▁mal	-12.0607
Qm	-12.0608
▁submitt	-12.061
▁procedureID	-12.0618
orR	-12.0621
▁startX	-12.0622
▁operate	-12.0623
17))	-12.0623
▁personnelID	-12.0626
mVl	-12.0626
▁getDiagnose	-12.0626
tok	-12.0629
Net	-12.0629
updated	-12.0636
▁creditCardType	-12.0637
▁setParent	-12.0637
▁Category	-12.0637
▁myParams	-12.0637
▁Internet	-12.0637
▁stated	-12.0642
08,	-12.0643
▁emergencyName	-12.0643
▁setOv	-12.0647
":"")	-12.0658
▁consisten	-12.0659
▁resultList	-12.066
1234567890123456	-12.0664
**	-12.067
BH	-12.0679
▁diagnos	-12.0681
▁redu	-12.0681
Qt	-12.0681
130	-12.0684
WORD	-12.0688
BER	-12.0689
RtV	-12.0691
Represent	-12.0693
tempmethod	-12.0698
Km	-12.0703
Uq	-12.0703
jVR	-12.0709
getReporter	-12.0712
29901	-12.0712
hIG	-12.0713
dll	-12.0715
jO	-12.0716
commendation	-12.0717
wR	-12.0719
Top	-12.0723
QYHKwYBAQEBFg	-12.0731
JX	-12.0731
NQ	-12.0739
But	-12.0741
temptime	-12.0745
Rz	-12.0753
▁(5)	-12.0755
zP	-12.0757
ZXIgZ	-12.076
3=?,	-12.0764
hospDAO	-12.0769
ovOff	-12.0773
AddedDate	-12.0774
▁Hyperte	-12.0784
▁establishe	-12.0784
nsionFactor	-12.0785
setCon	-12.0786
dir	-12.0793
mO	-12.0798
uen	-12.08
▁xi	-12.0804
onen	-12.0806
Hv	-12.0815
LF	-12.0831
eight	-12.0839
DAL	-12.0845
yq	-12.085
formatter	-12.0859
wz	-12.0869
tex	-12.087
MessagesFromName	-12.0878
Assigned	-12.088
eSANC	-12.089
ork	-12.0892
▁ask	-12.09
Mb	-12.0913
:"")	-12.0913
▁3.2.3)	-12.0927
II	-12.0935
EJ	-12.0945
ota	-12.0981
Wu	-12.0992
CBvb	-12.1004
RESE	-12.1018
gK	-12.1024
▁delegate	-12.1025
filterName	-12.1029
connected	-12.1058
UI	-12.1093
901	-12.1108
="9"	-12.1114
NOTES	-12.1117
FY	-12.1126
ZlI	-12.1191
atLoader	-12.1211
0000	-12.1251
3.0	-12.127
▁Generat	-12.1295
refID	-12.1324
setHeight	-12.1327
oval	-12.135
relativeString	-12.1368
EAC	-12.1378
rrString	-12.1401
Zl	-12.146
allPrescriptions	-12.1465
▁","	-12.1467
ovDate	-12.1492
="1">	-12.1618
methodName	-12.1662
lIG	-12.1683
setVisitSat	-12.1686
SBza	-12.1687
tRoles	-12.1695
▁VisitReminders	-12.1727
ENUM	-12.179
keygen	-12.1846
▁Da	-12.1899
YXQg	-12.1925
Fj	-12.1944
ZCB	-12.2015
oomMinutes	-12.2071
vgWaitingR	-12.2073
portAdverseEvent	-12.2101
("%")	-12.2109
nes	-12.2115
OfDeathStr	-12.216
ENC	-12.2188
Avg	-12.2194
Proof	-12.224
▁expe	-12.225
gEB	-12.2354
ddU	-12.2371
llergyBeanLoader	-12.2506
Pq	-12.2533
▁designat	-12.2606
TED	-12.2626
HB	-12.2676
ReportRequests	-12.2733
Del	-12.2734
Qk	-12.275
itu	-12.2782
AwE	-12.2797
SEC	-12.2803
XJlIG	-12.2886
qM	-12.2886
Write	-12.2887
kL	-12.2947
▁Begin	-12.2951
▁Gener	-12.3032
setLastOVDate	-12.3073
▁ran	-12.3085
getSurveyDat	-12.3142
{0,	-12.3146
▁getProcedure	-12.3195
▁certific	-12.3228
1864	-12.3289
RIS	-12.3293
3512	-12.331
General	-12.3317
VisitDate	-12.3323
ku	-12.3335
>')	-12.3357
AtRisk	-12.3365
▁assum	-12.3372
aware	-12.3379
EAR	-12.3392
***************	-12.3394
▁Remote	-12.3447
gram	-12.3462
JM	-12.347
▁gener	-12.3486
IBADA	-12.3515
checkDeclared	-12.3566
▁LastOVDate	-12.3567
ntity	-12.3583
▁compar	-12.3585
source	-12.3587
▁allergyBean	-12.3589
enter	-12.3603
GhlcmUgY	-12.3604
▁Mode	-12.3604
myParams	-12.3604
setParent	-12.3604
creditCardType	-12.3604
Internet	-12.3604
emergencyName	-12.3604
Category	-12.3604
Context	-12.3606
Heart	-12.3608
matches	-12.3609
bloodType	-12.3609
binding	-12.361
blocking	-12.361
Secure	-12.361
monthCount	-12.3611
4096	-12.3611
delimiters	-12.3611
OfBirthStr	-12.3612
Corrupt	-12.3612
foo	-12.3613
minors	-12.3613
Contact	-12.3614
EthnicityFactor	-12.3614
leap	-12.3615
visitFlags	-12.3616
finished	-12.3616
death	-12.3616
causeOfDeath	-12.3618
cholesterolHDL	-12.3618
cholesterolLDL	-12.3618
cholesterolTri	-12.3618
pthread	-12.3619
Currently	-12.3619
toAddrs	-12.362
Store	-12.362
adverseEventDAO	-12.3621
icdDAO	-12.3621
buffered	-12.3621
grandparents	-12.3621
transactionID	-12.3621
algorithm	-12.3622
warning	-12.3623
includ	-12.3623
random	-12.3624
Sign	-12.3624
CACerts	-12.3625
reject	-12.3625
Token	-12.3625
represents	-12.3626
possible	-12.3626
continue	-12.3626
Attempt	-12.3626
Source	-12.3626
lvl	-12.3627
desired	-12.3627
process	-12.3627
depend	-12.3627
fingerprint	-12.3627
issued	-12.3628
authorization	-12.3628
Generate	-12.3629
prefix	-12.3629
library	-12.3629
your	-12.3629
reason	-12.3629
OpenSSL	-12.3629
question	-12.363
which	-12.363
information	-12.3631
rmDAO	-12.3632
Age	-12.3634
sCF	-12.3638
DateOfDeath	-12.364
hrDAO	-12.3642
Database	-12.3643
instance	-12.3643
toSend	-12.3643
JJ	-12.3647
DESC	-12.3649
setOv	-12.365
undeclare	-12.3659
gEA	-12.3668
served	-12.3688
Failure	-12.3688
▁shar	-12.3689
case	-12.3694
Disabl	-12.3697
\""	-12.3699
ZtG	-12.3707
Auth	-12.371
sKd	-12.3711
▁Utilit	-12.3714
▁mean	-12.3718
ATION	-12.3731
RaK	-12.3739
nist	-12.3745
END	-12.3749
xxxxxxxxxxxxxxx	-12.3753
OWJ	-12.3754
ements	-12.3756
▁wor	-12.3756
▁"%"	-12.3757
DCCA	-12.376
onflicts	-12.3762
▁Iterat	-12.3765
HQ	-12.3766
LlH	-12.3766
GRvZ	-12.3768
bstract	-12.3769
ssume	-12.3771
MyReportRequests	-12.3771
erts	-12.3771
▁reportRequest	-12.3776
tool	-12.3779
InMonthRange	-12.378
emoveDiagID	-12.378
emoveProcID	-12.378
emoveLabProcID	-12.378
emoveMedID	-12.3781
▁493	-12.3789
Close	-12.3791
▁configur	-12.3793
▁Specifie	-12.3797
isplay	-12.3798
zuM	-12.3799
kGr	-12.38
hysician	-12.3801
TreatmentSatisfa	-12.3806
tZS	-12.3806
itional	-12.3806
▁Trans	-12.3806
ayers	-12.3806
nso	-12.3807
▁necessar	-12.3808
▁render	-12.3808
▁authenticat	-12.3809
AwYDiDcE	-12.3809
▁Valid	-12.3809
YDVQQDE	-12.381
▁techni	-12.3811
AccessLog	-12.3811
lative	-12.3811
LabProcUAP	-12.3812
TUNNEL	-12.3812
BCQcxE	-12.3813
00000001	-12.3813
▁fina	-12.3813
Problem	-12.3813
QYDiDcDBgOINwQT	-12.3814
▁surg	-12.3814
dateOfBirth	-12.3814
apabilities	-12.3814
hannel	-12.3814
Available	-12.3815
getSession	-12.3815
▁Intern	-12.3815
intDesc	-12.3815
KNOWN	-12.3815
randparent	-12.3815
JKoZIhvcNAQcCoII	-12.3815
Script	-12.3815
Topical	-12.3815
lkZSB	-12.3815
Obtain	-12.3815
FACTORS	-12.3815
FINISHED	-12.3815
darkgreen	-12.3815
engine	-12.3815
grandTotal	-12.3815
strlcpy	-12.3815
ACCESS	-12.3815
UserSearchButton	-12.3815
getUserCloseLink	-12.3815
getUserCorrect	-12.3815
getUserIncorrect	-12.3815
▁-1?"":	-12.3815
▁hospEntry	-12.3815
(?,?,?,?,?	-12.3815
BAQUFA	-12.3815
Caucasian	-12.3815
Cryptograph	-12.3815
DecimalFormat	-12.3815
IDEzNjgxNDE	-12.3815
IDevID	-12.3815
INTERACTION	-12.3815
LATER	-12.3815
NOSIGNAL	-12.3815
Process	-12.3815
Revoke	-12.3815
SESSION	-12.3815
SOONER	-12.3815
Scanner	-12.3815
ViewableStr	-12.3815
WSAStartup	-12.3815
WaitingRmMinutes	-12.3815
blackbox	-12.3815
broken	-12.3815
comparator	-12.3815
dateofbirth	-12.3815
diseaseChecker	-12.3815
fluTimeFirst	-12.3815
grandPatient	-12.3815
grandPersonnel	-12.3815
keepalives	-12.3815
messVal	-12.3815
minuteString	-12.3815
network	-12.3815
pathHead	-12.3815
patientRelatives	-12.3815
patientStats	-12.3815
pproach	-12.3815
secondParam	-12.3815
temLinkGenerator	-12.3815
vgExamRmMinutues	-12.3815
visibility	-12.3815
{1,100}",	-12.3815
{4}",	-12.3815
▁459.99	-12.3815
▁65536	-12.3815
▁90660	-12.3815
▁Bindings	-12.3815
▁Considerations	-12.3815
▁Control	-12.3815
▁Locale	-12.3815
▁Normally	-12.3815
▁Parents	-12.3815
▁Property	-12.3815
▁Radius	-12.3815
▁SignedData	-12.3815
▁apptEntry	-12.3815
▁bootstrapping	-12.3815
▁caught	-12.3815
▁childhood	-12.3815
▁deprecated	-12.3815
▁deptetTime	-12.3815
▁destination	-12.3815
▁develop	-12.3815
▁duplicate	-12.3815
▁eliminate	-12.3815
▁employed	-12.3815
▁enumeration	-12.3815
▁exhibit	-12.3815
▁garbage	-12.3815
▁hepATime	-12.3815
▁illegal	-12.3815
▁involve	-12.3815
▁kindOfProperty	-12.3815
▁located	-12.3815
▁ndUpdater	-12.3815
▁polioTime	-12.3815
▁resumption	-12.3815
▁scheme	-12.3815
▁setApprovedDate	-12.3815
▁sufficient	-12.3815
▁ticket	-12.3815
Agree	-12.3815
HosID	-12.3815
ResourceBundle	-12.3815
Step	-12.3815
nstitute	-12.3815
▁Regard	-12.3815
▁Responder	-12.3815
▁TestParser	-12.3815
▁cptUpdater	-12.3815
YYYY	-12.3815
ediatrician	-12.3815
lpBeans	-12.3815
▁atEditor	-12.3815
▁convey	-12.3815
▁officevisitDAO	-12.3815
▁scaleType	-12.3815
▁drop	-12.3815
▁hepBTime	-12.3815
▁hospUpdater	-12.3815
▁instantiat	-12.3815
▁kind	-12.3815
▁measlesTime	-12.3815
▁medDostxt	-12.3815
▁medEndtxt	-12.3815
▁medInsttxt	-12.3815
▁medStarttxt	-12.3815
▁ovMedicationID	-12.3815
▁varicellaTime	-12.3815
180-4	-12.3815
IDENTIF	-12.3815
REPRESENTATIVE	-12.3815
▁Throw	-12.3815
▁attached	-12.3815
▁basis	-12.3815
howAdverseButton	-12.3815
▁gain	-12.3815
SUBJECT	-12.3815
▁bufsiz	-12.3815
▁delta	-12.3815
▁ndDAO	-12.3815
▁1970	-12.3816
Span	-12.3816
▁advance	-12.3816
▁constraint	-12.3816
▁surList	-12.3816
TIzNDU	-12.3816
suggest	-12.3816
▁Own	-12.3816
▁defensive	-12.3816
▁lblist	-12.3816
"90396	-12.3816
(?,?,?,?,?,?,?	-12.3816
estDataGenerator	-12.3816
▁WARNING	-12.3816
▁useful	-12.3816
5746	-12.3816
LOCKED	-12.3816
INTDESC	-12.3816
="20%">	-12.3816
True	-12.3816
ordin	-12.3816
▁hpv	-12.3816
sthma	-12.3816
▁signifi	-12.3816
EoD	-12.3816
kdz	-12.3816
ology	-12.3816
solution	-12.3816
▁labBeans	-12.3816
SHS	-12.3816
abcdef	-12.3816
▁afford	-12.3816
Kind	-12.3816
refsFromMe	-12.3816
refsToMe	-12.3816
IOSet	-12.3816
Socket	-12.3816
▁SAX	-12.3816
▁ioctlsocket	-12.3816
▁LinkList	-12.3816
hasNoData	-12.3816
LASTSOCKET	-12.3816
UNSUPPORTED	-12.3816
▁Accepted	-12.3816
▁390.0	-12.3816
ffff	-12.3816
INTDRUG	-12.3816
▁gracefully	-12.3816
iCPhone	-12.3816
{1,20	-12.3816
fffffff	-12.3816
ResultsAvailable	-12.3816
peek	-12.3816
eventNumber	-12.3816
▁hpvTime	-12.3816
▁rotaTime	-12.3816
▁past	-12.3816
SMALL	-12.3816
ibly	-12.3816
▁rota	-12.3816
SYST	-12.3816
▁dateModified	-12.3816
VhU	-12.3816
2307	-12.3817
▁medIDtxt	-12.3817
emailVal	-12.3817
3394	-12.3817
▁2038	-12.3817
▁alpha	-12.3817
▁redirect	-12.3817
▁4.1.3	-12.3817
▁currentLocale	-12.3817
▁analy	-12.3817
2585	-12.3817
acros	-12.3817
67890123456789"	-12.3817
(?,?,?,?	-12.3817
▁657	-12.3817
▁numAssignments	-12.3817
▁4.2.2	-12.3817
GETADDR	-12.3817
▁6.11)	-12.3817
▁allHCPs	-12.3817
Admin	-12.3817
▁gra	-12.3817
6666;	-12.3817
2119	-12.3817
OTkuMhQFM	-12.3817
▁GenderFactor	-12.3818
▁Restrict	-12.3818
▁Problems	-12.3818
▁pneumoTime	-12.3818
▁timeAspect	-12.3818
▁prescriberMID	-12.3818
HPV	-12.3818
CAQE	-12.3818
annot	-12.3818
▁4.3.2	-12.3818
▁active	-12.3818
▁limitation	-12.3818
▁officeVisitDAO	-12.3818
HttpSessionEvent	-12.3818
Output	-12.3819
▁creat	-12.3819
{2}	-12.3819
▁father	-12.3819
▁cover	-12.3819
▁smoker	-12.3819
▁myState	-12.3819
▁882	-12.3819
▁impli	-12.3819
ZGVtb	-12.3819
▁controlle	-12.3819
filterForm	-12.382
▁rolesList	-12.382
Diff	-12.382
FromMe	-12.382
Gsz	-12.382
URV	-12.382
▁lack	-12.382
RESULTS	-12.382
▁suppress	-12.382
▁requirement	-12.382
▁ovmedication	-12.3821
▁4.3).	-12.3821
5077	-12.3821
ARY	-12.3821
IjA	-12.3821
|1[0-	-12.3821
▁365	-12.3821
FAILED	-12.3822
fips	-12.3822
DSS	-12.3822
▁myPatients	-12.3822
qAT	-12.3822
▁100%;	-12.3822
ToAddr	-12.3823
▁cptCode	-12.3823
▁hasRisk	-12.3823
AssignmentsFrom	-12.3823
748\\	-12.3823
setSen	-12.3823
▁rValue	-12.3823
6454	-12.3824
▁AppointmentBean	-12.3824
▁setViewedDate	-12.3824
_204,	-12.3825
▁sQuestion	-12.3825
AaU	-12.3825
Father	-12.3825
▁mis	-12.3825
▁signal	-12.3825
▁188	-12.3825
▁mother	-12.3825
EBAA	-12.3826
BhM	-12.3826
▁1400	-12.3826
fmO	-12.3827
:-1;	-12.3827
▁smoked	-12.3827
▁supply	-12.3827
▁GetCurrent	-12.3827
QK	-12.3827
jANBgkq	-12.3828
5274	-12.3828
▁ApptBeanLoader	-12.3828
iTrustMenu	-12.3828
ished	-12.3828
6838	-12.3828
▁"0"+	-12.3829
EXTEN	-12.3829
▁tasks	-12.383
SUB	-12.383
unicode	-12.383
▁CommonName	-12.3831
▁randomly	-12.3831
▁SurveyLoader	-12.3832
▁Con	-12.3832
▁LOINCBeanLoader	-12.3833
CONF	-12.3833
▁indication	-12.3834
▁3.3.3).	-12.3834
▁Specified	-12.3834
▁setSurveyDate	-12.3834
898-1	-12.3834
timezone	-12.3835
46:	-12.3835
903\\	-12.3836
aints	-12.3836
FromAddr	-12.3836
lastFailure	-12.3836
▁iResult	-12.3837
▁sAnswer	-12.3837
▁dateAdded	-12.3837
gYm	-12.3837
▁Col	-12.3838
UdD	-12.3839
▁EmailBeanLoader	-12.384
▁4.3	-12.384
▁hl	-12.3841
khj	-12.3842
workspace	-12.3842
▁currentInstance	-12.3842
dyZ	-12.3844
▁submitting	-12.3845
▁accessDAO	-12.3845
▁effect	-12.3846
MHE	-12.3846
Mother	-12.3846
Miss	-12.3846
▁anyone	-12.3847
▁3.6.1	-12.3847
Operational	-12.3847
▁appointmenttype	-12.3848
▁labProcedureID	-12.385
AxE	-12.385
▁sqlException	-12.3851
▁isInMonthRange	-12.3851
zCCAe	-12.3852
493.0	-12.3854
▁maintained	-12.3854
KEYSIZE	-12.3856
tial	-12.3857
HEADERS	-12.386
▁hcpName	-12.386
▁ERRNO	-12.3862
▁isAtRisk	-12.3863
▁!*	-12.3863
nauthorized	-12.3864
tical	-12.3865
FMTIzNDU	-12.3867
MDAY	-12.3867
▁PatientLoader	-12.3868
10000)	-12.3869
ourHospitals	-12.3869
bloodTypeStr	-12.3869
inclusive	-12.387
mine	-12.3871
▁occured	-12.3872
▁"+((	-12.3872
DOM	-12.3872
▁established	-12.3877
▁eResult	-12.3877
▁hospitalLoader	-12.3878
▁responder	-12.388
rescribing	-12.3882
MhQ	-12.3882
mVh	-12.3883
22:	-12.3885
▁modifie	-12.3886
makeChange	-12.3887
▁manually	-12.3888
SOL	-12.3889
presDrug	-12.3889
▁'%	-12.3889
▁setConfirm	-12.3889
▁Ka	-12.389
linkNumber	-12.3891
Nba	-12.3893
▁procedureLoader	-12.3893
6066	-12.3894
▁methodType	-12.3895
▁visitDAO	-12.3899
tAt	-12.3899
[100	-12.3902
▁linkID	-12.3906
viewA	-12.3909
credit	-12.391
▁4020	-12.3911
%>><%=	-12.3916
▁423	-12.3918
▁getConfirm	-12.3918
ToMe	-12.3921
()%>"/>	-12.3926
ESS	-12.3926
ltip	-12.3929
REV	-12.393
verifyhost	-12.393
▁thing	-12.3932
▁59)	-12.3936
NTL	-12.3943
ZUN	-12.3946
hdG	-12.3946
OfficeVisitsFor	-12.3947
callstack	-12.3951
="20"	-12.3955
iel	-12.3955
uF	-12.3959
retval	-12.396
zK	-12.3964
hij	-12.3964
▁sbean	-12.3966
"#000000"	-12.3975
turn	-12.3995
ECE	-12.3995
oneChecked	-12.3998
FQD	-12.4003
1005-9	-12.4017
etPersonnelID	-12.4021
phe	-12.4035
SMF	-12.4039
phoneNumber	-12.4043
arg	-12.4045
666	-12.4068
IGhlcmUg	-12.4078
▁128)	-12.4089
CMS	-12.4095
Hax	-12.4113
rap	-12.4113
TimeoutListener	-12.4114
▁trig	-12.4117
getActual	-12.412
showAd	-12.4137
ViewedDate	-12.4141
WIw	-12.4149
dRow	-12.4178
ammer	-12.4183
apply	-12.4192
Alert	-12.42
currentMonth	-12.4223
KV	-12.4227
aHQ	-12.4239
4086	-12.4248
Too	-12.4255
hcpLastName	-12.428
INTE	-12.4282
0%">	-12.4285
ipti	-12.4289
igu	-12.4307
hoose	-12.4336
hcpFirstName	-12.4342
MJ	-12.4363
hcpCity	-12.4377
reused	-12.4401
hcpState	-12.4401
Realm	-12.4414
transactionType	-12.4439
producer	-12.4456
oAM	-12.4472
AGE	-12.4544
EwU	-12.4552
labProcedureCode	-12.458
Dip	-12.4611
patientRS	-12.4631
="7"	-12.4647
838	-12.4699
PUB	-12.4712
oZW	-12.4712
sIHlvdSB	-12.4778
FEREN	-12.4779
708	-12.4901
"90633	-12.492
counter	-12.4931
