<unk>	0
<s>	0
</s>	0
.	-2.70709
▁	-3.49073
▁(	-3.6426
▁*	-3.84789
▁=	-3.9117
;	-3.93381
(	-4.11897
,	-4.23236
▁/	-4.26212
);	-4.29929
)	-4.41606
_	-4.48667
▁the	-4.54634
▁}	-4.74538
▁{	-4.74715
▁new	-4.83847
▁@	-4.90013
▁"	-4.97913
▁)	-5.05299
s	-5.0798
▁public	-5.10404
▁import	-5.11127
();	-5.17295
▁+	-5.20212
BagConstraints	-5.24281
▁if	-5.25608
▁of	-5.39678
'	-5.48814
▁java	-5.56949
5,	-5.65163
▁return	-5.65517
▁Grid	-5.65828
▁null	-5.68026
▁void	-5.70498
o	-5.72181
()	-5.77778
▁String	-5.78471
get	-5.8071
i	-5.80982
("	-5.81126
▁1,	-5.8385
▁di	-5.8645
:	-5.89354
");	-5.90526
▁private	-5.91167
▁0,	-5.91956
▁()	-5.97718
e	-5.98186
>	-6.00105
new	-6.03003
▁a	-6.03473
▁e	-6.03649
▁int	-6.04752
▁to	-6.05176
▁//	-6.06818
▁**	-6.07088
▁for	-6.0912
▁();	-6.09271
▁i	-6.10299
▁this	-6.17617
a	-6.18601
▁in	-6.21442
x	-6.22032
▁il	-6.22456
▁Return	-6.23092
add	-6.24433
",	-6.27755
▁*/	-6.28262
▁smos	-6.29938
▁l	-6.31042
A	-6.31682
Utils	-6.34471
Exception	-6.3495
";	-6.35052
▁/**	-6.35268
▁<	-6.38339
0.0,	-6.38696
▁SQLException	-6.39981
▁Param	-6.41654
▁==	-6.41831
▁catch	-6.43283
▁p	-6.45778
constrain	-6.48133
▁throws	-6.50007
▁grid	-6.50466
▁un	-6.50689
panel	-6.50739
▁la	-6.53033
gps	-6.53256
int	-6.54768
▁data	-6.55062
etour	-6.559
"	-6.55992
▁errorMessage	-6.56041
▁unisa	-6.57149
▁value	-6.58397
re	-6.60908
▁gotoPage	-6.61292
otFoundException	-6.61813
WEST	-6.65326
▁panel	-6.65454
▁RemoteException	-6.6732
▁L	-6.67423
jsp	-6.67451
param	-6.67996
▁"./	-6.69564
▁al	-6.70759
error	-6.70928
set	-6.71025
())	-6.72291
this	-6.72427
▁throw	-6.73714
▁del	-6.75335
NONE	-6.76436
▁and	-6.77041
▁-	-6.7724
false	-6.77925
DEF	-6.8027
1,	-6.80841
▁result	-6.81106
ULT	-6.81251
▁pResponse	-6.81315
String	-6.8219
ValueException	-6.8226
▁boolean	-6.84558
▁Connection	-6.85269
printStackTrace	-6.85276
▁The	-6.85602
MESSAGE	-6.85791
N	-6.87875
▁testo	-6.88124
▁static	-6.88173
ERROR	-6.89155
▁connection	-6.8988
▁per	-6.9063
bean	-6.91335
▁1.0,	-6.92014
▁true	-6.92019
getMessage	-6.93017
▁false	-6.94048
▁Environment	-6.94064
NORTH	-6.95827
▁•	-6.95827
/	-6.96199
▁else	-6.96296
▁is	-6.96336
true	-6.98019
setText	-6.98356
▁5	-7.00056
’	-7.002
y	-7.01491
swing	-7.03226
▁ioException	-7.03847
▁della	-7.03939
▁class	-7.04803
▁pRequest	-7.054
throws	-7.06169
▁id	-7.06269
());	-7.07682
.*	-7.08132
utente	-7.08465
▁che	-7.08997
util	-7.09501
▁method	-7.09585
▁sistema	-7.10555
ing	-7.10665
L	-7.11163
getText	-7.11576
▁());	-7.12254
▁set	-7.12622
▁P	-7.12684
Connection	-7.12842
HttpServlet	-7.13644
▁una	-7.14649
!	-7.14867
▁0)	-7.15982
-	-7.17395
▁dell	-7.17639
▁Utility	-7.18805
▁database	-7.1921
id	-7.19222
▁JLabel	-7.19391
▁msg	-7.1991
PuntoDiRistoro	-7.20714
2	-7.21942
p	-7.22428
▁2	-7.22437
setEnabled	-7.2248
▁get	-7.22552
▁session	-7.22658
d	-7.22899
=	-7.23028
ackage	-7.23248
connect	-7.23837
▁0;	-7.24344
▁name	-7.24358
▁Label	-7.25715
5);	-7.25976
▁ArrayList	-7.26716
▁try	-7.27055
Attribute	-7.27257
exception	-7.27528
SQLException	-7.27547
▁g	-7.28184
▁server	-7.2912
▁le	-7.29837
▁list	-7.30206
▁label	-7.30805
▁Date	-7.3088
1	-7.33054
3	-7.33886
▁by	-7.34778
▁query	-7.35032
sql	-7.37732
or	-7.37983
ervlet	-7.38128
http	-7.38172
▁that	-7.39931
MessaggiErrore	-7.40821
▁System	-7.40969
This	-7.4127
Y	-7.42091
▁Il	-7.42187
ERRORE	-7.42256
▁non	-7.42427
▁da	-7.42914
ActionEvent	-7.43543
S	-7.44429
▁M	-7.44448
1.	-7.44842
length	-7.45099
▁I	-7.45408
BeneCulturale	-7.46176
▁final	-7.47279
ed	-7.48389
ItemListener	-7.48574
Date	-7.49386
Connessione	-7.49828
se	-7.50037
▁</	-7.5015
awt	-7.50196
▁stat	-7.50568
▁JPanel	-7.50579
ends	-7.50756
▁cultural	-7.50925
▁ActionListener	-7.51113
▁actionPerformed	-7.51681
▁Throw	-7.52181
elenco	-7.52969
▁""	-7.53041
storage	-7.54206
▁4	-7.54592
▁dati	-7.54712
▁etich	-7.54905
loggedUser	-7.55286
is	-7.55784
▁ext	-7.56295
▁Entity	-7.57172
▁ha	-7.57286
LE	-7.57502
2,	-7.57511
grid	-7.58292
▁con	-7.58378
ddActionListener	-7.58775
▁all	-7.59018
setEditable	-7.59465
▁2,	-7.59804
▁initialize	-7.60003
▁be	-7.60483
<	-7.6094
setLayout	-7.61639
User	-7.61695
▁TR	-7.6171
▁");	-7.61932
));	-7.6233
E	-7.62335
▁case	-7.62476
▁stanza	-7.62685
▁from	-7.63005
▁cas	-7.63007
4,	-7.63633
null	-7.63644
zione	-7.63698
ta	-7.63864
IOException	-7.63866
▁ImageIcon	-7.64246
▁etichetta	-7.64475
return	-7.6482
▁MessageDialog	-7.64832
(),	-7.6535
▁0	-7.65517
[	-7.6594
▁degli	-7.66145
▁number	-7.67406
▁TextField	-7.679
▁prot	-7.67913
ected	-7.68449
iamo	-7.69064
▁Get	-7.69095
f	-7.69325
Request	-7.69438
Response	-7.69506
▁entit	-7.69711
▁delle	-7.70727
▁1.	-7.71642
yN	-7.71678
▁conn	-7.72091
▁not	-7.72822
▁HttpServlet	-7.73186
stanza	-7.73521
▁Button	-7.74041
▁banner	-7.74127
setFont	-7.75826
getId	-7.76101
▁S	-7.77044
TAB	-7.77099
▁super	-7.77725
Principale	-7.77743
level	-7.78424
Null	-7.7856
▁(!	-7.78606
▁D	-7.79049
▁invalid	-7.79098
))	-7.79687
▁with	-7.79728
▁Font	-7.79797
▁lista	-7.80082
▁Set	-7.80494
to	-7.80496
▁User	-7.8066
▁o	-7.80833
▁Invalid	-7.80863
▁classe	-7.80968
▁Method	-7.81033
▁Statement	-7.81193
▁nome	-7.81403
▁DBConnection	-7.81827
▁JButton	-7.82103
▁C	-7.83354
source	-7.83744
▁Frame	-7.83807
CENTER	-7.84435
▁connect	-7.84947
Instance	-7.8513
▁Panel	-7.85206
▁dei	-7.85859
zioni	-7.85967
▁padre	-7.87144
▁system	-7.87242
▁s	-7.87715
scelta	-7.87778
▁form	-7.87981
▁on	-7.88653
3,	-7.89151
▁pIdTurista	-7.89179
png	-7.89401
▁Visualizza	-7.89524
▁nel	-7.89823
direct	-7.90129
out	-7.90267
▁getRe	-7.9087
ndRe	-7.90891
io	-7.91142
▁event	-7.91185
us	-7.91938
▁1	-7.92562
▁|	-7.93992
Cre	-7.94148
▁an	-7.94601
setVisible	-7.94623
▁3,	-7.94792
▁eventi	-7.94942
▁alla	-7.94975
testo	-7.95521
▁ID	-7.95781
▁3	-7.9598
▁m	-7.9629
IdPuntoDiRistoro	-7.96355
{	-7.9681
Mandatory	-7.96951
config	-7.96988
▁long	-7.96992
Model	-7.97253
▁Bean	-7.97313
Dialog	-7.9771
FieldException	-7.97734
▁[]	-7.98277
▁conditions	-7.98549
[0].	-7.98624
▁(),	-7.9877
▁eTour	-7.99346
▁&	-7.99443
▁scelta	-7.99536
▁Operator	-7.99889
▁table	-8.00194
Invalid	-8.00345
pRequest	-8.00447
Entity	-8.01186
▁Se	-8.01668
▁Sistema	-8.02153
▁essere	-8.02599
▁b	-8.02658
right	-8.02793
user	-8.02809
▁New	-8.03078
")));	-8.03503
")	-8.03933
▁1;	-8.0395
▁Checkbox	-8.04392
D	-8.04921
▁ManagerUser	-8.04983
▁F	-8.05072
▁Copy	-8.05119
anno	-8.05441
font	-8.05447
Version	-8.05493
▁DataBase	-8.0591
▁tag	-8.06195
db	-8.0627
sogg	-8.06363
Sistema	-8.06435
Configurazione	-8.06455
▁metodo	-8.06864
gridbag	-8.07238
Bean	-8.07563
▁Variable	-8.07746
▁checkboxes	-8.07756
getClass	-8.07833
Prenotazione	-8.08024
gridx	-8.08037
▁search	-8.08579
UID	-8.08581
▁Query	-8.08652
Grid	-8.091
▁deve	-8.09468
▁you	-8.09468
▁d	-8.10875
▁doPost	-8.11261
▁come	-8.11284
▁Annulla	-8.11449
▁SE	-8.11489
▁Version	-8.11773
▁modifica	-8.11922
▁elenco	-8.11947
HttpSession	-8.1217
▁Definizione	-8.1217
▁double	-8.12441
getStat	-8.12446
▁stringa	-8.12461
2.	-8.12572
▁has	-8.12963
t	-8.13277
▁item	-8.13363
▁point	-8.13424
0,	-8.1343
▁'	-8.13684
nc	-8.13754
HER	-8.14232
OM	-8.14935
BeniCulturali	-8.14948
repository	-8.1495
▁Interru	-8.14951
▁init	-8.14986
▁selected	-8.1526
println	-8.15663
ItemEvent	-8.15891
▁common	-8.15892
Gestione	-8.16037
▁[	-8.16419
▁numero	-8.1658
▁doGet	-8.16597
operazione	-8.16846
P	-8.17363
toString	-8.17766
▁toReturn	-8.17813
▁JOptionPane	-8.17852
▁operation	-8.18146
erial	-8.18154
control	-8.18602
disp	-8.1862
▁se	-8.1872
2007	-8.1888
▁Project	-8.191
▁Of	-8.19108
equals	-8.19562
managerUser	-8.19687
▁refreshment	-8.19756
▁GridBagLayout	-8.19896
▁codice	-8.19896
agenzia	-8.20578
Integer	-8.20656
▁Auth	-8.20746
Illegal	-8.20746
▁feedback	-8.20777
▁utente	-8.21133
Code	-8.21435
next	-8.21586
rgumentException	-8.21747
BConnessionePool	-8.21748
▁BorderLayout	-8.2192
tateChanged	-8.22139
Error	-8.22342
query	-8.22767
Home	-8.22769
▁E	-8.23063
conn	-8.23804
result	-8.23822
Flag	-8.23849
[1].	-8.24048
▁tourist	-8.24266
▁BeneServizio	-8.24477
extra	-8.24869
▁JTextField	-8.25543
nized	-8.25854
▁Partecipa	-8.25858
n	-8.25925
▁Salerno	-8.25965
▁Check	-8.26062
▁Exception	-8.26085
▁frame	-8.26675
▁DMI	-8.26902
▁University	-8.26902
hro	-8.26903
▁returns	-8.26908
▁Lab	-8.26911
▁sy	-8.27107
▁user	-8.27205
Insets	-8.27653
SELECT	-8.27966
▁ETOUR	-8.27966
operatoreagenzia	-8.27984
gui	-8.2804
▁message	-8.28856
▁connessione	-8.29041
("",	-8.29043
▁managerUser	-8.29182
Id	-8.292
nsets	-8.29445
▁jContentPane	-8.29509
▁<=	-8.29807
▁1.0	-8.29852
3.	-8.29857
▁sql	-8.29952
getConnection	-8.29988
▁otherwise	-8.30128
URL	-8.3013
event	-8.30365
▁or	-8.30448
SA	-8.30598
▁j	-8.30616
="	-8.30796
▁W	-8.31139
ManagerClassroom	-8.31308
index	-8.31499
▁password	-8.31837
▁FR	-8.3196
▁"<	-8.32024
!=	-8.32275
▁sqlException	-8.32532
BeanTag	-8.32655
▁c	-8.32839
▁pannello	-8.33157
▁prenotazione	-8.33204
r	-8.33255
Classroom	-8.33283
etodo	-8.33442
▁collegat	-8.33462
width	-8.33464
▁implements	-8.33527
Name	-8.34452
ondizioni	-8.34499
IMAGES	-8.34599
▁finally	-8.34722
close	-8.34979
▁jLabel	-8.3556
▁SMOS	-8.35661
connection	-8.35822
▁ottieni	-8.3587
▁Conferma	-8.36313
▁visualizza	-8.36663
DBMS	-8.3691
Stanza	-8.36946
[1]	-8.37786
Cursor	-8.38087
getParameter	-8.38089
▁Descrizione	-8.38451
▁Collection	-8.38522
▁ricerca	-8.38659
all	-8.39274
Session	-8.39277
▁cui	-8.39277
▁model	-8.39343
"),	-8.39395
▁num	-8.39554
addItem	-8.39676
[]	-8.4031
▁Vector	-8.40586
4	-8.40616
(""	-8.40792
▁tags	-8.41363
rivate	-8.41469
DateUtils	-8.41541
▁ResultSet	-8.41577
▁news	-8.4174
▁0.1	-8.41742
>"	-8.41759
release	-8.41763
data	-8.42052
es	-8.42134
j	-8.42144
▁Amministratore	-8.42263
▁10	-8.42939
Event	-8.4297
▁pId	-8.43214
▁object	-8.43576
gotoPage	-8.43654
Teaching	-8.44161
▁conferma	-8.44186
▁Create	-8.4419
▁button	-8.44246
ottieni	-8.44254
▁requirements	-8.44767
▁ad	-8.45152
▁"+	-8.45521
!"	-8.45595
▁6	-8.45831
▁Ricerca	-8.46059
pRs	-8.46276
▁si	-8.46676
HORIZONTAL	-8.46734
▁rappresenta	-8.46734
▁Utente	-8.46856
▁start	-8.46868
W	-8.47075
I	-8.47129
▁nuova	-8.47236
size	-8.47625
▁as	-8.4777
utility	-8.48037
▁20	-8.4814
10,	-8.48208
▁instance	-8.48222
▁annulla	-8.48343
▁manager	-8.48911
▁dall	-8.49057
▁events	-8.4916
compose	-8.4921
Operation	-8.49346
▁Ritorna	-8.49349
O	-8.49644
en	-8.49744
pren	-8.49856
].	-8.5006
▁pren	-8.50677
▁which	-8.50682
▁Integer	-8.50771
▁List	-8.50805
▁Dimension	-8.50915
T	-8.51142
6,	-8.51583
setIcon	-8.51639
ndo	-8.51698
▁sul	-8.51715
▁pulsante	-8.52035
▁requirement	-8.521
▁it	-8.52382
State	-8.52433
▁pool	-8.525
++)	-8.52726
▁date	-8.53036
▁stanze	-8.53131
Sogg	-8.53403
valueOf	-8.53441
aDiRicerca	-8.53535
▁while	-8.54792
▁restitui	-8.54803
▁sh	-8.54842
▁out	-8.55005
Agenzia	-8.55359
▁dispose	-8.55436
▁ManagerTeaching	-8.55613
fine	-8.55736
]	-8.56017
ArrayList	-8.56049
TitledBorder	-8.562
▁#	-8.56797
▁Nome	-8.56956
▁subscriber	-8.57012
▁bean	-8.57261
rilascia	-8.57405
▁text	-8.57567
titolo	-8.57629
[0]	-8.58247
Utente	-8.58741
▁change	-8.58841
setBounds	-8.59091
isAdministrator	-8.59115
▁error	-8.59913
▁Tourist	-8.59989
▁tourists	-8.60081
so	-8.60438
checkboxes	-8.60474
▁input	-8.6063
▁studente	-8.60656
▁conto	-8.60856
getInt	-8.60881
▁cliente	-8.61245
getString	-8.61539
ion	-8.61777
▁Use	-8.61828
teaching	-8.61954
▁Postcondi	-8.62043
▁containing	-8.62091
▁Precondi	-8.62141
▁U	-8.622
▁t	-8.62478
▁&&	-8.62635
▁La	-8.63445
SCONOSCIUTO	-8.63557
▁Attor	-8.63624
AND	-8.63771
▁parent	-8.63822
▁btnModifica	-8.64139
▁JComboBox	-8.64499
▁extra	-8.64553
▁index	-8.64714
ting	-8.64919
▁nuovo	-8.65096
▁loggato	-8.65097
▁informazioni	-8.65134
comm	-8.65139
▁modulo	-8.65404
▁interfacce	-8.65596
▁results	-8.6594
"");	-8.66423
▁JScrollPane	-8.66651
VERTICAL	-8.66658
▁type	-8.6666
▁inizializza	-8.66789
sce	-8.67274
▁Modifica	-8.67583
▁are	-8.6765
of	-8.6767
BOLD	-8.68245
▁interrotta	-8.68246
1);	-8.68569
Listener	-8.68786
care	-8.68804
Time	-8.69106
▁inserisci	-8.69474
▁A	-8.69578
▁())	-8.6998
▁float	-8.7005
C	-8.70216
▁modul	-8.70901
News	-8.70954
▁pid	-8.71073
b	-8.71418
Exit	-8.71488
▁Iscrizione	-8.71628
ManagerUser	-8.7177
'!	-8.71849
▁display	-8.71951
equenza	-8.72619
▁accesso	-8.7295
▁pack	-8.73065
▁successful	-8.73152
able	-8.73162
▁Agency	-8.73164
application	-8.73173
▁selezionato	-8.73177
▁category	-8.73194
Disponibilita	-8.73456
▁call	-8.7384
JPanel	-8.74801
▁Entry	-8.74859
▁usci	-8.74859
▁Flow	-8.74859
createStatement	-8.74878
▁Cultural	-8.74942
▁string	-8.75035
read	-8.75058
▁Maschera	-8.75161
Environment	-8.75257
Management	-8.75404
[2]	-8.75452
4.	-8.7546
()).	-8.75501
▁"/	-8.75717
▁12,	-8.75942
▁Delete	-8.76076
▁voto	-8.76546
author	-8.76583
▁Actor	-8.76583
▁Quality	-8.76583
setPreferredSize	-8.76613
▁Class	-8.76613
▁will	-8.76614
▁J	-8.76666
▁Point	-8.76848
inizio	-8.76987
doGet	-8.77032
stat	-8.77047
errorMessage	-8.77053
rmi	-8.77277
▁dal	-8.77561
▁stato	-8.77629
▁Refreshment	-8.77711
9	-8.78263
▁interface	-8.78337
weight	-8.78338
▁check	-8.78341
▁SQL	-8.78369
parse	-8.78621
▁contains	-8.7892
Absence	-8.79186
k	-8.7927
▁Punto	-8.79658
htm	-8.80108
dEntityException	-8.80123
BeneServizio	-8.80702
[3]	-8.8134
▁errore	-8.81674
Turista	-8.81761
▁clicca	-8.81952
){	-8.82052
▁/*	-8.82192
insegnamento	-8.82542
pIdTurista	-8.82632
▁In	-8.82682
li	-8.82954
Data	-8.83144
alità	-8.83191
▁sono	-8.83827
▁intero	-8.83877
▁accademico	-8.83919
▁tipo	-8.83941
▁Color	-8.84076
mod	-8.84461
setName	-8.84553
▁ManagerRegister	-8.84771
▁invia	-8.85651
ption	-8.85655
▁Object	-8.85667
BorderFactory	-8.8568
roblemi	-8.8568
▁True	-8.8568
▁constructor	-8.85688
▁associato	-8.85696
▁site	-8.85704
5	-8.85712
▁options	-8.85714
▁delete	-8.85731
JButton	-8.86025
assenza	-8.86309
OK	-8.86371
classroom	-8.86419
eGeneriche	-8.86865
"./	-8.8691
▁(5,	-8.87187
▁loggedUser	-8.87436
▁nell	-8.87447
=0;	-8.87752
▁image	-8.8805
▁pTurista	-8.88107
)));	-8.88298
PuntiDiRistoro	-8.88661
▁cancella	-8.88856
▁Name	-8.88876
one	-8.88949
6.	-8.89242
▁menu	-8.89507
Border	-8.89563
▁dettagli	-8.89659
▁description	-8.89721
▁Remote	-8.89734
Nome	-8.89928
▁sogg	-8.90567
[2].	-8.90574
getNumStanz	-8.90904
▁BeanTag	-8.91039
h	-8.91055
ID	-8.91334
▁provided	-8.9157
▁funzion	-8.91905
"))	-8.9198
à	-8.92215
▁indirizzo	-8.92307
IGestione	-8.92529
▁BeanVisitaBC	-8.92529
7,	-8.92623
Ricerca	-8.93223
▁file	-8.93483
CLASSROOM	-8.93605
▁passato	-8.93613
▁add	-8.9377
l	-8.93806
Rs	-8.93936
R	-8.94301
BeanVisitaBC	-8.94446
BeanVisitaPR	-8.94694
BeanTurista	-8.94736
▁Data	-8.9485
▁setId	-8.94862
▁","	-8.95607
▁str	-8.95619
FormatException	-8.95688
▁other	-8.95688
▁use	-8.95698
ionManagement	-8.9595
▁(0,	-8.96114
▁BeanPreferenz	-8.96212
▁20)	-8.96595
te	-8.96626
possibile	-8.96882
html	-8.96883
▁run	-8.97188
5.	-8.97259
utilizzata	-8.97281
Address	-8.97823
▁Restaurant	-8.97854
er	-8.97993
getSelectedIndex	-8.98051
no	-8.98148
▁insert	-8.98527
▁Refreshments	-8.98621
▁h	-8.98664
operatore	-8.98671
TION	-8.98745
▁exception	-8.98759
#	-8.98774
manager	-8.99028
UserListItem	-8.99038
];	-8.99287
funzionalit	-8.9934
▁1)	-8.99907
▁Avviso	-8.99988
▁insegnamenti	-8.9999
▁setupPanel	-8.9999
▁tSql	-8.99993
▁punto	-9.00073
▁take	-9.0012
getNome	-9.00218
▁fine	-9.00387
▁disp	-9.00424
anch	-9.00437
▁Fl	-9.00656
▁gli	-9.00703
u	-9.00859
pIdBeneCulturale	-9.00876
Column	-9.01171
▁Inv	-9.01273
indirizzo	-9.01365
Collection	-9.0139
▁parameter	-9.01576
Int	-9.0174
▁T	-9.01804
▁remove	-9.02096
▁giustifica	-9.0216
▁nella	-9.02207
BOTH	-9.02212
way	-9.02212
▁You	-9.02212
fill	-9.02222
▁associated	-9.02224
▁distance	-9.02261
idth	-9.02272
++	-9.02324
▁Servlet	-9.02503
px	-9.02544
setId	-9.02629
(""))	-9.02764
PR	-9.03001
Of	-9.03162
▁comment	-9.03487
▁Prepar	-9.03683
▁Us	-9.03693
From	-9.03704
tRs	-9.03724
address	-9.03783
InternalFrame	-9.04468
▁||	-9.04489
doc	-9.04507
def	-9.04508
▁puntodiristoro	-9.04838
▁login	-9.04915
see	-9.05037
str	-9.05135
16.	-9.05236
ly	-9.05663
▁turista	-9.05766
▁Re	-9.05869
Soggiornante	-9.05917
▁ris	-9.06
addebiti	-9.06062
create	-9.06068
RemoteException	-9.06134
Errore	-9.06662
▁Connect	-9.06793
Im	-9.06795
▁mandat	-9.06813
pBeneCulturaleID	-9.06843
▁btnElimina	-9.06885
▁aRow	-9.07077
▁We	-9.07662
▁temp	-9.07848
("")	-9.08039
▁Qu	-9.08083
Non	-9.08149
st	-9.08184
▁attiva	-9.08258
Java	-9.0841
The	-9.08644
aus	-9.08671
▁notifica	-9.09188
▁information	-9.09191
▁block	-9.09234
ryFieldException	-9.09244
Value	-9.0933
▁pagella	-9.09467
mpe	-9.09528
2;	-9.09671
Statement	-9.108
▁interro	-9.10827
Addebito	-9.10981
num	-9.1103
BeanPreferenz	-9.11031
getColumn	-9.11107
▁Pnom	-9.1163
▁management	-9.1163
▁due	-9.11633
▁datiPR	-9.11807
▁visualizzare	-9.1192
▁username	-9.12145
▁[0]	-9.12349
Visualizza	-9.12436
▁Errore	-9.12555
▁3.	-9.12737
▁contain	-9.13062
setLast	-9.13108
V	-9.1312
▁anno	-9.13121
▁Al	-9.13166
▁[1]	-9.13204
Line	-9.13366
Float	-9.13445
Annulla	-9.13602
▁column	-9.13754
▁getId	-9.13936
c	-9.14078
▁Add	-9.14137
▁effettuato	-9.14155
(""+	-9.14202
▁inserire	-9.14252
▁row	-9.14318
▁btnAzzera	-9.14412
▁Note	-9.1451
▁ManagerVotes	-9.14736
▁B	-9.14835
▁close	-9.14968
▁nota	-9.15038
▁su	-9.15851
Commento	-9.16064
▁th	-9.16238
▁="	-9.1624
lease	-9.16631
DATI	-9.16694
piatto	-9.16694
▁confirmation	-9.16695
▁initialization	-9.16706
▁insertion	-9.16716
▁Verifica	-9.16717
▁root	-9.16778
▁figlio	-9.16819
▁position	-9.16901
▁Elimina	-9.17148
▁settare	-9.17208
▁Search	-9.17249
▁no	-9.17327
th	-9.18188
▁ex	-9.18837
puntodiristoro	-9.18917
Color	-9.18928
sione	-9.1899
▁Requisit	-9.18996
▁rest	-9.19198
▁registro	-9.19326
eccezione	-9.19336
7	-9.19345
getInizio	-9.19361
▁8	-9.19402
▁No	-9.19405
▁+)	-9.19489
▁To	-9.19533
▁Otten	-9.19708
6	-9.19748
▁Cerca	-9.19791
PuntoDiRistoroID	-9.198
)){	-9.19867
▁println	-9.19972
Note	-9.20853
ag	-9.21245
▁JDesktopPane	-9.2125
0)	-9.21322
▁n	-9.21502
year	-9.21679
Lista	-9.21689
BeanNews	-9.21702
float	-9.21705
remove	-9.21712
conto	-9.21725
()))	-9.21852
[11]	-9.22029
▁requisiti	-9.22049
▁ritardo	-9.22161
10	-9.22375
▁char	-9.22509
32.	-9.22925
▁active	-9.23375
▁pTags	-9.24362
Vector	-9.24465
▁sia	-9.24516
class	-9.24523
finally	-9.2457
loc	-9.24571
▁7	-9.24656
lista	-9.24685
▁brea	-9.24733
▁Heritage	-9.24806
▁research	-9.24806
▁property	-9.24806
primo	-9.24806
generate	-9.24839
images	-9.24844
▁TODO	-9.24943
eph	-9.25005
▁Gestione	-9.25192
▁textGuida	-9.25299
▁runs	-9.25636
▁tRs	-9.25815
▁svolt	-9.25927
▁pRs	-9.2613
▁BeanTurista	-9.26199
▁getClass	-9.26525
▁setta	-9.27236
▁pPosizione	-9.27488
Auto	-9.27491
▁Seleziona	-9.27519
8	-9.27647
▁connessioni	-9.27663
OPTION	-9.27665
▁notification	-9.27667
▁datiBC	-9.27699
▁102,	-9.27785
▁cancel	-9.27797
▁btnSalva	-9.27805
idPuntoDiRistoro	-9.27904
▁preferences	-9.28036
48	-9.28094
▁And	-9.28115
test	-9.2836
Tag	-9.28378
▁extract	-9.28578
,"	-9.29355
▁JToolBar	-9.29473
▁test	-9.2955
up	-9.29702
:"	-9.29912
▁fa	-9.29972
Extra	-9.30118
archivio	-9.30296
0	-9.3032
java	-9.30559
▁StringBuffer	-9.30604
▁parametro	-9.30604
▁richiesta	-9.30604
▁logic	-9.30605
▁setVisible	-9.30614
height	-9.30615
Comune	-9.30619
▁attori	-9.30625
getFine	-9.30637
userManagement	-9.30668
▁Azione	-9.3073
▁Constructor	-9.30772
▁create	-9.30787
▁<0)	-9.30804
▁one	-9.3081
DE	-9.30883
▁Requisito	-9.30975
Banner	-9.31038
11	-9.3153
▁crea	-9.31697
▁ee	-9.31803
▁trova	-9.32092
name	-9.32244
▁relat	-9.32252
▁activate	-9.32544
le	-9.32551
[3].	-9.32598
os	-9.32783
""	-9.32892
▁Result	-9.32981
JScrollPane	-9.33247
▁clos	-9.33289
▁ne	-9.33347
▁compren	-9.33409
Type	-9.33475
corr	-9.33512
Duplicate	-9.33635
bevanda	-9.33635
▁request	-9.33635
contorno	-9.33635
▁lettura	-9.33635
persist	-9.33638
▁messaggio	-9.33641
BeanBanner	-9.33642
HashMap	-9.33643
▁Preferences	-9.33646
▁ca	-9.33646
▁each	-9.33647
▁piu	-9.33648
Object	-9.33655
▁sito	-9.33733
▁btnRicerca	-9.33883
▁count	-9.33965
▁pEvent	-9.34025
mente	-9.34506
▁exceptions	-9.34684
▁IGestione	-9.34786
Votes	-9.35267
▁line	-9.35587
ca	-9.35667
▁2.	-9.35707
▁Id	-9.358
▁gi	-9.35813
H	-9.35825
▁visit	-9.35858
▁JInternalFrame	-9.35978
▁base	-9.36005
DiRicerca	-9.36191
rid	-9.36252
Description	-9.3654
[4]	-9.36606
▁!	-9.36649
version	-9.36693
▁term	-9.3671
▁gestione	-9.36727
Commissionamento	-9.3676
EAST	-9.3676
▁False	-9.3676
▁inseriti	-9.3676
▁pulsanti	-9.3676
▁setup	-9.36851
servizio	-9.36857
text	-9.36892
ctors	-9.36903
Utility	-9.36904
public	-9.36906
▁12)	-9.37227
▁have	-9.37442
▁oggetto	-9.37652
▁Aggiungi	-9.38027
ActionListener	-9.38083
▁current	-9.38545
▁3;	-9.3862
12	-9.38664
Frame	-9.38815
▁control	-9.38829
▁Turista	-9.38937
▁JTable	-9.38953
co	-9.39208
getP	-9.39284
table	-9.39554
▁quantita	-9.39604
▁sta	-9.39725
▁page	-9.39729
()));	-9.39747
▁cell	-9.39807
nexpected	-9.39969
getItemCount	-9.39986
▁CheckboxGroup	-9.39986
▁remote	-9.39986
▁Mart	-9.39986
▁submit	-9.39987
▁given	-9.39992
▁pUsername	-9.40008
Hashtable	-9.40026
▁It	-9.40178
Serializable	-9.4019
DataBase	-9.40233
▁driver	-9.40238
tables	-9.40532
▁pStr	-9.40693
ive	-9.40735
▁PPuntoDiRistoro	-9.40878
▁back	-9.41088
m	-9.4137
▁0.	-9.41435
To	-9.41618
▁-1	-9.41776
▁Stanza	-9.4192
8,	-9.41941
▁(12	-9.42002
▁Absence	-9.42361
▁Verif	-9.42424
ContentPane	-9.43273
▁agency	-9.43319
JTextPane	-9.43319
room	-9.43353
insert	-9.43361
give	-9.43406
ValueAt	-9.43409
ResultSet	-9.43414
▁='"	-9.43468
Double	-9.43495
▁location	-9.43525
student	-9.43606
▁quell	-9.43733
▁year	-9.43745
al	-9.43798
▁values	-9.4394
14	-9.44
▁managerTeaching	-9.44188
▁array	-9.44348
B	-9.44488
7.	-9.44965
▁gridbag	-9.45153
▁operations	-9.45539
Justify	-9.46323
▁Pi	-9.46448
▁room	-9.46451
▁Serializable	-9.46549
▁classi	-9.46677
TEACHING	-9.46706
▁caratteri	-9.46767
▁recuperare	-9.46767
SwingConstants	-9.46767
soggiornanti	-9.46767
prox	-9.46768
▁viene	-9.46768
executeQuery	-9.46768
PerPagina	-9.4689
▁scherma	-9.46893
date	-9.46923
▁pIdPreferenza	-9.4693
▁cambio	-9.47048
da	-9.47068
▁pi	-9.47192
quantita	-9.47211
padre	-9.47251
▁path	-9.47273
execute	-9.47342
▁terms	-9.47469
stag	-9.47475
]);	-9.47485
▁ManagerAddress	-9.47726
▁Confirm	-9.47831
▁addebiti	-9.47894
+"	-9.47923
br	-9.48144
eDiRicerca	-9.48146
▁validit	-9.4816
Advertisement	-9.48186
▁html	-9.48352
albergo	-9.48905
ce	-9.49094
▁>	-9.49122
▁Test	-9.49375
▁pRow	-9.49503
[5].	-9.49619
▁teaching	-9.49802
▁do	-9.50055
show	-9.50331
▁H	-9.50334
addMouse	-9.50339
▁255)	-9.50339
▁Convention	-9.50339
▁Interface	-9.50339
▁function	-9.50339
▁rightPanel	-9.50339
executeUpdate	-9.50341
▁PKeyword	-9.50343
▁identifier	-9.50344
▁successfully	-9.50364
▁bene	-9.50365
▁statistiche	-9.50365
▁carica	-9.50366
NumeroElementi	-9.50373
▁condizioni	-9.50419
▁deleted	-9.50488
▁datiTurista	-9.5051
ario	-9.50576
justify	-9.5059
▁tableBC	-9.50659
▁pResultSet	-9.50684
▁Con	-9.50777
votes	-9.50881
pTags	-9.50916
jLabel	-9.50964
accesso	-9.50972
+	-9.51276
▁pColumn	-9.51939
Delay	-9.51976
3;	-9.52108
▁BeanVisitaPR	-9.52113
▁student	-9.52369
managerClassroom	-9.52553
▁prima	-9.5274
▁lo	-9.52857
▁arg	-9.53473
ono	-9.53504
Cod	-9.53783
▁(18	-9.53975
▁Database	-9.5404
Salva	-9.54041
ipad	-9.54042
lang	-9.54042
▁notify	-9.54042
▁comm	-9.54059
Letto	-9.54062
Pos	-9.5407
sente	-9.54107
▁btnAttiva	-9.54111
▁edit	-9.54263
▁StringTokenizer	-9.54472
TEST	-9.54592
▁address	-9.5461
amministratore	-9.54694
exists	-9.54736
getAcademicYear	-9.54746
[12]	-9.5477
stanze	-9.54791
ask	-9.54899
▁Classe	-9.55194
==	-9.55221
▁end	-9.55243
▁classroom	-9.5577
▁presente	-9.55933
[0],	-9.56113
)))	-9.56387
bc	-9.57007
Comm	-9.573
▁Operatore	-9.57356
Empty	-9.57403
Component	-9.57528
OR	-9.57562
▁allow	-9.57834
ir	-9.57845
▁project	-9.57865
Count	-9.57878
VOTES	-9.57888
UtentiRegistrati	-9.57889
▁who	-9.57898
▁pensione	-9.5793
in	-9.57932
▁can	-9.57934
(){	-9.57956
▁dialog	-9.57959
▁tableTuristi	-9.57963
[4].	-9.58062
▁giorno	-9.58209
▁(0)	-9.58249
▁dato	-9.58275
▁province	-9.58454
nte	-9.58456
▁modificare	-9.58492
▁mo	-9.58531
▁40	-9.58677
clienti	-9.58735
pVotes	-9.5875
▁card	-9.58756
▁pPassword	-9.5878
prenotazione	-9.58795
▁Select	-9.5882
▁!(	-9.58872
+1	-9.58913
▁View	-9.59084
getNum	-9.59182
ul	-9.59299
gisterManagement	-9.59397
▁changed	-9.59481
getName	-9.59785
▁present	-9.59908
▁tot	-9.60098
▁was	-9.60228
13	-9.60264
List	-9.60428
▁valid	-9.6047
▁Classroom	-9.60791
1)	-9.60871
▁inizio	-9.60956
▁note	-9.61193
pId	-9.61433
ical	-9.61618
▁Lista	-9.61717
//	-9.61726
setNome	-9.61824
▁select	-9.61886
Valuta	-9.61888
eparator	-9.61888
group	-9.61888
▁Steps	-9.61888
▁orarioApertura	-9.61888
▁orarioChiusura	-9.61888
▁duplicate	-9.61914
▁Preconditions	-9.61928
▁good	-9.62087
▁today	-9.62098
▁Un	-9.62149
▁setPreferred	-9.6234
absence	-9.62354
ElementiRicerca	-9.62465
DI	-9.62621
base	-9.62742
getDescrizione	-9.62841
▁desk	-9.62862
supp	-9.629
JInternalFrame	-9.62935
Punto	-9.62949
pannello	-9.62951
pRow	-9.62966
catch	-9.62979
IdTurista	-9.63037
▁Ma	-9.63105
OperatoreAgenzia	-9.63198
Year	-9.63202
▁'"	-9.63205
▁component	-9.6337
tf	-9.63564
▁Tourists	-9.63852
▁5)	-9.64481
Changed	-9.64529
▁insegnamento	-9.64687
removeAll	-9.65003
▁IdTurista	-9.6503
g	-9.65298
▁getName	-9.65407
Disp	-9.65733
Preferit	-9.65741
OrarioApertura	-9.65797
M	-9.65854
1;	-9.65861
Longitudine	-9.65884
Latitudine	-9.65887
licca	-9.6603
Form	-9.66051
pDistanzaMassima	-9.66055
▁docente	-9.66055
▁want	-9.66055
Commissioni	-9.66055
Specifi	-9.66055
▁finestra	-9.66061
▁received	-9.66107
▁reg	-9.66119
RSO	-9.66122
pg	-9.66142
secondo	-9.66161
▁aver	-9.66187
▁ev	-9.66254
▁btnAnnulla	-9.66265
▁relativo	-9.66371
▁2009	-9.66548
▁logged	-9.6662
▁startA	-9.6665
delay	-9.66685
▁Insert	-9.66709
▁account	-9.66807
▁rating	-9.67078
loadRecord	-9.67106
Delete	-9.67276
JDesktopPane	-9.67286
JTextField	-9.67315
MessageDialog	-9.67325
has	-9.67362
▁mostra	-9.674
BC	-9.6741
pTeaching	-9.67503
▁pMessage	-9.67662
Text	-9.6781
▁images	-9.67873
▁whe	-9.67903
▁JTabbedPane	-9.67903
▁font	-9.67906
▁Address	-9.67974
▁sup	-9.68145
▁objects	-9.68226
▁px	-9.6834
▁Value	-9.68376
amo	-9.68495
FORMAT	-9.68871
▁used	-9.68972
▁day	-9.69101
ListSelection	-9.69105
ena	-9.6924
▁--	-9.69414
llo	-9.6951
▁bc	-9.69533
▁Tag	-9.699
▁validi	-9.69985
Size	-9.69998
OrarioChiusura	-9.70148
ackground	-9.70395
BEAN	-9.70403
▁FinteVisite	-9.70403
▁heritage	-9.70403
antipasto	-9.70403
cibo	-9.70403
▁desktop	-9.70403
▁richiesto	-9.70403
▁corretta	-9.70404
▁jPanel	-9.70404
▁writeDati	-9.70405
▁searchPanel	-9.70423
pr	-9.70433
▁issued	-9.70444
Provincia	-9.70473
▁Carica	-9.70483
PRE	-9.70508
age	-9.70581
="./	-9.70599
▁tutti	-9.70654
▁Change	-9.70679
▁Input	-9.70757
▁thrown	-9.70931
▁Event	-9.71059
▁Pnews	-9.71352
▁pBanner	-9.7141
cambiare	-9.71614
▁phone	-9.71618
sFrom	-9.7164
▁time	-9.71659
▁sull	-9.71668
Iterator	-9.71744
▁Cancella	-9.71846
ImageIcon	-9.71863
JTable	-9.71896
tel	-9.71916
idClassroom	-9.72044
Username	-9.72073
▁relativ	-9.72084
▁Boolean	-9.72205
addS	-9.72272
IdJustify	-9.72531
aximum	-9.72797
▁TableModel	-9.72963
AcademicYear	-9.73061
▁k	-9.73476
▁absence	-9.737
string	-9.73829
▁its	-9.7385
▁corrispondent	-9.74689
Values	-9.7479
KeyEvent	-9.74829
Cour	-9.74881
JUSTIF	-9.74885
ADDRESS	-9.74948
TEACHER	-9.74948
TuristaClient	-9.74948
hasNext	-9.74948
▁functionality	-9.74948
▁pannelli	-9.74948
▁layer	-9.74949
Pren	-9.7495
▁Util	-9.74951
ICA	-9.74953
CU	-9.74956
▁soggiorno	-9.74958
gif	-9.74964
alb	-9.74971
▁maximum	-9.74984
Attac	-9.74985
▁(107	-9.74986
TE	-9.75003
▁toolbar	-9.75015
▁dataVisita	-9.75032
▁desc	-9.75034
▁pStringa	-9.75113
▁cap	-9.75268
▁Display	-9.75323
isEmpty	-9.75527
ier	-9.75603
MediaVoti	-9.75699
▁esiste	-9.75764
▁For	-9.75804
▁presenti	-9.75829
▁managerRegister	-9.75928
Dati	-9.75932
▁indirizzoPR	-9.75949
day	-9.7598
▁days	-9.76006
Number	-9.76139
note	-9.76282
9,	-9.76315
FR	-9.76455
▁teachingList	-9.76533
pClassroom	-9.76554
Inserimento	-9.76562
prima	-9.76578
ON	-9.76603
else	-9.76655
an	-9.76722
getDate	-9.76989
▁Inserisc	-9.77151
POS	-9.77259
▁Prenotazione	-9.77304
errore	-9.77359
","	-9.77538
▁Inserisci	-9.77798
▁Inserimento	-9.78047
▁Compila	-9.78284
▁rilascia	-9.78454
▁15	-9.78717
Teacher	-9.78938
▁tabella	-9.79002
IdPreferenz	-9.7948
▁par	-9.79529
Cancel	-9.79706
Output	-9.79709
SOUTH	-9.7971
Amora	-9.7971
▁riposo	-9.7971
▁collection	-9.79711
Tel	-9.79711
▁Giu	-9.79716
▁qualità	-9.79717
▁altrimenti	-9.79717
▁(51,	-9.79718
▁should	-9.79734
▁passed	-9.79757
="+	-9.79768
▁default	-9.79798
▁view	-9.79798
▁particular	-9.79798
DataVisita	-9.79825
▁prezzo	-9.79849
▁deskSize	-9.79956
▁accetta	-9.79963
▁inComune	-9.80051
▁email	-9.80122
▁Cri	-9.80269
▁accademic	-9.80392
▁File	-9.80665
lio	-9.80698
▁Final	-9.80827
-1;	-9.80841
▁setIcon	-9.81117
Categoria	-9.81145
Prepar	-9.81267
@	-9.81311
write	-9.81446
NUM	-9.8146
used	-9.81483
ch	-9.81502
Edit	-9.81533
academicYear	-9.81556
current	-9.8158
boolean	-9.81629
numero	-9.81637
JToolBar	-9.81642
JComboBox	-9.81683
▁!((	-9.81839
▁12),	-9.81856
▁possibile	-9.81861
▁addebito	-9.81997
AL	-9.8258
▁academicYear	-9.8262
▁Stabil	-9.83134
▁returned	-9.83415
▁Crea	-9.83624
▁clienti	-9.83684
▁Delay	-9.83909
▁pTeaching	-9.83927
▁variable	-9.84007
16	-9.84081
TabbedPane	-9.84105
Conto	-9.84128
▁exists	-9.84148
▁frames	-9.84215
etSelectedIndex	-9.84321
▁votes	-9.84435
▁dovr	-9.84676
Adapter	-9.8469
STAGIONE	-9.8471
▁supplied	-9.8471
▁Load	-9.8471
Savepoint	-9.84711
▁soggiornante	-9.84711
▁running	-9.84711
▁ogni	-9.84714
▁fields	-9.84717
▁speculative	-9.84718
▁poter	-9.84729
▁questa	-9.84738
▁Parameter	-9.84803
immagine	-9.84812
▁tableNews	-9.84819
MascheraAddebiti	-9.84865
▁elements	-9.84891
▁MODIFICA	-9.84951
▁inserito	-9.84961
▁performance	-9.84962
▁TablePr	-9.84962
▁flag	-9.84962
▁treeBanner	-9.84963
▁eventserver	-9.84978
Convenzione	-9.84995
setColumn	-9.84996
AS	-9.85078
getCognome	-9.85273
18	-9.85275
▁aggiorna	-9.85377
▁nomePR	-9.85548
▁Attore	-9.85602
▁pos	-9.8602
▁Addebito	-9.86072
▁3),	-9.86077
Location	-9.86106
▁parameters	-9.86176
Label	-9.86298
▁newVotes	-9.86467
▁turn	-9.86486
Modifica	-9.86549
list	-9.86716
▁ric	-9.86739
was	-9.86837
temp	-9.86856
nome	-9.86875
ManagerTeaching	-9.86876
Visualizzazione	-9.86892
JLabel	-9.86893
ate	-9.86954
pAbsence	-9.87011
SchedaBC	-9.87243
▁ch	-9.87333
▁-1)	-9.87558
▁Categoria	-9.87961
▁Edit	-9.87973
20,	-9.88556
15,	-9.88641
▁res	-9.88679
pBC	-9.88798
">	-9.88997
▁necessari	-9.89534
▁Release	-9.89616
▁tutt	-9.89735
Addebiti	-9.89777
▁process	-9.8982
▁seleziona	-9.89878
Numero	-9.89897
▁open	-9.89898
▁exceed	-9.89906
▁preferenze	-9.89966
ntDataManagement	-9.89973
MutableTreeNode	-9.89973
castRemoteObject	-9.89973
izable	-9.89973
terio	-9.89973
▁etichette	-9.89973
▁inserita	-9.89973
▁chiede	-9.89974
▁frequency	-9.89977
QU	-9.8998
▁transaction	-9.8998
▁cancellation	-9.89985
INSER	-9.89995
▁prSlider	-9.89995
▁pref	-9.90057
▁giornoChiusura	-9.90072
▁periodo	-9.90075
▁city	-9.90076
▁BeanBanner	-9.90082
▁0.3	-9.90091
▁Banner	-9.90107
▁selezionata	-9.9012
tramite	-9.90122
NTO	-9.90129
3>	-9.90144
ne	-9.90196
▁Modify	-9.90239
▁aLabel	-9.90493
Scheda	-9.90494
Constraints	-9.90589
▁statistics	-9.90776
ose	-9.90787
▁pannelloTag	-9.90805
▁pDescrizione	-9.90846
0.	-9.91028
▁Stat	-9.91041
getBtn	-9.91109
Operatore	-9.9115
8.	-9.91364
▁there	-9.91538
▁G	-9.91603
TableModel	-9.91723
image	-9.91801
put	-9.91856
Email	-9.91895
BeniServizi	-9.92023
▁getColumn	-9.92038
alunno	-9.92235
prepare	-9.92268
load	-9.92281
getT	-9.92305
File	-9.92309
(0)	-9.92316
pTermine	-9.92401
turista	-9.92408
▁stata	-9.9242
password	-9.92435
▁((!	-9.92497
▁associati	-9.92585
selectedRow	-9.92679
update	-9.92782
▁All	-9.92982
▁News	-9.93454
ally	-9.94022
▁mod	-9.94093
Dettagli	-9.941
TagComune	-9.94137
▁Scegli	-9.94265
ast	-9.94523
asks	-9.94538
ER	-9.94599
▁preference	-9.949
CH	-9.94988
etween	-9.95051
▁support	-9.9519
Warning	-9.95202
Turn	-9.95264
ensionamento	-9.95351
▁Priorit	-9.95421
▁obtain	-9.95471
▁Category	-9.95502
▁Votes	-9.95509
Scroll	-9.95511
▁Genera	-9.95514
▁main	-9.95519
Stagionalita	-9.95529
▁ELIMINA	-9.95529
BANNER	-9.95529
TIMEOUT	-9.95529
▁again	-9.95529
▁particolare	-9.95529
0,0,0,0	-9.9553
▁modifiche	-9.95531
▁numeroVoti	-9.95532
▁jButton	-9.95537
▁ristorante	-9.95538
Supplemento	-9.95538
JToggleButton	-9.95541
▁startConferma	-9.95549
▁entered	-9.95557
▁obtained	-9.95587
▁valore	-9.95598
redefined	-9.95618
▁banners	-9.95626
▁content	-9.95632
▁identificat	-9.95633
▁campi	-9.95642
▁disponibilita	-9.95679
▁queryID	-9.9572
▁ottieniNumero	-9.95722
▁categories	-9.95734
setBackground	-9.95745
▁correct	-9.95887
▁cancellazione	-9.95945
▁Tipo	-9.95993
▁getBtn	-9.96194
▁month	-9.96258
pPosizioneUtente	-9.96294
▁BeanNews	-9.96448
▁toString	-9.96527
▁caratteristiche	-9.96546
▁link	-9.96547
▁testoNews	-9.96549
▁tmp	-9.96552
▁alto	-9.9664
▁first	-9.96712
Selezionare	-9.96844
ove	-9.96959
▁14))	-9.97051
▁conf	-9.97066
▁Path	-9.97105
2>	-9.97296
▁JTextArea	-9.97478
▁btnVisualizza	-9.97578
ri	-9.97649
▁size	-9.97763
ct	-9.97977
Attiva	-9.98003
iterator	-9.98034
active	-9.98062
checkbox	-9.98211
inserimento	-9.98218
caller	-9.98237
ManagerRegister	-9.98307
requirement	-9.98312
unzionale	-9.985
▁pr	-9.98585
▁state	-9.98596
▁load	-9.9875
▁qual	-9.98753
▁so	-9.99105
23	-9.99285
")),	-9.99333
▁points	-9.99532
getTeaching	-9.99595
ized	-9.99971
di	-10.0022
izzare	-10.005
▁delay	-10.0053
▁car	-10.0074
▁character	-10.0076
24	-10.0076
▁Justify	-10.0081
Selection	-10.0093
nt	-10.0113
Via	-10.0117
▁execut	-10.0118
AccademicYear	-10.0122
▁confirm	-10.0124
OG	-10.0127
▁disponibili	-10.0133
▁receive	-10.0134
▁store	-10.0134
()+"	-10.0135
ora	-10.0135
tml	-10.0139
etSelectedItem	-10.014
scheda	-10.0141
Bar	-10.0141
convert	-10.0141
BAR	-10.0141
egorianCalendar	-10.0141
BENE	-10.0141
CULTURALE	-10.0141
Phnom	-10.0141
Registry	-10.0141
▁Where	-10.0141
▁managing	-10.0141
▁parametri	-10.0141
▁stmt	-10.0141
▁later	-10.0141
▁precedente	-10.0141
▁impact	-10.0142
▁toolbarSchedaBC	-10.0142
▁stagione	-10.0142
▁modal	-10.0142
▁record	-10.0143
▁momento	-10.0143
▁PTags	-10.0145
▁eliminare	-10.0146
▁2)	-10.0147
▁PPosizione	-10.0149
▁jTextPane	-10.0152
▁servizio	-10.0153
▁btnEliminaBC	-10.0154
ableCellRenderer	-10.0156
▁inserted	-10.0158
mot	-10.0163
▁spes	-10.0168
▁controllo	-10.0172
ottieniPreferenz	-10.0172
▁pNumeroPagina	-10.0174
▁corrispondente	-10.0176
▁30	-10.018
▁Default	-10.0187
▁register	-10.019
▁myCheckbox	-10.019
▁pass	-10.0191
locale	-10.0197
▁>=	-10.0222
▁tempo	-10.0228
24.	-10.0231
▁cognome	-10.0247
▁min	-10.0261
tive	-10.0264
▁pPuntoDiRistoro	-10.027
***************	-10.0288
it	-10.0308
▁3)	-10.0309
▁we	-10.0311
▁Cancellazione	-10.0315
Compilato	-10.032
▁',	-10.0327
10.	-10.0364
▁stub	-10.037
▁appen	-10.0388
SI	-10.0418
canc	-10.0435
showInternal	-10.0442
mr	-10.0445
Const	-10.0448
BeanConvenzione	-10.0449
▁Const	-10.0451
Conferma	-10.0454
ricerca	-10.0455
selected	-10.0456
check	-10.0458
session	-10.0458
unisa	-10.0458
pNote	-10.046
mo	-10.0472
are	-10.0527
▁[3]	-10.0529
con	-10.0591
lo	-10.0619
getData	-10.063
▁conta	-10.0646
▁Disponibilita	-10.0655
▁Subscriber	-10.0659
Row	-10.0676
▁vote	-10.0703
IP	-10.0712
▁Implement	-10.0715
isDirector	-10.0719
▁pPreferenza	-10.0722
▁config	-10.0735
▁operator	-10.0737
Posizione	-10.074
GiornoChiusura	-10.0743
lementiPerPagina	-10.0744
ze	-10.0747
▁find	-10.0759
▁err	-10.076
▁btnReset	-10.0761
K	-10.0762
▁modifi	-10.0763
▁pane	-10.0765
Upload	-10.0766
▁success	-10.0766
▁Etichetta	-10.0766
Room	-10.0766
DATE	-10.0766
Rectangle	-10.0766
oftware	-10.0766
▁LIKE	-10.0766
▁Otherwise	-10.0766
▁assenze	-10.0766
▁communicat	-10.0766
▁inesistente	-10.0766
whi	-10.0766
▁authenticated	-10.0766
ROLL	-10.0766
▁attive	-10.0766
▁fornito	-10.0767
reparedStatement	-10.0769
▁modification	-10.0769
setSelected	-10.0769
▁esistente	-10.077
stituisc	-10.077
▁same	-10.0771
G	-10.0771
▁attribute	-10.0771
▁registered	-10.0772
figura	-10.0773
▁"""";	-10.0773
▁panelHelp	-10.0773
▁Activate	-10.0778
▁btnSchedaBC	-10.0778
=1;	-10.078
▁Per	-10.0785
▁bread	-10.0796
▁place	-10.0798
F	-10.081
▁tra	-10.0813
▁corrente	-10.0819
▁cancellaTag	-10.0822
istaSoggiornanti	-10.083
getS	-10.0832
▁[5]	-10.0832
▁Immagine	-10.0833
▁pVia	-10.0836
▁textbox	-10.084
)).	-10.0843
▁compost	-10.0856
▁thisEvent	-10.0879
▁pTagID	-10.0881
▁scadenza	-10.0881
lus	-10.09
▁Richiest	-10.0906
SC	-10.0913
▁cre	-10.0935
▁pIdUser	-10.095
▁Li	-10.0955
▁setText	-10.0958
▁ControlloDati	-10.0967
▁getTime	-10.0967
▁modella	-10.1
▁choice	-10.103
▁Requirement	-10.1044
All	-10.1047
▁UserListItem	-10.1051
tale	-10.1056
start	-10.1075
>();	-10.1079
▁Teaching	-10.1081
DBPuntoDiRistoro	-10.1101
▁tr	-10.1102
City	-10.1104
25	-10.1105
▁checkbox	-10.1114
9.	-10.1119
addebito	-10.1119
▁Attiva	-10.1121
btnModifica	-10.1121
cliente	-10.1123
Amministratore	-10.1123
label	-10.1125
dispose	-10.1127
12.	-10.1135
▁tu	-10.1174
rial	-10.1188
anda	-10.12
▁co	-10.1212
▁pAbsence	-10.1219
IdAddress	-10.1238
▁Model	-10.1246
sup	-10.1257
▁")"	-10.1257
▁justify	-10.1307
▁autentica	-10.1338
▁im	-10.1347
▁r	-10.1349
mail	-10.1362
▁execute	-10.1363
▁feature	-10.1367
Socket	-10.14
▁insufficient	-10.1402
▁messag	-10.1404
▁send	-10.1414
▁desiderat	-10.1415
▁[2]	-10.1418
▁Description	-10.142
Registrazione	-10.1421
▁desidera	-10.1424
▁Err	-10.1426
auro	-10.143
▁abbia	-10.1431
IST	-10.1433
Agg	-10.1433
convenien	-10.1433
▁transazione	-10.1433
▁btnInsertModify	-10.1433
warning	-10.1433
PoolDataSource	-10.1433
isVisible	-10.1433
YES	-10.1433
▁helpPanel	-10.1433
UP	-10.1433
▁but	-10.1433
ontoRistorazione	-10.1433
▁elimination	-10.1433
ManagerException	-10.1434
▁genStat	-10.1434
▁eseguito	-10.1434
▁massimo	-10.1436
completa	-10.1439
▁stored	-10.1441
▁pIdTag	-10.1442
ORD	-10.1443
▁done	-10.1446
▁toolbarPR	-10.1447
▁btnModificaBC	-10.1448
▁editing	-10.1448
▁formNews	-10.1449
▁insufficienti	-10.1464
ESTION	-10.1464
▁BCToolbar	-10.1467
▁port	-10.1472
▁Nel	-10.1474
idStudent	-10.1475
Fields	-10.1475
▁figli	-10.1478
▁Indietro	-10.1489
▁Assegna	-10.1489
▁relevan	-10.1492
▁pTelefono	-10.1497
ato	-10.1504
▁then	-10.1505
▁pProvincia	-10.1514
▁action	-10.1533
▁pu	-10.1538
▁questo	-10.154
▁classroomList	-10.1558
▁ottieniTag	-10.1559
▁Thread	-10.1578
▁us	-10.1582
Class	-10.1582
▁totale	-10.1585
▁help	-10.1602
▁DeskManager	-10.1602
tabilit	-10.1639
▁pAcademicYear	-10.1649
▁into	-10.1652
▁title	-10.167
▁costo	-10.1671
▁200	-10.1678
▁9	-10.1681
PID	-10.1682
▁De	-10.1687
TA	-10.1693
▁(!(	-10.1711
17	-10.1725
▁report	-10.1739
▁update	-10.1743
la	-10.1747
▁BeanOperatore	-10.1761
21	-10.1765
RegisterLine	-10.1786
▁qua	-10.1808
turn	-10.1811
▁caller	-10.1814
Inseri	-10.1814
Open	-10.1818
Termine	-10.1819
azione	-10.1828
call	-10.183
report	-10.183
▁length	-10.1833
jContentPane	-10.1843
▁pTermine	-10.1847
▁pDate	-10.1851
Cognome	-10.1853
▁funzionalit	-10.1866
▁statement	-10.1889
▁(3,	-10.1905
WA	-10.1913
▁total	-10.1914
JTabbedPane	-10.1919
Menu	-10.193
▁de	-10.197
olic	-10.1995
▁Component	-10.2004
▁st	-10.2009
serisciPreferenz	-10.2025
Stringa	-10.2033
Tab	-10.2038
▁show	-10.2044
▁ed	-10.2085
▁thread	-10.2086
;//	-10.2095
▁equal	-10.2096
],	-10.2105
Document	-10.211
Voto	-10.2111
▁ruol	-10.2115
▁Ga	-10.2118
ING	-10.2124
▁bas	-10.2133
▁include	-10.2144
DesktopPane	-10.2145
eight	-10.2147
EBShape	-10.2147
Holdability	-10.2147
YetException	-10.2147
▁"','"	-10.2147
▁INSERISCI	-10.2147
▁alunni	-10.2147
▁mediaVoti	-10.2147
▁selezione	-10.2147
▁window	-10.2147
EBT	-10.2147
pologi	-10.2147
▁anni	-10.2147
▁about	-10.2147
▁switch	-10.2147
▁readDati	-10.2147
substring	-10.2147
▁renderer	-10.2148
▁statTotali	-10.2148
▁outStream	-10.2148
Posti	-10.2148
getSelectedItem	-10.2148
MouseEvent	-10.215
▁evdStat	-10.215
Closing	-10.2151
▁projectName	-10.2152
▁according	-10.2152
▁managerVotes	-10.2152
Identifier	-10.2152
▁sent	-10.2154
▁included	-10.2155
▁controlli	-10.2156
▁Controllo	-10.216
▁btnSostituisci	-10.2161
▁eliminazione	-10.2163
Option	-10.2163
DBTurista	-10.2164
▁(80	-10.2175
▁btnInserisci	-10.2184
opened	-10.2184
▁scroll	-10.2184
foundSoggiornant	-10.2185
▁up	-10.2188
▁headers	-10.2196
▁save	-10.2201
div	-10.2202
getYear	-10.2202
ve	-10.2207
▁NewsTableModel	-10.2233
▁Fine	-10.2236
YS	-10.2245
▁140	-10.2256
ti	-10.2263
▁PBC	-10.227
29	-10.2295
otice	-10.2298
statMeseCorrente	-10.2299
12,	-10.2315
tImplemented	-10.2334
etAcademicYear	-10.2346
▁closes	-10.2354
▁val	-10.2365
CalcoloConto	-10.2373
▁Notification	-10.2378
▁Man	-10.2382
("",4	-10.2425
▁Feedback	-10.2437
▁Open	-10.2467
VisitaBC	-10.2476
▁subscribers	-10.2484
▁pAddress	-10.2509
VisitaPR	-10.2532
frame	-10.254
Boolean	-10.254
NumeroVoti	-10.2546
▁inserimento	-10.2552
22	-10.2554
Telefonate	-10.2569
BeanPiatto	-10.2582
getCap	-10.2585
bar	-10.259
BeanMenu	-10.2596
border	-10.2597
choice	-10.2599
&&	-10.26
appen	-10.26
Aggiungi	-10.2604
message	-10.2607
pAddress	-10.2624
13.	-10.2638
getTime	-10.2654
[];	-10.2665
13,	-10.2674
volta	-10.2693
OL	-10.2703
▁addebita	-10.2709
sing	-10.272
▁supp	-10.2743
20	-10.2746
allo	-10.2749
▁amministratore	-10.2781
Pro	-10.2789
▁()!	-10.2817
tion	-10.2823
riverDescription	-10.2834
14.	-10.2839
▁(1)	-10.2861
Statistiche	-10.287
Piatto	-10.288
▁oggett	-10.2883
Prezzo	-10.2891
Case	-10.2902
Source	-10.2903
▁42	-10.291
GES	-10.2914
row	-10.2915
▁tab	-10.2915
▁Post	-10.2916
NEWS	-10.2916
details	-10.2916
▁Access	-10.2916
▁Inizializza	-10.2916
▁PVIS	-10.2916
▁Root	-10.2916
▁Vincen	-10.2916
▁contenente	-10.2916
▁finteVisite	-10.2916
▁utenti	-10.2916
PreferenzaGene	-10.2916
▁Postconditions	-10.2916
ActionPerformed	-10.2916
▁Permette	-10.2916
Enter	-10.2916
abio	-10.2916
relli	-10.2916
▁keyword	-10.2916
▁internalFrame	-10.2917
▁jPanelUp	-10.2917
▁generata	-10.2917
▁frameIcon	-10.2917
▁ebs	-10.2917
▁verr	-10.2917
DISPONIBILE	-10.2917
ket	-10.2918
Aggiornamento	-10.2918
▁risultato	-10.2918
▁online	-10.2918
▁pcap	-10.2918
▁certa	-10.2919
▁GridLayout	-10.2922
cancella	-10.2922
▁entering	-10.2922
Upper	-10.2923
▁convenzione	-10.2924
▁pIdMenu	-10.2925
▁registrato	-10.2928
▁variabili	-10.293
▁flow	-10.2931
▁past	-10.2939
ById	-10.294
▁Controlla	-10.2941
▁rid	-10.2948
setVertical	-10.2949
▁btnEliminaN	-10.2952
eme	-10.2953
▁made	-10.2956
▁order	-10.2956
▁General	-10.2958
204	-10.2958
▁nNote	-10.2959
19	-10.296
▁constraints	-10.2966
getUserBy	-10.2972
▁btnModificaN	-10.2972
▁pStatementSql	-10.2982
▁pCognome	-10.3
adin	-10.3005
▁Uni	-10.3006
▁136	-10.3006
▁calculat	-10.3008
ma	-10.3008
▁any	-10.3014
▁nomeBC	-10.3016
▁Calcolo	-10.3025
▁border	-10.3028
▁agenzia	-10.3039
▁ServletShow	-10.3041
2)	-10.3047
▁args	-10.3054
▁pValue	-10.3062
▁pages	-10.3064
▁Construct	-10.3069
▁33	-10.3086
sSelected	-10.3092
▁pName	-10.3095
▁creates	-10.3097
▁DB	-10.3098
▁Mo	-10.31
▁em	-10.3109
30,	-10.3139
▁At	-10.3149
ostra	-10.317
Driver	-10.3171
▁1]	-10.3181
11.	-10.3195
▁pE	-10.3216
un	-10.3233
Visita	-10.3243
inserisci	-10.3263
▁Configurazione	-10.3274
▁changes	-10.3277
▁param	-10.3301
▁indicate	-10.333
Password	-10.3341
stub	-10.3362
abili	-10.3363
Default	-10.3371
Requirement	-10.3377
▁Is	-10.3391
comitiva	-10.3394
pParoleChiave	-10.3412
coperti	-10.3413
Phone	-10.3413
26.	-10.3416
scatti	-10.3417
key	-10.3418
"";	-10.342
teacher	-10.3427
tmp	-10.3432
pMessage	-10.3438
Project	-10.3439
banner	-10.3441
etich	-10.3441
▁OK	-10.3442
▁pro	-10.3443
ere	-10.345
cre	-10.3452
pColumn	-10.3464
pos	-10.3486
▁Iterator	-10.3492
(!	-10.3509
▁te	-10.3535
pUser	-10.3539
Property	-10.354
Preferenz	-10.3542
[10]	-10.356
▁ottieniLista	-10.3589
z	-10.3647
▁ai	-10.3651
20.	-10.3656
▁(4)	-10.3675
▁artifact	-10.3681
▁exist	-10.3689
▁Si	-10.369
▁Manager	-10.3693
▁methods	-10.3703
17.	-10.3718
errori	-10.3731
ame	-10.3736
emorizza	-10.3739
Editable	-10.374
DataNascita	-10.3748
▁alert	-10.3749
▁notifiche	-10.375
Concurrency	-10.375
Position	-10.375
scanVector	-10.375
Province	-10.375
SIZE	-10.375
repeat	-10.375
tractTableModel	-10.375
▁filter	-10.375
▁genitore	-10.375
▁indirizzi	-10.375
▁modify	-10.375
▁similarity	-10.375
▁AddEventRect	-10.375
▁btnReimposta	-10.375
▁tasto	-10.375
Cliente	-10.375
▁through	-10.375
▁assert	-10.375
TUR	-10.375
▁toolbarTuristi	-10.375
="""";	-10.375
()+"."+	-10.3751
▁gestioneBC	-10.3751
▁pKeyword	-10.3752
▁basso	-10.3752
campoCompilato	-10.3752
addebitati	-10.3752
▁two	-10.3752
▁driverVector	-10.3752
-04	-10.3753
▁Stor	-10.3753
▁specified	-10.3754
SOL	-10.3759
RicercaStanza	-10.376
▁panelSearch	-10.376
w	-10.3764
▁general	-10.3765
▁controllare	-10.3765
▁empty	-10.3766
▁unique	-10.3766
▁Mich	-10.3769
▁Favorites	-10.3769
▁inserisciTag	-10.3771
▁avvis	-10.3771
▁allowed	-10.3775
▁risultati	-10.3775
▁controlla	-10.3786
▁access	-10.3789
▁Aggiorna	-10.379
▁statMeseC	-10.3793
▁jScrollPane	-10.3793
▁ottieniTuristi	-10.3794
▁dura	-10.3812
▁servizi	-10.3816
sso	-10.3817
▁last	-10.3822
▁RicercaPanel	-10.3822
▁studenti	-10.3826
()==	-10.3829
▁statt	-10.3847
▁ToolbarSchedaPR	-10.385
▁PRNode	-10.385
▁senza	-10.385
▁(30)	-10.3855
▁visited	-10.3866
21.	-10.3878
▁module	-10.3893
▁verificar	-10.39
▁giorni	-10.3907
▁chbx	-10.3907
15	-10.3908
▁managerAddress	-10.3916
im	-10.3932
▁(3)	-10.3936
▁An	-10.3969
La	-10.3994
▁col	-10.4004
pPuntoDiRistoro	-10.4089
DB	-10.4101
Server	-10.4181
4;	-10.4182
▁Initializ	-10.4184
▁BeanConvenzione	-10.4206
Feedback	-10.4219
▁culturale	-10.4236
▁selectedRow	-10.4267
New	-10.4281
IDBNews	-10.4283
found	-10.4288
PartitaIva	-10.4301
maxPoolSize	-10.4315
▁move	-10.4333
▁Quest	-10.4337
title	-10.434
Cancella	-10.4341
JTextArea	-10.4344
change	-10.4346
back	-10.4346
teachingList	-10.4348
display	-10.4349
Point	-10.4349
System	-10.435
setSize	-10.4353
pDelay	-10.4353
del	-10.4356
nterfacceAgenzia	-10.4357
controllaId	-10.4358
NO	-10.4361
HA	-10.4389
▁Text	-10.4399
DO	-10.4413
▁idClassroom	-10.4454
MeseCorrente	-10.4467
Parent	-10.4477
▁pre	-10.4481
Su	-10.449
its	-10.4497
NSI	-10.4543
▁gui	-10.4595
intera	-10.4599
ytes	-10.461
▁Cambi	-10.4622
▁inserisc	-10.4629
Administrator	-10.4635
▁Control	-10.4646
▁wait	-10.4648
▁disable	-10.465
▁cost	-10.4653
Corr	-10.4654
▁mouse	-10.4654
q	-10.4655
-1]	-10.4658
▁campo	-10.4658
CONNE	-10.4659
▁voti	-10.4659
LocateRegistry	-10.4659
allineato	-10.4659
▁associazionepr	-10.4659
DesktopManager	-10.4659
GestioneRicerche	-10.4659
RISTORO	-10.4659
avvenuta	-10.4659
itional	-10.4659
langelo	-10.4659
ristiDisattivati	-10.4659
▁commissionate	-10.4659
▁consistency	-10.4659
▁notizie	-10.4659
▁stream	-10.4659
▁telefonico	-10.4659
ABSENCE	-10.4659
▁desktopManager	-10.4659
HelpManager	-10.4659
▁speculateValue	-10.4659
▁Comp	-10.4659
▁modulePath	-10.4659
▁Contains	-10.4659
▁cache	-10.4659
▁activation	-10.4659
▁popup	-10.466
▁PPreferenza	-10.466
▁establish	-10.466
▁posizione	-10.466
writeB	-10.466
▁forniti	-10.466
prec	-10.4661
▁tenta	-10.4661
getMonth	-10.4661
bcHelp	-10.4662
▁btnModificaDati	-10.4662
-02	-10.4663
▁[4]	-10.4663
▁rimuovere	-10.4664
colazione	-10.4667
▁hash	-10.467
DBTag	-10.4672
ataRegistrazione	-10.4676
▁Birth	-10.4676
▁SitoTableModel	-10.4676
▁turistiAttivati	-10.4676
▁minAP	-10.4676
▁mycheckboxes	-10.4676
▁btnNuovoBC	-10.4676
▁btnStorico	-10.4676
minutes	-10.4677
Here	-10.4678
bannerHelp	-10.4679
▁dob	-10.4681
Processing	-10.4682
zo	-10.4693
spettat	-10.4697
▁aggiornat	-10.4698
▁counter	-10.4702
▁Current	-10.4704
Storico	-10.4704
▁range	-10.4706
1998	-10.4713
▁nuove	-10.4713
▁indicat	-10.4718
▁via	-10.4722
▁cancellare	-10.4724
setLocation	-10.4726
▁pNumeroVoti	-10.4726
▁status	-10.4729
▁pGiornoChiusura	-10.4731
▁citta	-10.4735
▁profiloTurista	-10.4738
▁sourceStr	-10.4738
▁pCategoria	-10.4738
▁byte	-10.4739
▁pMediaVoti	-10.4739
▁pOrarioChiusura	-10.4741
rendo	-10.4761
4)	-10.4767
[8].	-10.4772
▁pVisitaPR	-10.4791
▁pVisitaBC	-10.4791
▁qualcun	-10.48
23.	-10.4802
▁properties	-10.4832
▁at	-10.4836
▁getID	-10.4837
▁Clear	-10.4864
▁pRaggioMax	-10.4865
▁pIdAddress	-10.4865
▁pTable	-10.4877
▁Report	-10.4883
▁visual	-10.4895
▁jdbc	-10.4896
addebitare	-10.4908
setCognome	-10.4909
UserName	-10.4909
▁cerca	-10.4912
▁them	-10.4935
18.	-10.4943
</	-10.4946
▁pPreferenz	-10.495
▁supporto	-10.4954
▁Java	-10.4974
il	-10.4976
ConnectionString	-10.4985
[9].	-10.4986
▁dd	-10.4991
▁Soggiornante	-10.4994
▁found	-10.4994
▁Call	-10.4999
▁checks	-10.5017
▁teacher	-10.5024
▁Password	-10.5027
*	-10.5067
Descrizione	-10.5078
Testo	-10.5082
on	-10.5134
27.	-10.5137
getCitta	-10.515
30.	-10.5155
▁ac	-10.5174
▁chiudi	-10.5175
▁+=	-10.5199
▁pNote	-10.5214
45	-10.5214
34	-10.5223
rtisementAgenzia	-10.5245
atore	-10.525
▁messages	-10.5252
▁Location	-10.5255
Role	-10.5255
col	-10.5262
end	-10.5265
getJ	-10.5269
time	-10.527
▁stati	-10.5286
Cambio	-10.5302
registry	-10.5304
tmpRegisterLine	-10.5304
▁db	-10.531
▁Visualizzazione	-10.5315
rica	-10.5327
com	-10.5332
▁li	-10.5339
lencoCategorie	-10.534
Notification	-10.534
ControlloDati	-10.5341
costo	-10.5343
Call	-10.5345
View	-10.5345
delete	-10.5345
Confirm	-10.5345
array	-10.5346
el	-10.5348
double	-10.535
getPassword	-10.536
▁11	-10.5373
val	-10.538
▁Fil	-10.5389
tot	-10.5393
ily	-10.5413
ataPubblicazione	-10.5413
frames	-10.543
98	-10.5435
19.	-10.5476
,1.0,0.0,	-10.5501
▁pVotes	-10.5509
▁startVedi	-10.5518
getBtnModifica	-10.5541
Field	-10.5558
▁ci	-10.558
▁personal	-10.56
22.	-10.5611
[5]	-10.5613
Close	-10.5618
Period	-10.5623
Pers	-10.563
Ok	-10.5631
Pagina	-10.5633
Written	-10.5641
Laboratory	-10.5641
DimensioneFont	-10.5641
▁constraint	-10.5644
▁go	-10.5644
artecipa	-10.5651
▁Par	-10.5652
PercorsoFile	-10.5653
Teachings	-10.5654
▁Desk	-10.5654
ticipat	-10.5659
Commissionamenti	-10.5659
getDispAnno	-10.5659
stella	-10.5659
▁calendar	-10.5659
attivaDisattiva	-10.5659
▁GPS	-10.5659
▁membership	-10.5659
▁segnalibri	-10.5659
▁timeToBroadcast	-10.5659
▁tipi	-10.5659
▁trigger	-10.5659
▁whether	-10.5659
Subscription	-10.5659
eedDayBeforeExam	-10.5659
Dichiar	-10.5659
santi	-10.5659
getIni	-10.5659
ScrollableTable	-10.5659
SingoloRegistro	-10.5659
▁represent	-10.5659
tParameter	-10.5659
AIN	-10.5659
▁devo	-10.5659
DriverManager	-10.5659
BASS	-10.5659
▁jJToolBarBar	-10.5659
▁Build	-10.5659
▁Napoli	-10.5659
▁bannerToolbar	-10.5659
Supp	-10.5659
ME	-10.5659
rave	-10.5659
anticipato	-10.566
▁deskMenu	-10.566
▁searchFor	-10.566
ttawa	-10.566
▁homes	-10.566
Riduzione	-10.566
▁analyzed	-10.5661
▁positivo	-10.5661
▁scolastico	-10.5661
VER	-10.5662
▁ElencoCategorie	-10.5662
lean	-10.5662
▁GetRe	-10.5662
2(	-10.5663
setHorizontal	-10.5663
icola	-10.5664
TagPanel	-10.5666
labInt	-10.5669
▁inclusion	-10.5671
▁26))	-10.5671
newsHelp	-10.5674
▁parte	-10.5675
▁performs	-10.5676
IDI	-10.5677
▁btnSkeda	-10.5678
▁interest	-10.5678
▁priority	-10.5679
▁Confirmation	-10.5679
▁Units	-10.5679
▁reset	-10.5679
ListaBeniServizi	-10.5687
▁personali	-10.569
++){	-10.5694
▁displayed	-10.5697
RED	-10.5698
Min	-10.5705
▁RICERCA	-10.5712
▁tokenizer	-10.5712
▁pTagId	-10.5712
▁BannerNode	-10.5712
▁idTemp	-10.5714
entro	-10.5715
▁tableFeedback	-10.5716
▁pCitta	-10.5716
/04/	-10.5729
▁era	-10.573
Preferiti	-10.5731
▁pPrezzo	-10.5733
▁gia	-10.5734
checkdate	-10.574
▁Table	-10.574
pt	-10.574
SER	-10.5743
▁oral	-10.5744
▁pModifica	-10.5745
▁node	-10.5747
▁pDataVisita	-10.5747
PL	-10.5752
siti	-10.5766
ANN	-10.5769
Oral	-10.577
insi	-10.5774
▁orarioApMinPR	-10.5781
setCap	-10.5782
▁getJ	-10.5806
mmon	-10.5815
▁commento	-10.5818
▁32	-10.5827
ger	-10.5875
▁Results	-10.5885
▁father	-10.5887
▁combo	-10.5887
ico	-10.5902
)"	-10.591
▁SubscriberName	-10.5922
▁caption	-10.5929
▁On	-10.594
▁VALUES	-10.596
▁specific	-10.5973
▁pD	-10.5991
▁implement	-10.5994
ill	-10.6018
▁"+(	-10.6046
▁pDelay	-10.6078
▁idUser	-10.61
▁PR	-10.6104
▁BeanMenu	-10.6107
gli	-10.6114
ven	-10.6132
▁0.0	-10.6153
(60,	-10.6155
▁inter	-10.6186
uggerimenti	-10.6191
▁getBtnModifica	-10.6203
▁showInternal	-10.6212
▁man	-10.6217
NA	-10.6223
ata	-10.6228
▁ma	-10.6262
▁...	-10.6272
▁4)	-10.6278
▁txt	-10.6279
▁v	-10.631
▁write	-10.6363
ation	-10.6377
ottieniTag	-10.6386
▁pUser	-10.6387
rie	-10.6401
RequirementID	-10.6418
Registro	-10.6426
IDBConvenzione	-10.6428
▁qu	-10.643
RightPanel	-10.6438
Search	-10.6439
repaint	-10.6444
()),	-10.6445
color	-10.6445
VALUES	-10.6448
oral	-10.645
Path	-10.645
Select	-10.6451
pPagina	-10.6452
getTelefono	-10.6452
server	-10.6454
phone	-10.6456
modifica	-10.6457
ManagerAddress	-10.6457
pJustify	-10.6458
Cancellazione	-10.6459
login	-10.6459
/**	-10.6462
▁ora	-10.6465
▁mostrat	-10.6467
pAcademicYear	-10.647
max	-10.6471
Gr	-10.6475
▁Not	-10.6485
were	-10.6486
Giustifica	-10.6487
tare	-10.65
▁items	-10.6521
za	-10.6527
aNews	-10.6545
15.	-10.657
zza	-10.6571
▁(2)	-10.6577
0,5,0	-10.6591
▁DI	-10.6608
[])	-10.6622
pDate	-10.6629
▁verifica	-10.6644
be	-10.6648
Localita	-10.6661
ure	-10.6665
26	-10.6665
00	-10.6671
29.	-10.6679
uto	-10.6688
▁off	-10.6693
ris	-10.6694
▁fail	-10.6694
etPreferred	-10.6698
At	-10.6709
electedRow	-10.6709
getMax	-10.6719
Norm	-10.6723
▁token	-10.6726
Avanzata	-10.673
<=0)	-10.6733
▁prezz	-10.6737
ramite	-10.6738
▁punt	-10.6739
Alb	-10.674
▁person	-10.6742
;}	-10.6744
(10,	-10.6744
Generiche	-10.6745
▁enter	-10.6756
setDate	-10.676
CO	-10.676
▁Ask	-10.6766
Risultat	-10.6769
sub	-10.6769
OCCUPATA	-10.677
SSION	-10.677
PATH	-10.677
PENSIONE	-10.677
aNewsModificata	-10.677
COMMISSIONATA	-10.677
JSlider	-10.677
Variabil	-10.677
arattereCorrente	-10.677
aratteriPermessi	-10.677
effettiva	-10.677
▁Effettua	-10.677
▁Research	-10.677
▁bookmarks	-10.677
▁changing	-10.677
▁disponibile	-10.677
▁evolutionary	-10.677
▁identify	-10.677
▁mappaRitorno	-10.677
▁registri	-10.677
▁richieste	-10.677
▁clone	-10.677
getClassroomBy	-10.677
gnore	-10.677
Logic	-10.677
▁amendment	-10.677
▁anticipata	-10.677
▁quadrimestre	-10.677
▁sosta	-10.677
TableTuristi	-10.677
▁beha	-10.677
▁nEvt	-10.677
PUNTO	-10.677
+"&	-10.677
▁ListaStanze	-10.6771
Timestamp	-10.6771
Wrapper	-10.6771
▁Cancellation	-10.6771
▁deletion	-10.6771
▁previously	-10.6771
▁five	-10.6771
▁guidainlinea	-10.6771
Totale	-10.6771
ferenzediricerca	-10.6771
▁previous	-10.6771
▁apriFile	-10.6772
▁durataNews	-10.6772
▁corre	-10.6772
▁beanTags	-10.6772
▁closeAll	-10.6772
bassa	-10.6772
▁Pass	-10.6773
DBVisitaPR	-10.6773
▁targetResponse	-10.6773
▁match	-10.6773
-01	-10.6774
▁assegnata	-10.6775
▁modificati	-10.6775
▁editable	-10.6775
scrivi	-10.6776
▁disponibilit	-10.6776
▁reading	-10.6779
▁alcuni	-10.6779
▁requirementID	-10.6782
▁passa	-10.6782
▁pGiorno	-10.6783
sure	-10.6786
▁retrieve	-10.6787
setForeground	-10.6788
<10)	-10.6792
▁oreAP	-10.6792
▁limit	-10.6792
▁PIdTurista	-10.6794
EMail	-10.6795
▁pMenu	-10.6797
▁persone	-10.6798
Base	-10.6798
▁pPiatto	-10.68
▁setValueAt	-10.6801
7;	-10.6802
▁inStream	-10.6803
190,	-10.6807
▁icon	-10.6812
Try	-10.6818
tree	-10.6822
▁valueTo	-10.6822
spetta	-10.6824
DBBeneCulturale	-10.6829
▁toPut	-10.6829
▁listaRisultati	-10.6829
▁closed	-10.683
▁ATA	-10.6832
▁iscrizione	-10.6838
:30",	-10.6843
▁valueFrom	-10.6846
▁getT	-10.6846
▁pLocalita	-10.6846
Map	-10.685
▁pEmail	-10.6865
▁DateFormat	-10.6868
▁Properties	-10.6868
▁orarioCHMinPR	-10.6868
▁glass	-10.6869
▁descrizioneBC	-10.6869
solo	-10.6874
▁threads	-10.6875
tatisticheTotali	-10.6876
▁favorites	-10.688
89	-10.6882
▁features	-10.6883
IDBBeneCulturale	-10.6885
▁characters	-10.6898
▁posGeo	-10.6901
modificaFeedback	-10.6904
▁Enable	-10.6905
▁aColumn	-10.6906
▁posGeoZ	-10.6909
▁passata	-10.6913
▁posGeoY	-10.6914
▁rs	-10.6916
indi	-10.6922
▁suo	-10.6934
▁searchBuffer	-10.6947
▁frameBounds	-10.6949
▁Tal	-10.695
GestioneTag	-10.6956
isTeacher	-10.6957
▁[6]	-10.6961
▁(-1	-10.6964
ByIDUserAnd	-10.6972
▁Are	-10.6981
mento	-10.6994
setDescrizione	-10.7007
▁Stampa	-10.7027
▁video	-10.7027
50	-10.7033
▁setPassword	-10.7039
izzazione	-10.7052
TimeDelay	-10.7064
dd	-10.7064
▁columns	-10.708
▁Float	-10.7094
▁16	-10.7094
ALT	-10.7094
file	-10.7098
Table	-10.7099
▁queryString	-10.7101
▁repaint	-10.7107
totali	-10.7109
▁pPagina	-10.7126
▁equals	-10.7127
Telefono	-10.7131
▁digitat	-10.7133
if	-10.714
Report	-10.7146
the	-10.716
ress	-10.7171
setP	-10.7192
[6].	-10.7195
80,	-10.7217
PE	-10.7223
▁Constraint	-10.7253
▁bar	-10.727
▁me	-10.7283
<=	-10.73
▁(""))	-10.7337
DateJustify	-10.7339
ness	-10.7357
"",	-10.7385
▁forma	-10.74
▁beans	-10.7419
35	-10.7421
MascheraC	-10.7424
▁mr	-10.7433
▁pConnection	-10.7451
▁alle	-10.7461
▁prepare	-10.7483
insertNew	-10.7484
cos	-10.7492
▁format	-10.7499
▁N	-10.7505
▁ri	-10.7507
▁(0	-10.7532
▁errori	-10.7542
Are	-10.7545
▁MA	-10.7552
▁NUM	-10.7562
▁interval	-10.7586
▁assenza	-10.7592
specifica	-10.7603
CT	-10.7604
pan	-10.7607
Stanze	-10.7614
month	-10.7622
nd	-10.7651
▁Username	-10.7661
▁getP	-10.7668
J	-10.7668
On	-10.767
pStr	-10.768
CAP	-10.7682
pTipologiaSito	-10.7684
lab	-10.7685
scelto	-10.7688
CostantiGlobali	-10.7688
look	-10.7688
EventShapes	-10.7692
work	-10.7694
Update	-10.7695
setTitle	-10.7696
supporto	-10.7697
visual	-10.7698
jdbc	-10.7698
tenere	-10.7699
DeskManager	-10.7702
help	-10.7702
first	-10.7702
caption	-10.7702
desk	-10.7705
oggetto	-10.7707
ManagerVotes	-10.7709
annulla	-10.7711
aggiorna	-10.7715
istanza	-10.7718
pIdUser	-10.7719
managerTeaching	-10.7721
Uni	-10.7723
▁setName	-10.7726
rating	-10.7731
MA	-10.7757
[10].	-10.7791
SubscriberName	-10.7823
SE	-10.7827
ondi	-10.7845
Z	-10.7884
idUser	-10.7886
ur	-10.7893
▁ottieniFeedback	-10.7896
▁ul	-10.7899
ra	-10.7911
▁turisti	-10.7915
DateAbsence	-10.7916
▁Inseri	-10.7918
ment	-10.7919
▁url	-10.7928
Tags	-10.794
/1998	-10.7945
▁continu	-10.7959
ph	-10.7964
ostruttore	-10.7982
aggiore	-10.7987
Help	-10.7988
Sql	-10.7991
immagin	-10.7993
Reader	-10.7994
Nasc	-10.7996
▁ask	-10.7999
Priorita	-10.8002
CittaResidenza	-10.8003
Altitudine	-10.8004
▁ritorna	-10.8009
▁complete	-10.8012
hould	-10.8014
howUserList	-10.8018
▁descrizione	-10.8018
Pannello	-10.8018
Millis	-10.8018
Insegnamento	-10.8019
trieve	-10.8019
tering	-10.802
Office	-10.802
Catalog	-10.802
ULL	-10.802
FullPathDatabase	-10.802
getRich	-10.802
▁draw	-10.802
▁odbc	-10.802
▁pArg	-10.802
DefaultTreeModel	-10.802
DiUnaPagella	-10.802
PDistanzaMassima	-10.802
PUNTODIRISTORO	-10.802
PaginaRisultati	-10.802
PagineRisultati	-10.802
ReadOnly	-10.802
VISUALIZZASCHEDA	-10.802
messi	-10.802
scoltatore	-10.802
▁Chied	-10.802
▁GenerateEvent	-10.802
▁Guest	-10.802
▁SubGestione	-10.802
▁criteri	-10.802
▁interesse	-10.802
▁notizia	-10.802
▁papa	-10.802
▁possibilit	-10.802
▁soddisfa	-10.802
▁storico	-10.802
1970)	-10.802
appartenenzapr	-10.802
▁METHOD	-10.802
▁camere	-10.802
▁eateries	-10.802
▁tRis	-10.802
▁esclus	-10.802
▁margin	-10.802
CANCEL	-10.802
▁Abilita	-10.802
▁required	-10.802
▁great	-10.802
▁BufferedReader	-10.802
GROU	-10.802
getTot	-10.802
oppo	-10.802
eDiRicercaDel	-10.802
▁price	-10.802
SITO	-10.802
▁longitude	-10.802
<13;	-10.802
▁Convert	-10.802
magg	-10.802
▁selezionati	-10.8021
▁DESC	-10.8021
▁Categories	-10.8021
Enumeration	-10.8021
▁southPanel	-10.8021
▁bloccata	-10.8021
▁prenotazioni	-10.8021
InputStream	-10.8021
▁incorrect	-10.8021
bassissima	-10.8022
▁jPanelHelp	-10.8022
URA	-10.8022
ICI	-10.8022
▁occupata	-10.8022
▁selection	-10.8022
homeP	-10.8023
▁MODIFICADATI	-10.8023
-03	-10.8023
▁CurrentEvent	-10.8023
DBVisitaBC	-10.8023
▁selectionModel	-10.8023
ElencoClassi	-10.8024
▁vecchia	-10.8024
-05	-10.8024
home	-10.8025
▁determinat	-10.8025
▁effettuare	-10.8025
▁output	-10.8025
▁Visited	-10.8025
▁side	-10.8026
▁Sim	-10.8026
var	-10.8027
TuristaComune	-10.8027
▁prem	-10.8028
▁dovranno	-10.8029
KeyListener	-10.803
COL	-10.8033
▁Exce	-10.8034
▁within	-10.8035
idTeachingList	-10.8037
JUSTIFY	-10.8038
CittaNascita	-10.804
▁servi	-10.8042
TEACHINGS	-10.8043
▁Parse	-10.8044
▁frequenza	-10.8045
▁ghh	-10.8045
▁ctrl	-10.8045
▁riduciTutti	-10.8045
▁ripristinaTutti	-10.8045
▁totTermini	-10.8045
▁pBene	-10.8045
▁partenza	-10.8045
▁ptagi	-10.8045
▁coordinate	-10.8045
▁maxBanner	-10.8046
▁richiede	-10.8048
TH	-10.8053
atch	-10.8062
▁pConvenzione	-10.8063
▁real	-10.8063
JComponent	-10.8067
▁dai	-10.8067
▁assets	-10.8077
▁visualizzazione	-10.8079
▁Merge	-10.8083
▁tI	-10.8084
▁panelTag	-10.8085
▁relativa	-10.8085
▁NewsToolbar	-10.8088
▁DRIVER	-10.8088
▁EastPanel	-10.8088
▁txtNomeBene	-10.8088
▁licenza	-10.8088
▁ServerSocket	-10.8088
▁comune	-10.8089
▁descrizionePR	-10.8089
▁tmpDelay	-10.809
risultatiRicerca	-10.809
▁tokens	-10.8095
isStudent	-10.8104
▁R	-10.8111
▁aggiungi	-10.8114
VisualizzaElenco	-10.8115
▁inviare	-10.8121
ini	-10.813
▁camera	-10.8132
▁Image	-10.8133
▁riferit	-10.8136
▁pCol	-10.8138
▁pOrarioApertura	-10.814
MO	-10.8142
po	-10.8146
unico	-10.8162
▁pCommento	-10.8174
▁JOIN	-10.8177
▁latitude	-10.8177
▁iconifiedFrames	-10.8185
30	-10.8186
▁theServer	-10.8187
:00",	-10.819
CI	-10.8194
CellRenderer	-10.8198
▁modificaTurista	-10.8201
▁pVoto	-10.8202
LO	-10.8203
uristiTableModel	-10.8203
xtract	-10.8214
pText	-10.8228
container	-10.823
31.	-10.8232
▁Message	-10.8234
▁adc	-10.8235
▁f	-10.8236
▁Avvio	-10.8238
▁months	-10.8242
▁mR	-10.8243
▁area	-10.8246
▁students	-10.8268
▁Token	-10.8268
▁commissione	-10.8268
▁hours	-10.8268
▁Comment	-10.8269
ione	-10.827
▁vi	-10.827
▁30)	-10.8276
▁ottieniBanner	-10.8279
▁letto	-10.8285
▁visits	-10.8303
▁HelpPanel	-10.8314
▁clear	-10.8314
gc	-10.8326
▁ottieniTurista	-10.8332
▁(40	-10.8336
Pubblicazione	-10.834
▁work	-10.8346
orale	-10.8354
DispOf	-10.8357
▁tenere	-10.8358
▁Update	-10.836
▁EventShapes	-10.836
▁Gr	-10.8362
ottieniLista	-10.8365
▁y	-10.8368
▁ListSelection	-10.8379
aggio	-10.8386
setNum	-10.8402
▁comments	-10.8413
PO	-10.8421
howClassroomList	-10.8424
▁24)	-10.8426
▁PO	-10.8427
getClassroomsBy	-10.843
▁max	-10.8433
SelectionModel	-10.8438
ION	-10.8446
userId	-10.846
pool	-10.846
quenza	-10.8462
▁30;	-10.8498
▁connections	-10.8504
IRicerca	-10.8505
getNews	-10.851
eanTemp	-10.8551
▁parse	-10.8585
40	-10.8586
DateDelay	-10.8613
▁assegna	-10.8632
▁4.	-10.8633
Student	-10.8642
▁100	-10.8649
▁usa	-10.8656
vi	-10.8672
▁City	-10.869
[7]	-10.8704
Is	-10.8722
▁12	-10.8735
alta	-10.8752
ric	-10.8816
DateNote	-10.8827
▁pParent	-10.8829
▁alunno	-10.8832
600	-10.8845
CE	-10.8848
sun	-10.885
rsi	-10.8869
▁Visit	-10.8876
PuntoDiRistoroId	-10.8877
Indirizzo	-10.8878
66	-10.8913
Renderer	-10.8918
Login	-10.892
27	-10.8927
,1,1,	-10.8944
Register	-10.8946
../	-10.8947
41	-10.8949
2.1	-10.8972
Clos	-10.8992
sen	-10.9017
ble	-10.9018
▁gesti	-10.9055
che	-10.9057
"+	-10.9059
box	-10.906
*/	-10.9062
▁top	-10.9062
amente	-10.9066
Array	-10.907
setM	-10.907
rovare	-10.9071
pVBC	-10.9075
accademicYear	-10.9077
▁loadRecord	-10.9078
Test	-10.9081
ga	-10.9093
Calendar	-10.9095
Save	-10.9096
("",3	-10.9098
▁custom	-10.91
Abs	-10.9101
waitTimeout	-10.9106
Insegnamenti	-10.9106
ModulePath	-10.9112
clear	-10.912
HelpPanel	-10.912
video	-10.9123
Stampa	-10.9123
father	-10.9125
combo	-10.9125
pPreferenz	-10.9125
Clear	-10.9126
pRaggioMax	-10.9127
Thread	-10.9132
accademic	-10.9133
managerRegister	-10.9135
card	-10.9135
pTable	-10.9136
vis	-10.9136
have	-10.9136
Pnews	-10.9137
ottieniTurista	-10.9138
Check	-10.9139
value	-10.9141
indirizzoPR	-10.9142
}	-10.9143
setPassword	-10.9146
pPassword	-10.9149
28	-10.9153
username	-10.9154
ngle	-10.9169
▁com	-10.9186
getDescription	-10.9223
Re	-10.9229
▁TEST	-10.9229
▁read	-10.9233
▁enable	-10.9244
▁utilizz	-10.9251
▁(100	-10.9283
getDelay	-10.9284
Giorno	-10.9291
▁37	-10.9302
▁compos	-10.9307
getAbsence	-10.9324
Nuovo	-10.9325
ins	-10.9344
Mail	-10.9351
AutoCommit	-10.9362
▁subscription	-10.9367
▁Double	-10.9369
Element	-10.9377
▁vuo	-10.9381
▁convention	-10.9382
▁favorite	-10.9383
tto	-10.9393
Background	-10.9394
atti	-10.9413
alberg	-10.9415
▁Ri	-10.9417
Corrett	-10.9422
ossible	-10.9428
setOp	-10.9428
MaxPoolSize	-10.9431
ranno	-10.9437
▁specifie	-10.9441
▁construct	-10.9442
vers	-10.9443
Combo	-10.9446
After	-10.9446
field	-10.9446
NOT	-10.9448
▁manage	-10.9448
▁insegna	-10.9448
spond	-10.9448
SoftBevelBorder	-10.9448
Caparra	-10.9448
EURO	-10.9448
align	-10.9448
nowledge	-10.9448
▁avg	-10.9448
▁designat	-10.9448
Giustifiche	-10.9448
Graphics	-10.9448
LeftSide	-10.9448
LimitedDocument	-10.9448
Longitude	-10.9448
MYSQL	-10.9448
Pagelle	-10.9448
Quantita	-10.9448
anufacturer	-10.9448
esistenza	-10.9448
fullPathDatabase	-10.9448
osCorrente	-10.9448
ratteriNecessari	-10.9448
▁Instantiate	-10.9448
▁cittaResidenza	-10.9448
▁contenut	-10.9448
▁costoBiglietto	-10.9448
▁destina	-10.9448
▁genitori	-10.9448
▁prefGenTurista	-10.9448
▁queries	-10.9448
▁restaurant	-10.9448
▁street	-10.9448
▁suggestions	-10.9448
▁optionPane	-10.9448
▁routine	-10.9448
Vecchi	-10.9448
▁ancora	-10.9448
▁stampa	-10.9448
DATABASE	-10.9448
DELAY	-10.9448
Verd	-10.9448
▁zero	-10.9448
▁memoria	-10.9448
▁Costanti	-10.9448
▁commissioni	-10.9448
▁dfDate	-10.9448
▁dimensioneFont	-10.9448
STIN	-10.9449
Viewport	-10.9449
calcolaConto	-10.9449
▁loop	-10.9449
▁cittaNascita	-10.9449
▁pair	-10.9449
▁quanto	-10.9449
Way	-10.9449
▁opp	-10.9449
▁compute	-10.9449
▁tool	-10.9449
NAME	-10.9449
aDiRicercaDel	-10.9449
▁StartDate	-10.9449
▁fornir	-10.9449
Tick	-10.9449
typ	-10.9449
mezza	-10.945
▁btnExit	-10.945
▁style	-10.9451
HING	-10.9451
▁paint	-10.9451
▁Precedence	-10.9451
aque	-10.9452
Back	-10.9452
CloseOperation	-10.9452
▁feed	-10.9452
▁ServletDelete	-10.9453
▁EndDate	-10.9453
▁Mess	-10.9454
telephone	-10.9454
▁rimane	-10.9454
Hours	-10.9454
▁dataScadenza	-10.9454
Prima	-10.9455
NOTE	-10.9455
▁formatta	-10.9455
Tema	-10.9455
▁opera	-10.9456
▁pVal	-10.9457
▁poi	-10.9458
ensione	-10.9459
datatable	-10.946
maxUnitIncrement	-10.946
soc	-10.9461
▁btnResetta	-10.9461
DBConvenzione	-10.9462
▁carta	-10.9462
▁ricevut	-10.9462
▁advanced	-10.9463
tIconifi	-10.9463
messo	-10.9463
▁may	-10.9463
ide	-10.9463
self	-10.9467
▁pAltitudine	-10.9468
▁idMenu	-10.9469
▁trovato	-10.9469
!=""	-10.947
▁modificate	-10.9472
▁singol	-10.9472
trim	-10.9473
lunghezzaStringa	-10.9473
▁PIdPreferenza	-10.9474
▁members	-10.9474
▁telefono	-10.9475
org	-10.9476
▁buf	-10.9477
▁ACTIVE	-10.9477
▁localitaPR	-10.9477
▁mediaVotoBC	-10.9477
▁ristorazione	-10.9477
▁seguente	-10.9478
▁Stack	-10.9478
▁ThreadPool	-10.9478
▁Impact	-10.9478
▁centralPanel	-10.9478
setSelection	-10.9479
▁exit	-10.9481
▁capPR	-10.9482
25.	-10.9485
▁datiTesto	-10.9486
JMenuItem	-10.9489
▁references	-10.9495
MaxBanner	-10.9498
constraintVector	-10.9499
ted	-10.9501
▁Remove	-10.9505
getSelected	-10.9506
▁aggiornaA	-10.9506
▁pLatitudine	-10.9509
▁pLongitudine	-10.9509
▁giustificata	-10.9513
▁ruoli	-10.9515
▁conventions	-10.9516
▁',"	-10.9516
▁calculate	-10.9519
▁***	-10.9522
▁Management	-10.9525
selectedStudent	-10.9525
▁CenterPanel	-10.9528
▁timeStamp	-10.9528
▁Information	-10.9528
▁Nessun	-10.9528
▁cittaBC	-10.9529
▁IDBPreferenze	-10.9529
▁defined	-10.953
HE	-10.9532
▁pImmagine	-10.9535
▁pDataFine	-10.9537
▁visita	-10.9537
▁21	-10.9537
▁pIdBanner	-10.954
▁18)	-10.954
▁32)	-10.9544
▁asset	-10.9549
▁Show	-10.9556
RE	-10.9559
05/	-10.9566
▁CentrePanel	-10.958
▁LineSt	-10.958
▁oralInt	-10.9581
blocco	-10.9584
code	-10.9586
▁listModel	-10.9589
▁toChange	-10.9598
UN	-10.9599
▁Characters	-10.9603
▁(200	-10.9604
ATI	-10.9606
isParent	-10.9613
getH	-10.9615
▁log	-10.9626
▁notenew	-10.9628
▁before	-10.9632
▁13	-10.9641
▁setDefault	-10.9648
[5];	-10.9666
▁"15	-10.967
▁orarioAPOrePR	-10.9685
▁adding	-10.9698
ero	-10.9704
merged	-10.9731
▁Vie	-10.9736
ando	-10.9738
▁pNomeCategoria	-10.9738
▁Classi	-10.9739
In	-10.9749
▁MascheraC	-10.9749
▁idAddress	-10.9753
▁idBeneCulturale	-10.9759
▁ok	-10.9778
:#	-10.9779
min	-10.978
ITI	-10.9785
38.	-10.9795
SN	-10.9798
▁SMOSConnection	-10.9803
ref	-10.9817
pPuntoDiRistoroI	-10.9826
▁CostantiGlobali	-10.9845
▁look	-10.9846
"",20	-10.9846
▁setTitle	-10.9852
▁"",	-10.9856
rre	-10.9859
▁scelto	-10.986
glie	-10.9897
▁RightPanel	-10.9899
▁startAvvi	-10.9903
▁(!((	-10.9912
▁color	-10.9912
AC	-10.9939
Done	-10.9955
▁16)	-10.9971
▁rows	-10.9979
33.	-10.9997
RI	-11.0003
▁stats	-11.0012
())+	-11.0024
▁setSize	-11.0041
▁key	-11.0059
▁scatti	-11.0064
5;	-11.0136
Visitato	-11.0142
ListaVisitaPR	-11.0143
▁60	-11.0147
parseI	-11.0148
▁RegisterLine	-11.0179
70,	-11.0193
▁informazion	-11.0194
28.	-11.0196
Admin	-11.0221
▁pBeneCulturale	-11.0225
▁Invia	-11.0235
36	-11.0246
])	-11.0252
[7].	-11.0253
ListaVisitaBC	-11.0263
35.	-11.0268
ura	-11.0317
am	-11.0317
late	-11.0324
▁errors	-11.033
▁18	-11.0339
▁ore	-11.0348
ples	-11.0353
Not	-11.0361
Da	-11.0377
')"	-11.0451
▁put	-11.0453
Status	-11.0465
nic	-11.0494
IT	-11.052
tag	-11.0542
▁pString	-11.0563
▁2.0	-11.0565
gi	-11.0615
setMaxim	-11.0643
▁cambiare	-11.0643
Shape	-11.0665
▁blocc	-11.0675
Elenco	-11.0683
86	-11.0716
▁14	-11.072
ubscriberKeyword	-11.0725
ST	-11.0726
txt	-11.0733
datenow	-11.0743
IDBBanner	-11.0744
media	-11.0748
Comment	-11.0752
isAttiva	-11.0761
Speculate	-11.0761
CategoryName	-11.0762
scatto	-11.0762
center	-11.0762
idClass	-11.0763
Telefonata	-11.0763
nstruction	-11.0765
writeInt	-11.0766
▁getDescrizione	-11.0769
pIDJustify	-11.0773
left	-11.0773
indice	-11.0773
replace	-11.0775
nextToken	-11.0776
line	-11.0776
toIterate	-11.0779
azzera	-11.0779
SQL	-11.0783
pNomeCategoria	-11.0784
Token	-11.0784
Remote	-11.0787
letto	-11.0789
commissione	-11.079
Statistics	-11.0792
properties	-11.0793
Inserisci	-11.0794
giorni	-11.0794
chbx	-11.0794
RicercaAvanzata	-11.0796
cognome	-11.0796
Elimina	-11.0796
scadenza	-11.0798
pTagID	-11.0798
caratteristiche	-11.0799
link	-11.0799
Insert	-11.08
ottieniBanner	-11.08
|	-11.0801
account	-11.0801
Button	-11.0801
esiste	-11.0803
term	-11.0803
textGuida	-11.0803
char	-11.0804
classroomList	-11.0804
getDisp	-11.0804
Seleziona	-11.0805
Cerca	-11.0805
managerAddress	-11.0805
parent	-11.0805
Dimension	-11.0806
BorderLayout	-11.0807
number	-11.0808
eMail	-11.0812
conf	-11.0813
pIdAddress	-11.0819
DBConnection	-11.0824
Pool	-11.0827
hours	-11.0828
pBanner	-11.0844
ad	-11.0858
Cap	-11.0867
pTurista	-11.088
private	-11.0919
▁period	-11.0925
setT	-11.0927
-32	-11.0932
|"");	-11.0948
▁second	-11.0957
▁"'"	-11.0963
getJScrollPane	-11.0964
▁albergo	-11.098
getVot	-11.099
Na	-11.1008
OutputStream	-11.1041
▁element	-11.1052
▁categorie	-11.1064
MenuItem	-11.1067
▁assegnar	-11.1074
hi	-11.1082
▁variabil	-11.1084
ComboBox	-11.1088
▁Hash	-11.1088
▁getValue	-11.1089
ToolBar	-11.1093
very	-11.1094
DriverMySql	-11.1095
Bounds	-11.1096
MaxDist	-11.1098
CostoBiglietto	-11.1098
FirstName	-11.1099
▁cultura	-11.1103
▁ServletInsert	-11.1104
▁identifie	-11.1105
Click	-11.1105
istics	-11.1107
▁target	-11.111
--------------	-11.1112
omitiva	-11.1112
Details	-11.1112
ransaction	-11.1113
▁pConnect	-11.1113
UNT	-11.1114
▁Visual	-11.1115
agg	-11.1115
▁VISUALIZZA	-11.1115
Servizi	-11.1115
scade	-11.1115
CORRENTE	-11.1115
PRIORITY	-11.1115
FEEDBACK	-11.1115
COMPLETA	-11.1115
SSIMA	-11.1115
Scanner	-11.1115
dbcDriver	-11.1115
justifiedAbsence	-11.1115
▁newStringBuffer	-11.1115
AdaptorException	-11.1115
BLOCCATA	-11.1115
CONVENZION	-11.1115
CittResidenza	-11.1115
LMN	-11.1115
Latitude	-11.1115
Occur	-11.1115
PREFER	-11.1115
PagineRicerca	-11.1115
PointerException	-11.1115
PoolCloseTimeout	-11.1115
STUDENT	-11.1115
activeMaxTimeout	-11.1115
advertisement	-11.1115
escrittoreStanze	-11.1115
latitudine	-11.1115
maxDayBeforeExam	-11.1115
onnessioniLibere	-11.1115
oolTi	-11.1115
roll	-11.1115
ttavio	-11.1115
▁Giuseppe	-11.1115
▁SubStanze	-11.1115
▁appear	-11.1115
▁bevande	-11.1115
▁bisogn	-11.1115
▁contorni	-11.1115
▁dynamic	-11.1115
▁focus	-11.1115
▁original	-11.1115
▁pHasFocus	-11.1115
▁popera	-11.1115
▁prefRicTurista	-11.1115
▁ritardi	-11.1115
▁semestre	-11.1115
▁spot	-11.1115
▁submission	-11.1115
▁valTerm	-11.1115
▁verify	-11.1115
▁visibleRect	-11.1115
Execute	-11.1115
ImageIO	-11.1115
Runnable	-11.1115
articolari	-11.1115
neonato	-11.1115
smtp	-11.1115
▁Direzione	-11.1115
▁aggiuntivo	-11.1115
▁seguenti	-11.1115
▁exhibition	-11.1115
▁week	-11.1115
▁money	-11.1115
trapan	-11.1115
Inside	-11.1115
▁etc	-11.1115
▁under	-11.1115
▁CambioPassword	-11.1115
▁situa	-11.1115
▁inside	-11.1115
inistra	-11.1116
teratoreVisitaPR	-11.1116
▁grado	-11.1116
bambino	-11.1116
generiche	-11.1116
Mezza	-11.1116
▁RicercaSito	-11.1116
RightS	-11.1116
StudentsByClass	-11.1116
eroCaratteriMax	-11.1116
▁entry	-11.1116
Aggiornato	-11.1116
sitive	-11.1116
▁pNumPagina	-11.1117
▁pManager	-11.1117
beautiful	-11.1117
▁relevance	-11.1117
ltipl	-11.1117
▁must	-11.1117
▁belonging	-11.1118
etSelectionMode	-11.1118
▁positive	-11.1118
▁1701	-11.1119
export	-11.1119
▁partire	-11.1119
earchPanel	-11.1119
▁associate	-11.112
▁tmpAbsence	-11.112
▁cancellaP	-11.112
▁stagionalita	-11.1121
DettagliUtente	-11.1121
▁currently	-11.1122
DataScadenza	-11.1122
DeleteC	-11.1122
▁tempTag	-11.1123
▁identified	-11.1123
▁startConto	-11.1123
▁gestioneNews	-11.1125
ragazzo	-11.1126
▁completed	-11.1126
▁sola	-11.1127
▁pIdOperatore	-11.1128
puntoTemp	-11.1129
▁(140	-11.1131
▁sar	-11.1131
▁pCostoBiglietto	-11.1132
▁pMaxDist	-11.1132
ok	-11.1133
Window	-11.1134
▁25))	-11.1134
EAR	-11.1135
▁pMaxPoolSize	-11.1135
"0"	-11.1136
sortable	-11.1136
Scatti	-11.1136
▁serverIP	-11.1136
RO	-11.1142
▁vari	-11.1143
▁trovata	-11.1144
lastName	-11.1144
▁processing	-11.1145
pers	-11.1148
setRow	-11.1148
▁getLocal	-11.115
▁puntoDiRistoro	-11.115
▁supplemento	-11.115
▁chiusura	-11.115
▁labelCaratteri	-11.115
▁provBC	-11.115
▁maxSimilarity	-11.115
▁teachingTemp	-11.115
COM	-11.115
VE	-11.1152
▁cittaPR	-11.1152
▁mu	-11.1153
▁pBannerID	-11.1156
eTable	-11.116
Link	-11.116
firstName	-11.1162
▁created	-11.1166
▁modificaTag	-11.117
▁personale	-11.1172
Enabled	-11.1173
▁getCitta	-11.1174
▁inject	-11.1177
getBtnElimina	-11.1182
▁visualizzato	-11.1186
estoNewsRenderer	-11.1193
Frames	-11.1201
getIndirizzo	-11.1207
▁salva	-11.121
▁PKEY	-11.121
▁Symbol	-11.121
▁columnClasses	-11.121
▁valTotTerm	-11.121
▁Messaggio	-11.121
▁telefonoBC	-11.1211
▁telefonoPR	-11.1212
▁costoBC	-11.1212
▁DBPreferenze	-11.1212
▁votesList	-11.1213
▁pens	-11.1214
▁capBC	-11.1216
▁listaPreferiti	-11.1218
▁O	-11.1226
▁idParent	-11.1228
ativo	-11.1238
▁rig	-11.1239
itare	-11.124
cho	-11.124
xUnit	-11.1242
▁secondi	-11.1245
▁locationY	-11.1245
kb	-11.1248
▁pScheda	-11.1258
▁loginException	-11.1266
UserId	-11.1269
▁Beniculturali	-11.1272
▁puntoRistoro	-11.1272
▁controllaDati	-11.1274
▁vedi	-11.1274
▁entrat	-11.1281
▁eventuali	-11.1281
▁IDBVisitaPR	-11.1282
▁pDataInizio	-11.1283
Rimuov	-11.1285
▁loaded	-11.1291
▁50	-11.1299
UT	-11.13
cons	-11.1303
▁archivio	-11.1304
▁pTime	-11.1307
attivazione	-11.1316
getAll	-11.1317
attuale	-11.1317
▁Int	-11.132
mic	-11.132
▁With	-11.1331
▁Content	-11.1332
▁Recuper	-11.1335
▁abilita	-11.134
em	-11.1359
VediPrenotazione	-11.1362
▁elimina	-11.1375
venue	-11.1387
81	-11.1396
▁PASSWORD	-11.1398
▁next	-11.1406
▁Cell	-11.1406
etMonth	-11.1407
▁IDBTag	-11.1411
]))	-11.1414
oreDat	-11.1414
▁IDBTurista	-11.1415
▁azzera	-11.1463
▁toIterate	-11.1463
▁Ro	-11.1474
lation	-11.149
▁eMail	-11.1495
▁cells	-11.1497
▁getJScrollPane	-11.1512
▁Array	-11.1524
▁ModulePath	-11.1527
▁Fe	-11.1535
llowed	-11.1537
at	-11.1539
▁Register	-11.1542
▁Be	-11.1564
AD	-11.1585
▁pTipologiaSito	-11.1594
932	-11.1608
todo	-11.1613
ediaVotiRenderer	-11.162
azioni	-11.1628
""|"");	-11.1644
▁divers	-11.1647
<5;	-11.1667
▁getDati	-11.1677
525	-11.1687
ci	-11.1724
▁getPassword	-11.1742
eating	-11.1748
▁pJustify	-11.1752
▁lab	-11.1757
statements	-11.1777
Set	-11.1795
99	-11.1799
HO	-11.1802
▁handl	-11.181
▁rag	-11.1852
87	-11.1853
▁Phone	-11.1857
▁coperti	-11.1857
▁pParoleChiave	-11.1857
0;	-11.1858
cell	-11.1871
▁getBtnElimina	-11.1873
▁Tags	-11.1884
▁eliminate	-11.1889
sManagement	-11.1933
▁BeanPiatto	-11.1934
pParentException	-11.1935
36.	-11.1978
▁Menu	-11.1983
▁80	-11.2006
[6]	-11.2035
▁(8)	-11.2048
▁dates	-11.2059
Reset	-11.208
▁MediaVoti	-11.2092
estra	-11.2093
PropertiesPath	-11.2094
▁+".	-11.2144
▁canc	-11.2156
▁models	-11.2191
ic	-11.2197
▁iterator	-11.2199
Avvio	-11.2202
▁wh	-11.2204
)+"	-11.2216
txts	-11.2216
ber	-11.2222
IdMenu	-11.2239
edBackTableModel	-11.2243
▁10)	-11.2257
▁BeniServizi	-11.2262
▁As	-11.2281
ano	-11.2294
FF	-11.2299
na	-11.2335
▁17	-11.2341
▁Convenzione	-11.2345
▁WA	-11.235
70	-11.2358
▁rel	-11.2379
▁(((	-11.2385
componenti	-11.2388
[9]	-11.2393
ddressManagement	-11.2414
▁tal	-11.2427
▁Dati	-11.2432
▁Driver	-11.2439
PanelHelp	-11.246
▁render	-11.2507
setNumStanz	-11.251
▁Null	-11.2563
▁disabilit	-11.257
Change	-11.257
****************	-11.2595
ene	-11.2601
▁right	-11.2607
ome	-11.2613
Cell	-11.2635
Un	-11.2645
red	-11.2653
And	-11.2678
CR	-11.2683
va	-11.2693
Message	-11.2698
--	-11.2727
testoSplit	-11.2744
Replace	-11.2744
▁pres	-11.2745
Priority	-11.2745
effettua	-11.2747
studentId	-11.2761
um	-11.2763
Font	-11.2769
BufferedImage	-11.2773
getTeachingsBy	-11.2776
oggi	-11.2778
PASSWORD	-11.278
Enable	-11.2782
SMOSConnection	-11.2784
orarioAPOrePR	-11.2784
IDBTag	-11.2785
IDBTurista	-11.2787
adc	-11.2789
pTagsId	-11.2789
searchBuffer	-11.279
frameBounds	-11.279
stu	-11.2791
qualcun	-11.2793
mR	-11.2796
logged	-11.2797
questo	-11.2798
path	-11.2801
statistics	-11.2802
province	-11.2802
&	-11.2804
Otten	-11.2804
pannelloTag	-11.2805
nomePR	-11.2805
codice	-11.2806
GridBagLayout	-11.2806
Checkbox	-11.2807
instance	-11.2807
Sceglie	-11.2808
feedback	-11.2808
PBC	-11.2812
▁(50	-11.2812
totale	-11.2812
Calcolo	-11.2816
pDescrizione	-11.2817
settare	-11.283
▁eat	-11.284
pUsername	-11.2843
▁ms	-11.2845
▁part	-11.2846
▁quel	-11.285
crea	-11.2855
idAddress	-11.2868
NAL	-11.2892
maggiore	-11.2894
ava	-11.2896
selectedRoles	-11.2901
LI	-11.2911
▁getAcademicYear	-11.2913
"+"	-11.2923
▁mak	-11.2931
action	-11.2951
02	-11.2999
90	-11.3011
ascheraSoggiorno	-11.3032
▁degree	-11.3041
▁reference	-11.3049
Inizio	-11.3049
▁trace	-11.3049
Char	-11.3052
▁client	-11.3059
atte	-11.3067
64	-11.3068
▁risulta	-11.3071
Studenti	-11.3081
laborazione	-11.3081
Stream	-11.3082
▁local	-11.3083
nner	-11.3088
rrivo	-11.309
nclusion	-11.309
Title	-11.3094
WaitTimeout	-11.3095
ActiveTimeout	-11.3095
PoolTimeout	-11.3095
ml	-11.3098
gio	-11.3099
▁termini	-11.3101
tica	-11.3105
ans	-11.3106
ferenzaDiRicerca	-11.3106
▁issue	-11.3108
▁provide	-11.3108
▁Hel	-11.3108
▁aggiunge	-11.311
776	-11.311
treb	-11.3111
▁valor	-11.3111
awa	-11.3112
First	-11.3113
Locale	-11.3114
document	-11.3114
getPx	-11.3114
Wrap	-11.3114
delays	-11.3114
Lower	-11.3115
▁contiene	-11.3115
WindowConstants	-11.3115
ZZA	-11.3115
▁ProvaBanner	-11.3115
Coperto	-11.3115
ingoloConAgenzia	-11.3115
recuper	-11.3115
ENTA	-11.3115
ENZIONE	-11.3115
GIORNI	-11.3115
HeaderLogoPath	-11.3115
Notify	-11.3115
Tabella	-11.3115
eGenericheNuove	-11.3115
insegnante	-11.3115
oundException	-11.3115
uzzy	-11.3115
▁"61616161",	-11.3115
▁(4.1)(4.1.	-11.3115
▁Acced	-11.3115
▁Penna	-11.3115
▁Provide	-11.3115
▁activeThreads	-11.3115
▁after	-11.3115
▁agreement	-11.3115
▁altitude	-11.3115
▁altri	-11.3115
▁argument	-11.3115
▁bambini	-11.3115
▁board	-11.3115
▁comfort	-11.3115
▁convertire	-11.3115
▁disciplinari	-11.3115
▁millisecondi	-11.3115
▁nascita	-11.3115
▁nessuna	-11.3115
▁occurs	-11.3115
▁preferiti	-11.3115
▁problema	-11.3115
▁reached	-11.3115
▁receipt	-11.3115
▁screen	-11.3115
▁statistical	-11.3115
▁temporanea	-11.3115
timiTrentaGiorni	-11.3115
▁Analyze	-11.3115
▁GUI	-11.3115
▁corrette	-11.3115
▁iterate	-11.3115
▁mainSto	-11.3115
▁owner	-11.3115
▁pTermini	-11.3115
ImpactReport	-11.3115
▁deaddebita	-11.3115
▁food	-11.3115
▁socket	-11.3115
mlml	-11.3115
setMinimum	-11.3115
▁assenti	-11.3115
▁molti	-11.3115
▁occupanti	-11.3115
▁riprovare	-11.3115
▁getVa	-11.3115
connectionCloser	-11.3115
hasMore	-11.3115
▁Mimos	-11.3115
passwd	-11.3115
ATT	-11.3115
▁voting	-11.3115
▁accept	-11.3115
▁scrollTableNews	-11.3115
▁integer	-11.3115
stylesheet	-11.3115
▁proper	-11.3115
▁contentente	-11.3115
▁phase	-11.3115
▁stack	-11.3115
datevalues	-11.3115
▁essa	-11.3115
sbt	-11.3115
▁meet	-11.3115
▁course	-11.3115
PrioritaRenderer	-11.3115
▁removeStr	-11.3116
="../../	-11.3116
▁frequenzaTesto	-11.3116
▁beni	-11.3116
Bell	-11.3116
valuta	-11.3116
▁command	-11.3116
▁showDispOf	-11.3116
▁convertit	-11.3116
▁organizza	-11.3116
▁inerent	-11.3116
▁cibi	-11.3116
attivi	-11.3116
ttempt	-11.3116
▁ShowDisp	-11.3116
TAG	-11.3116
▁filepath	-11.3117
keyPressed	-11.3117
▁configurazione	-11.3117
▁ServletUpdate	-11.3117
mysql	-11.3117
Info	-11.3118
ultimo	-11.3118
Conve	-11.3118
▁reco	-11.3118
▁performed	-11.3119
▁ospite	-11.3119
▁dish	-11.3119
eprecat	-11.3119
getAnno	-11.3119
StudentClassroom	-11.3119
▁pick	-11.3119
▁released	-11.3119
▁pernottamento	-11.312
erif	-11.312
▁identico	-11.312
▁mSQL	-11.312
chet	-11.312
▁such	-11.3121
JPopupMenu	-11.3121
▁logout	-11.3121
▁operazioni	-11.3121
rty	-11.3121
50000000	-11.3122
▁hashCode	-11.3122
▁accede	-11.3123
Clicked	-11.3123
RightList	-11.3123
▁currentLine	-11.3123
▁miss	-11.3124
▁constants	-11.3124
LIRE	-11.3124
▁antipasti	-11.3124
▁appropriate	-11.3125
unexpected	-11.3126
▁chose	-11.3127
posNuovo	-11.3127
▁ServletShowUser	-11.3127
important	-11.3127
ByClass	-11.3127
▁serve	-11.3129
▁aggiungere	-11.313
▁working	-11.313
▁attivaTurista	-11.313
▁pFont	-11.3133
){}	-11.3133
just	-11.3134
wd	-11.3134
zioneAttiva	-11.3135
SP	-11.3135
▁pDataScadenza	-11.3136
▁plate	-11.3137
▁Digitale	-11.3137
▁bannerSize	-11.3139
isClosed	-11.314
▁pMaxBanner	-11.314
▁pMail	-11.314
Inter	-11.3141
▁pCittaResidenza	-11.3144
▁pPriorita	-11.3144
▁pCittaNascita	-11.3144
pBeneCulturale	-11.3146
getID	-11.3148
▁pDimensioneFont	-11.3152
▁pPercorsoFile	-11.3152
▁0))	-11.3153
lue	-11.3155
▁ten	-11.3156
▁Pr	-11.3156
▁pPartitaIva	-11.3157
▁Pane	-11.3157
▁mychoice	-11.3158
▁pDatiFeedback	-11.3158
▁btnCarica	-11.3158
▁replaceWith	-11.3158
▁TextArea	-11.3159
▁well	-11.3159
▁pDataNascita	-11.3159
▁DBBanner	-11.3161
itStudent	-11.3162
▁conv	-11.3163
▁tInteger	-11.3168
timeDelay	-11.317
aggiorn	-11.3171
sin	-11.3173
AG	-11.3175
▁durata	-11.3176
etRes	-11.3176
DBNews	-11.3179
NotB	-11.318
lui	-11.3182
▁traces	-11.3185
▁fin	-11.3185
activeSize	-11.3189
Periodo	-11.3191
▁aggiornati	-11.3194
(305,	-11.3197
▁spesa	-11.3199
▁inactive	-11.3199
wo	-11.3201
over	-11.321
ABC	-11.3218
▁(5)	-11.3225
feedbackTable	-11.3225
▁fare	-11.3229
▁listSelcected	-11.3233
▁coperto	-11.3233
▁laboratorio	-11.3233
▁localitaBC	-11.3233
▁luogoNascita	-11.3233
▁dbvisita	-11.3234
▁bottom	-11.3234
▁hold	-11.3234
▁dbtag	-11.3235
▁pSelectedNode	-11.3235
▁nuovaVisita	-11.324
▁costrui	-11.3241
▁[8]	-11.3242
▁pTotTermini	-11.3243
▁mese	-11.3245
et	-11.3245
ana	-11.3248
▁TO	-11.3253
▁pSelected	-11.3254
Bc	-11.3263
getStatus	-11.3264
getLocalita	-11.3276
Fratt	-11.3286
▁memor	-11.3289
aca	-11.329
▁artifacts	-11.3292
▁55	-11.3296
pagato	-11.3296
PaginaCorrente	-11.3297
stubs	-11.3298
▁pTurn	-11.3301
getComponent	-11.3303
▁registrat	-11.3305
▁turistic	-11.3305
▁make	-11.3306
▁necessaria	-11.3309
▁Action	-11.331
▁Docente	-11.3311
▁provPR	-11.3311
▁JTree	-11.3312
▁dbBanner	-11.3313
▁TextLine	-11.3314
()+1)	-11.3315
▁setValue	-11.3315
Released	-11.3323
▁Time	-11.3328
unselectedRoles	-11.3334
dateNote	-11.3342
CA	-11.3345
▁resto	-11.3347
▁fe	-11.3355
lf	-11.3357
▁Key	-11.3359
getComune	-11.3364
▁pInt	-11.3366
!!"	-11.337
83	-11.3378
tro	-11.3381
AComponent	-11.3383
rameIcon	-11.3387
▁profil	-11.3399
CHI	-11.34
▁LoginException	-11.34
▁IDBVisitaBC	-11.3401
▁Studente	-11.3405
▁Prenotazioni	-11.3409
▁ottenut	-11.3416
cause	-11.3418
▁pBeanVisitaBC	-11.3419
82	-11.342
▁fromAttribute	-11.3426
000000	-11.3442
UD	-11.3451
▁idJustify	-11.3452
absences	-11.3463
▁stu	-11.3468
▁BufferedImage	-11.3469
▁getTeachingsBy	-11.347
▁"84	-11.3475
modificaCommento	-11.3478
▁returning	-11.3479
▁justifynew	-11.3479
▁pTagsId	-11.3492
omen	-11.3514
]=	-11.3516
▁ava	-11.3518
▁fonts	-11.3529
pConnection	-11.3531
tmpUser	-11.3542
▁getS	-11.3545
▁left	-11.355
▁pIDJustify	-11.355
▁nextToken	-11.355
▁replace	-11.355
▁indice	-11.3551
▁Selected	-11.3574
▁allo	-11.3586
ces	-11.3592
▁RicercaAvanzata	-11.3598
▁code	-11.3608
setF	-11.3609
resting	-11.3614
▁nomi	-11.3625
▁Insegnamenti	-11.363
▁waitTimeout	-11.3631
▁des	-11.3639
▁Abs	-11.364
istaPrenotazioni	-11.3645
▁eliminat	-11.3648
▁120	-11.3652
()+"."	-11.367
Di	-11.3673
▁delet	-11.3686
getW	-11.3688
▁Close	-11.3699
▁280	-11.3701
ale	-11.3701
▁CAP	-11.3713
▁52)	-11.3721
TR	-11.3731
▁decompose	-11.3756
▁vis	-11.3766
07	-11.3771
PC	-11.3775
▁Registro	-11.3796
()+	-11.38
▁IDBConvenzione	-11.3806
96	-11.3809
Categorie	-11.3813
▁getTelefono	-11.3817
88	-11.3821
▁0.0;	-11.3821
aC	-11.385
▁27	-11.3859
▁files	-11.3888
FORMA	-11.3915
ltre	-11.3919
▁PartitaIva	-11.3956
▁maxPoolSize	-11.3964
ite	-11.3964
▁Server	-11.3975
do	-11.3976
▁Co	-11.3999
▁Le	-11.4009
▁ins	-11.4024
▁[10]	-11.403
▁Sceglie	-11.4044
orted	-11.4045
▁strings	-11.4058
▁rilasci	-11.4082
▁booleano	-11.4084
▁3:	-11.4104
04	-11.4131
▁NumeroVoti	-11.4137
▁getCap	-11.4148
▁Di	-11.4151
▁1:	-11.4177
Key	-11.4186
Ritard	-11.4251
olPropertiesPath	-11.4252
lbergo	-11.4272
stringa	-11.4289
none	-11.429
BeanOperatore	-11.4309
+1;	-11.4316
▁Do	-11.4333
▁rist	-11.4346
Singolo	-11.4358
getNoteByI	-11.4376
ll	-11.4401
sci	-11.4422
▁(180	-11.4435
▁getToolbar	-11.4493
Ma	-11.4497
▁setD	-11.4553
Scadut	-11.4572
▁Ba	-11.4587
LastName	-11.4588
▁Email	-11.4593
DES	-11.4596
lare	-11.4609
▁handle	-11.4615
Prenotazioni	-11.4632
unica	-11.4651
changedAttribute	-11.4661
▁sort	-11.4675
alla	-11.4677
▁(16	-11.4677
▁occupa	-11.4735
est	-11.4737
▁toAttribute	-11.4742
Studente	-11.4743
6)	-11.4743
forName	-11.4745
"""")	-11.4764
v	-11.4804
IDB	-11.4819
▁=-6	-11.4849
▁specifica	-11.4884
stra	-11.4904
▁tel	-11.4917
mp	-11.4962
▁getLast	-11.5025
Elements	-11.5051
▁realiz	-11.5055
Up	-11.5056
Be	-11.5059
rag	-11.5062
Richieste	-11.5072
(((	-11.511
▁2:	-11.5113
▁Una	-11.5131
Connections	-11.5135
getOra	-11.5138
▁inizia	-11.5145
OP	-11.5147
ong	-11.5158
We	-11.5165
▁usernameTurista	-11.5167
▁activat	-11.5176
GH	-11.5177
IdNote	-11.5184
Module	-11.521
Constraint	-11.5213
Fine	-11.5229
restore	-11.5241
toControl	-11.5246
pdf	-11.5246
bVisitaTemp	-11.5246
agenzie	-11.5246
member	-11.5248
RIC	-11.5252
Panel	-11.5253
servizi	-11.5262
itStu	-11.5264
generic	-11.5264
space	-11.5264
poolTimeout	-11.5264
activeTimeout	-11.5264
getBtnAzzera	-11.5264
full	-11.5265
role	-11.5266
Day	-11.5268
▁pClassroom	-11.527
Content	-11.527
▁utilizzat	-11.5271
getBtnRicerca	-11.5271
dbbc	-11.5273
nomi	-11.5277
IDBVisitaBC	-11.5279
Recuper	-11.528
Active	-11.5281
posGeo	-11.5283
before	-11.5284
With	-11.5286
JOIN	-11.5288
latitude	-11.5288
Return	-11.5288
abilita	-11.5289
passata	-11.529
modificaTurista	-11.5292
log	-11.5292
posGeoZ	-11.5292
orarioApMinPR	-11.5292
visited	-11.5295
ToolbarSchedaPR	-11.5295
counter	-11.5295
PRNode	-11.5296
posGeoY	-11.5297
figli	-11.5298
activate	-11.5299
nomeBC	-11.53
textbox	-11.53
count	-11.5302
pass	-11.5302
[12].	-11.5303
column	-11.5304
btnAzzera	-11.5304
StringTokenizer	-11.5305
pagella	-11.5305
dbNews	-11.5306
NewsTableModel	-11.5306
Salerno	-11.5307
2009	-11.5307
▁attual	-11.5308
LoginException	-11.5311
smos	-11.5311
iconifiedFrames	-11.5311
pVoto	-11.5312
void	-11.5312
senza	-11.5322
presenti	-11.5326
For	-11.5326
pVisitaPR	-11.5326
pVisitaBC	-11.5326
setDefault	-11.533
IdDelay	-11.5335
idJustify	-11.5342
No	-11.5347
IGestioneAdve	-11.5349
ttieniFeedbackPR	-11.5349
Rimuovi	-11.5355
static	-11.536
testoNews	-11.5367
▁(7	-11.5379
ima	-11.5384
pValue	-11.5389
Man	-11.5391
agato	-11.5396
pid	-11.5408
rovincia	-11.5413
assign	-11.5417
ratta	-11.5423
Prec	-11.5436
rd	-11.5437
▁setT	-11.5438
ino	-11.5447
CL	-11.5452
▁getFeedback	-11.5467
setPreferred	-11.5468
olo	-11.5471
Invia	-11.5472
▁setUser	-11.5474
justifynew	-11.5482
▁100)	-11.5511
hour	-11.5548
▁Favorite	-11.5551
▁condition	-11.5553
corda	-11.5553
IdBene	-11.5559
▁Term	-11.5559
inutes	-11.556
▁richied	-11.556
▁task	-11.5562
chiesto	-11.5562
Val	-11.557
200	-11.5571
Foreground	-11.5571
uisce	-11.5576
vered	-11.5581
Tip	-11.5583
Scatt	-11.5583
dvanced	-11.5589
▁Messag	-11.559
▁convenzion	-11.5591
Assenze	-11.5591
NumeroPagina	-11.5591
▁Digital	-11.5592
▁Mouse	-11.5593
Log	-11.5594
TextFooter	-11.5595
ServerSmtp	-11.5597
ance	-11.5598
Config	-11.5599
▁posti	-11.5608
aschera	-11.5609
SERT	-11.561
DataFine	-11.5612
istener	-11.5613
bile	-11.5614
▁visitati	-11.5614
Azzera	-11.5614
polit	-11.5614
instan	-11.5614
academic	-11.5614
▁lbl	-11.5615
ziare	-11.5615
Scrollable	-11.5615
differen	-11.5615
▁central	-11.5615
PrefRic	-11.5615
PROSSIMO	-11.5615
ASSEGNATA	-11.5615
Jdbc	-11.5615
PREFERENZE	-11.5615
COLAZIONE	-11.5615
PERNOTTAMENTO	-11.5615
▁LOGIN	-11.5615
ETT	-11.5615
▁histor	-11.5615
▁pGlassComponent	-11.5615
ADULTO	-11.5615
ATTIVA	-11.5615
BACK	-11.5615
BAMBINO	-11.5615
Block	-11.5615
Conf	-11.5615
DisattivaTurista	-11.5615
ElencoRegistri	-11.5615
Largo	-11.5615
Monitoraggio	-11.5615
Ottabio	-11.5615
Parametri	-11.5615
PlainDocument	-11.5615
RAGAZZO	-11.5615
Riga	-11.5615
STATISTIC	-11.5615
Specializzat	-11.5615
SplitPane	-11.5615
UltimiCommenti	-11.5615
VetoException	-11.5615
aNewsScaduta	-11.5615
beniservizi	-11.5615
disattivaTurista	-11.5615
getStagAnno	-11.5615
pTipologiaUtente	-11.5615
serverSmtp	-11.5615
showNoteList	-11.5615
▁Chiud	-11.5615
▁Condition	-11.5615
▁InternetAddress	-11.5615
▁MinimumNoRects	-11.5615
▁SubBeniServizi	-11.5615
▁SubCommissioni	-11.5615
▁VISUALIZZASITI	-11.5615
▁VediBeniServizi	-11.5615
▁VediCliente	-11.5615
▁VediCommissione	-11.5615
▁VediStanza	-11.5615
▁almeno	-11.5615
▁blank	-11.5615
▁children	-11.5615
▁chiudere	-11.5615
▁compres	-11.5615
▁gerarchia	-11.5615
▁giustifiche	-11.5615
▁inserite	-11.5615
▁instantiate	-11.5615
▁keeps	-11.5615
▁lavoro	-11.5615
▁located	-11.5615
▁machine	-11.5615
▁maxDist	-11.5615
▁modelHandler	-11.5615
▁neonati	-11.5615
▁obbligatori	-11.5615
▁opStack	-11.5615
▁outlets	-11.5615
▁proced	-11.5615
▁proceed	-11.5615
▁riguardant	-11.5615
▁settimana	-11.5615
▁speficiato	-11.5615
▁statistico	-11.5615
▁surname	-11.5615
▁tTmp	-11.5615
▁telefonate	-11.5615
▁telefonica	-11.5615
,"","","	-11.5615
MaxDayBeforeExam	-11.5615
PerAddebitare	-11.5615
Tutti	-11.5615
capacity	-11.5615
getJustifyBy	-11.5615
▁ServletLoad	-11.5615
▁pTestoCategoria	-11.5615
Giorni	-11.5615
VISIT	-11.5615
commissionamento	-11.5615
fileImg	-11.5615
▁Card	-11.5615
▁FinModifiche	-11.5615
▁above	-11.5615
▁corrispondenza	-11.5615
PooledConnection	-11.5615
▁RMI	-11.5615
▁pubblicitario	-11.5615
▁tIntString	-11.5615
▁testGetTab	-11.5615
RegFlag	-11.5615
▁Exist	-11.5615
▁inserendo	-11.5615
▁strES	-11.5615
nasc	-11.5615
▁preview	-11.5615
Neonato	-11.5615
▁finestre	-11.5615
egal	-11.5615
INE	-11.5615
▁Import	-11.5615
▁riversa	-11.5615
Doc	-11.5615
▁rinfresc	-11.5615
setPaint	-11.5615
▁defaultPort	-11.5615
▁solveStructure	-11.5615
▁VisualPanel	-11.5615
▁SchedaPR	-11.5615
▁intende	-11.5615
▁cambiamento	-11.5615
TIVI	-11.5615
0100	-11.5615
Loop	-11.5615
pIDDelay	-11.5615
▁ReplaceAll	-11.5615
▁Passwd	-11.5615
▁nextChar	-11.5615
localhost	-11.5615
ConnectionCloser	-11.5615
▁trasforma	-11.5616
▁480)	-11.5616
EventServerIP	-11.5616
▁corretto	-11.5616
▁visualInsert	-11.5616
▁AskChiudiConto	-11.5616
showAddressList	-11.5616
NewsParametro	-11.5616
▁CallBack	-11.5616
Logger	-11.5616
▁taskNumber	-11.5616
replaceAll	-11.5616
▁visitatiBC	-11.5616
vation	-11.5616
FocusListener	-11.5616
▁yet	-11.5616
FileFilter	-11.5616
chat	-11.5616
▁paramtro	-11.5616
▁concordat	-11.5616
▁Run	-11.5616
▁Ritardi	-11.5616
▁impactReport	-11.5616
▁registrazione	-11.5616
OTTA	-11.5616
="0"+	-11.5616
▁visitatiPR	-11.5616
▁InserisciStanze	-11.5617
▁CancellaStanze	-11.5617
MENTO	-11.5617
▁End	-11.5617
▁temporar	-11.5617
aNewsAttiva	-11.5617
▁compi	-11.5617
zaLongitudine	-11.5617
FILE	-11.5617
▁seek	-11.5617
Permission	-11.5617
hover	-11.5617
allableStatement	-11.5617
TuristiAgenzia	-11.5617
GIO	-11.5617
otore	-11.5617
▁direzione	-11.5617
keyChar	-11.5618
schedaturista	-11.5618
▁scrollPane	-11.5618
▁worker	-11.5618
Mon	-11.5618
DataInizio	-11.5619
▁meno	-11.5619
▁odierna	-11.5619
gin	-11.5619
▁hits	-11.5619
▁immediat	-11.5619
▁ModificaStanze	-11.5619
▁tornaDate	-11.562
▁amended	-11.562
▁response	-11.562
▁mainFrame	-11.562
Al	-11.562
unselectedlength	-11.562
▁MascheraCambio	-11.562
▁writeTime	-11.562
▁veng	-11.562
itu	-11.5621
----------------	-11.5621
▁loro	-11.5621
▁potr	-11.5621
▁Gior	-11.5621
250,	-11.5622
▁(700	-11.5622
▁here	-11.5622
▁sotto	-11.5622
▁rimuove	-11.5622
▁Reco	-11.5622
DRenderer	-11.5622
ebb	-11.5623
changeStanza	-11.5623
▁rno	-11.5623
activeIndex	-11.5623
▁listino	-11.5624
▁pIdPiatto	-11.5624
▁getScrollable	-11.5624
▁iconDialog	-11.5625
▁ottieniMenu	-11.5626
ATO	-11.5626
▁specificato	-11.5626
▁Site	-11.5626
AttributeSet	-11.5626
ARN	-11.5627
setContent	-11.5627
▁equation	-11.5627
▁assegnato	-11.5628
▁dimensione	-11.5628
getBtnReset	-11.5629
ERI	-11.5629
▁party	-11.5629
setFine	-11.5629
▁Receive	-11.5632
▁rispett	-11.5632
isAta	-11.5632
setInizio	-11.5633
▁pIdBene	-11.5633
▁creating	-11.5634
terminiCategoria	-11.5635
alertStudentNote	-11.5635
▁BannerDialog	-11.5637
pportedException	-11.5637
▁Print	-11.5638
CAL	-11.5638
▁map	-11.5639
onico	-11.5639
Requirements	-11.5639
for	-11.564
FileOutputStream	-11.5641
867	-11.5644
getIndirizzoPR	-11.5645
simple	-11.5645
rnd	-11.5645
▁assignments	-11.5646
MEN	-11.5646
▁numeri	-11.5647
<->	-11.5647
▁pTema	-11.5648
▁processed	-11.5649
FileReader	-11.565
DBPiatto	-11.565
▁cambiato	-11.5651
▁visualizzate	-11.5651
ful	-11.5652
selectedNode	-11.5654
DBMenu	-11.5654
SubscriberModule	-11.5654
gh	-11.5654
▁stabili	-11.5656
down	-11.5657
EventServer	-11.5659
▁dot	-11.5659
▁pOral	-11.5659
▁whose	-11.5663
▁pLaboratory	-11.5663
▁pWritten	-11.5663
▁pField	-11.5663
DataSource	-11.5664
▁Right	-11.5664
TOP	-11.5664
▁star	-11.5666
TestCase	-11.5666
setPx	-11.5669
vert	-11.567
ReportTableModel	-11.5671
▁fre	-11.5672
▁know	-11.5672
▁removal	-11.5672
▁Genitore	-11.5672
▁corretti	-11.5672
▁PannelloTag	-11.5672
▁Price	-11.5672
▁Tokenizer	-11.5672
Ele	-11.5672
Nazione	-11.5673
▁StructureId	-11.5673
▁build	-11.5673
▁FileInputStream	-11.5673
▁txtAttiva	-11.5673
▁pImmagineBanner	-11.5674
▁btnOK	-11.5675
▁need	-11.5676
▁getStatistiche	-11.5677
Corretti	-11.5678
▁getM	-11.568
▁testoCategoria	-11.5683
▁IDBOperatore	-11.5684
Timeout	-11.5685
▁79	-11.5686
▁classList	-11.5686
getVotesByUserId	-11.569
▁cancellata	-11.569
▁host	-11.5691
▁assente	-11.5691
▁Cl	-11.5693
LIMI	-11.5696
Costruttore	-11.5697
orientation	-11.5697
▁tasks	-11.5698
letterePermesse	-11.5701
corso	-11.5703
▁pensionamento	-11.5704
ara	-11.5704
()<=0)	-11.5707
<10;	-11.571
deleteDelay	-11.5719
01	-11.5719
▁checked	-11.572
398	-11.572
▁called	-11.5724
▁pKeyEvent	-11.5725
▁feedbackModel	-11.5726
nto	-11.5729
▁fo	-11.5745
updateAbsence	-11.5745
▁pbc	-11.5746
▁added	-11.5746
▁pIdJustify	-11.5747
TreeSelection	-11.5748
ndDate	-11.575
mia	-11.5754
Documento	-11.5758
▁Stagioni	-11.5759
GI	-11.5768
▁coinvolt	-11.5769
▁calcola	-11.5771
▁botton	-11.5771
▁dataScad	-11.5771
▁dataPubb	-11.5771
▁riduzione	-11.5771
▁isWizard	-11.5771
▁Random	-11.5771
▁filtri	-11.5771
▁imageLeftColumn	-11.5771
▁listavisitati	-11.5771
▁primi	-11.5771
▁castle	-11.5771
▁PrintWriter	-11.5771
▁necessary	-11.5771
▁imageHeaderPath	-11.5772
▁Invoke	-11.5772
pow	-11.5772
▁aggiungeTag	-11.5773
currentTag	-11.5773
▁pNewsID	-11.5773
Decompose	-11.5773
▁textPanel	-11.5774
▁buttonPanel	-11.5774
managerClass	-11.5777
setAutoCommit	-11.5777
)(5.6.	-11.5779
▁getOra	-11.578
▁Arrivo	-11.578
nn	-11.5781
pIdClass	-11.5784
▁valida	-11.5785
255,	-11.5786
▁quali	-11.5786
▁scritto	-11.5788
▁pSql	-11.581
▁newIndex	-11.5812
▁Nuova	-11.5815
35608	-11.5815
▁selectedlength	-11.5818
getStudent	-11.582
▁itTeaching	-11.5823
deleteAbsence	-11.5824
▁counters	-11.5829
selectedClass	-11.5834
▁(""	-11.5837
menuListener	-11.5837
stru	-11.5838
deleteJustify	-11.5841
▁pRegisterLine	-11.5843
436	-11.5843
▁ProjectName	-11.5849
AV	-11.5849
press	-11.5851
▁setCitta	-11.5859
statoConvenzione	-11.5859
pIdTeacher	-11.5865
▁iniz	-11.5868
eranno	-11.5869
▁laboratory	-11.5874
▁SubPrenotazione	-11.5874
▁textFooter	-11.5874
▁written	-11.5874
▁driverMySql	-11.5874
▁pTagNuovo	-11.5874
▁orarioCHOrePR	-11.5874
▁JTextComponent	-11.5875
▁pConv	-11.5877
▁img	-11.5878
=0,	-11.5878
idVoto	-11.5879
JFrame	-11.588
▁continue	-11.5894
Maschera	-11.5901
Sta	-11.5901
scann	-11.592
▁(100,	-11.5931
setLogin	-11.5938
Turisti	-11.594
▁aTable	-11.5941
pending	-11.5943
▁idNews	-11.5945
IdTag	-11.5948
▁userName	-11.5948
▁thi	-11.5948
▁corso	-11.5964
ITA	-11.5965
▁(32	-11.597
▁generic	-11.5978
▁role	-11.5979
▁itStu	-11.5979
▁full	-11.5979
▁space	-11.5979
▁getBtnAzzera	-11.598
▁activeTimeout	-11.598
▁poolTimeout	-11.5982
▁getBtnRicerca	-11.5987
getJPanel	-11.5987
orma	-11.6005
enabled	-11.6007
▁variables	-11.6016
go	-11.6025
▁IGestioneAdve	-11.6027
IDA	-11.6036
▁refine	-11.6052
Refine	-11.6064
INS	-11.6074
▁ids	-11.6077
▁pNews	-11.6085
tur	-11.609
▁maggiore	-11.609
UM	-11.6097
▁tabellas	-11.6097
1[2]	-11.6104
pUsernameTurista	-11.6115
Ar	-11.6117
nTeaching	-11.6117
▁fatt	-11.6125
ingAsAddress	-11.6127
▁Window	-11.6133
vision	-11.6139
+".*	-11.6159
32	-11.6163
▁Speculate	-11.6178
▁ottieniTags	-11.618
▁160	-11.6188
▁Telefonata	-11.6192
▁center	-11.6193
▁scatto	-11.6194
▁Statistics	-11.6194
▁writeInt	-11.6196
▁media	-11.6198
sol	-11.6201
▁CategoryName	-11.6208
85	-11.6215
adrimestre	-11.6233
EF	-11.6238
lable	-11.624
▁userStudent	-11.6242
GE	-11.6253
▁180	-11.6259
setE	-11.6265
▁customize	-11.6294
▁Calendar	-11.6303
▁Save	-11.6306
▁getJPanel	-11.631
ies	-11.634
her	-11.6356
▁+"	-11.6368
VisualizzaD	-11.639
and	-11.6396
▁(15	-11.6399
cli	-11.64
5,5,5	-11.6445
1[1]	-11.6458
▁92	-11.6508
ServletException	-11.6528
▁RequirementID	-11.6533
33	-11.6542
2.2	-11.6564
▁-6	-11.6571
><	-11.6589
Immagine	-11.6593
Verific	-11.6595
120,	-11.6595
imento	-11.6609
▁w	-11.6616
></	-11.6622
▁registry	-11.664
▁tmpRegisterLine	-11.6643
dere	-11.6645
38	-11.6649
ue	-11.6715
Gi	-11.6722
▁Pre	-11.6723
▁Cambio	-11.6764
<3;	-11.6769
Si	-11.6817
getKeyC	-11.6837
▁poss	-11.685
▁70	-11.6881
▁comitiva	-11.6882
Events	-11.6916
lu	-11.6932
ration	-11.6955
▁Telefonate	-11.6956
▁indica	-11.6978
lber	-11.6994
▁Non	-11.7009
65	-11.7056
▁cambiat	-11.7058
+(	-11.7068
Selected	-11.7073
▁Qua	-11.7105
▁23	-11.7135
DEL	-11.7151
▁suggeriment	-11.717
Ba	-11.7171
▁cambia	-11.7176
register	-11.7238
25,	-11.7283
mplic	-11.7291
nello	-11.7292
tr	-11.7294
295	-11.7303
GestioneAdve	-11.7316
adding	-11.7327
1()	-11.7371
ines	-11.7404
>0	-11.7406
rn	-11.7415
":"	-11.744
pYear	-11.7494
ModificaBC	-11.7521
1[0]	-11.7574
Rag	-11.759
▁operatore	-11.7595
▁btn	-11.7617
ossi	-11.7626
bo	-11.7627
▁0:	-11.7642
etTelefono	-11.7649
>=	-11.7664
135	-11.7708
empi	-11.776
▁Conto	-11.7763
▁(120	-11.777
29)	-11.7807
deco	-11.781
ferenzeDiRicerca	-11.7821
roomsByTeacher	-11.7824
+""|""	-11.7865
tDate	-11.7871
▁Number	-11.7897
▁sing	-11.79
▁associa	-11.7921
cl	-11.7942
ante	-11.7964
tatic	-11.7974
259	-11.7986
ity	-11.8008
moveAllElements	-11.8033
getSelection	-11.8039
17,	-11.8039
▁invi	-11.806
ttori	-11.8104
▁(1	-11.8122
▁20))	-11.8141
▁State	-11.8146
enti	-11.8151
Calculate	-11.8159
lea	-11.8179
pac	-11.8187
▁(60	-11.8205
Mi	-11.8243
ItemA	-11.8251
▁preceden	-11.8281
DUserAnd	-11.8297
iene	-11.8298
Icon	-11.8341
ercorso	-11.8366
met	-11.8368
VisualizzaScheda	-11.8378
_4.	-11.8388
leCellRenderer	-11.8388
▁=-3	-11.8443
▁sec	-11.8446
Mo	-11.8483
giorno	-11.8487
ell	-11.8492
aEvent	-11.8503
▁numeroElementi	-11.8508
ining	-11.8551
tourist	-11.8567
ize	-11.8572
VALUE	-11.8575
Box	-11.858
pOffset	-11.8581
pTagModificato	-11.8581
Place	-11.8581
getAbsenceById	-11.8582
Image	-11.8582
Tra	-11.8583
segue	-11.8584
throw	-11.8585
saved	-11.8589
iniz	-11.8592
▁GestioneTag	-11.8593
▁eventual	-11.8596
access	-11.8596
JTextComponent	-11.8598
driverMySql	-11.8598
written	-11.8598
laboratory	-11.8598
pTagNuovo	-11.8598
textFooter	-11.8598
SubPrenotazione	-11.8598
orarioCHOrePR	-11.8599
pConv	-11.86
present	-11.8602
img	-11.8602
setCitta	-11.8605
provPR	-11.8608
Docente	-11.8608
JTree	-11.8609
Beniculturali	-11.8615
puntoRistoro	-11.8615
controllaDati	-11.8615
Query	-11.8615
vedi	-11.8616
Action	-11.8618
LineSt	-11.8619
CentrePanel	-11.8619
Assegna	-11.8619
TextLine	-11.862
format	-11.8622
camera	-11.8622
oralInt	-11.8623
IDBVisitaPR	-11.8623
Properties	-11.8624
DateFormat	-11.8624
descrizioneBC	-11.8624
glass	-11.8625
orarioCHMinPR	-11.8625
citta	-11.8625
pDataInizio	-11.8626
corrente	-11.8627
items	-11.8627
toChange	-11.8628
profiloTurista	-11.8628
node	-11.863
pCol	-11.863
pStatementSql	-11.863
sourceStr	-11.8631
tiPaginaCorrente	-11.8631
RicercaPanel	-11.8631
Indietro	-11.8632
Input	-11.8633
myCheckbox	-11.8633
location	-11.8633
▁[12]	-11.8635
Display	-11.8635
driver	-11.8637
fir	-11.8637
cambio	-11.8637
btnElimina	-11.8638
btnRicerca	-11.8638
cancellaTag	-11.8638
position	-11.8638
ty	-11.8639
description	-11.864
Iscrizione	-11.864
contains	-11.8641
tipo	-11.8641
Characters	-11.8641
invalid	-11.8641
etichetta	-11.8642
spes	-11.8642
tableBC	-11.8646
Nota	-11.8647
roomId	-11.8652
pTelefono	-11.8655
dbBanner	-11.8656
bale	-11.8657
loaded	-11.866
(0,	-11.8661
save	-11.8671
▁50)	-11.8674
pCognome	-11.8676
aTable	-11.8677
▁Manag	-11.8682
Tipo	-11.8685
per	-11.8686
edit	-11.8686
itario	-11.8686
pVia	-11.8687
(20,	-11.8689
356	-11.8702
ND	-11.8702
pProvincia	-11.8705
Tree	-11.8711
tourists	-11.8714
Nascita	-11.8715
▁Perform	-11.8726
userName	-11.8728
▁costru	-11.8728
Calcol	-11.8743
▁verific	-11.8762
aRow	-11.8768
idAbsence	-11.8774
Vertical	-11.8788
▁getAddress	-11.8795
area	-11.8802
Classe	-11.8813
▁permett	-11.8819
ron	-11.8827
rientation	-11.8835
▁nuov	-11.8837
▁serv	-11.8854
ottieniTags	-11.8857
10"	-11.8857
Citta	-11.8859
bili	-11.886
▁track	-11.8868
▁cop	-11.8873
▁perform	-11.8877
▁merge	-11.8879
Scadenza	-11.888
Statistic	-11.8881
import	-11.8885
▁EventLine	-11.8887
conifiedFrames	-11.8891
▁quest	-11.8892
▁scelt	-11.8893
Node	-11.8902
startAvvi	-11.8903
▁fil	-11.8915
head	-11.8915
▁ricev	-11.8915
▁updat	-11.8917
▁alcun	-11.8917
pName	-11.8917
▁categori	-11.8917
▁requisit	-11.8918
▁rimuov	-11.8919
▁na	-11.8919
evi	-11.8921
▁iscrizion	-11.8921
▁writ	-11.8922
TotTermini	-11.8922
ccording	-11.8923
▁getSelection	-11.8923
▁previst	-11.8924
ssued	-11.8925
nformazioni	-11.8925
pplication	-11.8928
▁stess	-11.8928
Chiusura	-11.893
NuovoCommento	-11.8931
ary	-11.8932
rSlider	-11.8933
MetaData	-11.8933
compar	-11.8933
Custom	-11.8939
▁prenota	-11.894
▁analyze	-11.8941
▁amend	-11.8942
▁detect	-11.8942
▁richi	-11.8942
peculative	-11.8942
▁graph	-11.8943
DISPONIBIL	-11.8943
ember	-11.8944
tyle	-11.8944
▁Touris	-11.8946
localita	-11.8946
Ristorazione	-11.8946
ordinate	-11.8947
Wrappe	-11.8947
Evt	-11.8947
▁acca	-11.8947
ByAcademicYear	-11.8948
interfacc	-11.8948
ENTER	-11.8948
Defini	-11.8948
▁AskChiudi	-11.8948
Attenzione	-11.8948
tiva	-11.8948
Numeric	-11.8948
Header	-11.8948
▁Buffered	-11.8948
Length	-11.8948
▁Require	-11.8948
Center	-11.8948
▁logga	-11.8948
arrow	-11.8948
associazione	-11.8948
▁Beni	-11.8948
▁LOGGER	-11.8948
0,10,10,10	-11.8948
setRich	-11.8948
▁startSearchComm	-11.8948
AtaPeople	-11.8948
Obsolete	-11.8948
idUnselectedList	-11.8948
split	-11.8948
123456789	-11.8948
ATTIVE	-11.8948
BACKGROUND	-11.8948
Balance	-11.8948
Bevande	-11.8948
BevelBorder	-11.8948
Board	-11.8948
CHIUSO	-11.8948
Carne	-11.8948
Choose	-11.8948
ElencoIndirizzi	-11.8948
ElencoUtenti	-11.8948
Execution	-11.8948
Expand	-11.8948
Geographic	-11.8948
Media	-11.8948
Original	-11.8948
PuntiRistoro	-11.8948
Rinnova	-11.8948
SHORT	-11.8948
SUBSCRIPTION	-11.8948
VediSoggiornante	-11.8948
White	-11.8948
esecuzione	-11.8948
expires	-11.8948
idSelectedList	-11.8948
longitudine	-11.8948
millisecBetween	-11.8948
ouseEnteredEvent	-11.8948
rawConn	-11.8948
rofessor	-11.8948
▁###	-11.8948
▁Choice	-11.8948
▁Cycle	-11.8948
▁Disciplinar	-11.8948
▁EvalTokenizer	-11.8948
▁Found	-11.8948
▁Indirizzi	-11.8948
▁JFileChooser	-11.8948
▁LoginErrato	-11.8948
▁Membership	-11.8948
▁Redraw	-11.8948
▁Stub	-11.8948
▁WARNING	-11.8948
▁apportare	-11.8948
▁bearing	-11.8948
▁caparra	-11.8948
▁carattere	-11.8948
▁clSym	-11.8948
▁commissionata	-11.8948
▁distingu	-11.8948
▁effect	-11.8948
▁enumTerm	-11.8948
▁gestore	-11.8948
▁junit	-11.8948
▁lasciare	-11.8948
▁lowercase	-11.8948
▁mouseEntered	-11.8948
▁opSym	-11.8948
▁pPoolManager	-11.8948
▁parzial	-11.8948
▁postcode	-11.8948
▁provveder	-11.8948
▁queue	-11.8948
▁raccolt	-11.8948
▁removing	-11.8948
▁ritardatari	-11.8948
▁special	-11.8948
▁splitPane	-11.8948
▁subject	-11.8948
▁telefonata	-11.8948
▁wrapp	-11.8948
almenoUno	-11.8948
fffff	-11.8948
▁Pattra	-11.8948
▁Public	-11.8948
▁Surname	-11.8948
▁Total	-11.8948
▁VediAddebito	-11.8948
▁enough	-11.8948
ConArrayList	-11.8948
adapter	-11.8948
apposit	-11.8948
rackVariableName	-11.8948
showReports	-11.8948
▁DOORS	-11.8948
▁Utenti	-11.8948
▁deiconify	-11.8948
▁generous	-11.8948
▁iconify	-11.8948
▁program	-11.8948
▁testGetValueAt	-11.8948
11111	-11.8948
Commissione	-11.8948
▁appartenen	-11.8948
▁associazionebc	-11.8948
▁quote	-11.8948
▁startIns	-11.8948
+"/"+	-11.8948
771730	-11.8948
Licenza	-11.8948
REPORT	-11.8948
▁TAGTableModel	-11.8948
▁administrators	-11.8948
▁consentit	-11.8948
▁ristoro	-11.8948
▁until	-11.8948
Blocco	-11.8948
keyTyped	-11.8948
▁Knowledge	-11.8948
▁actual	-11.8948
▁myLocation	-11.8948
▁ovv	-11.8948
About	-11.8948
▁choose	-11.8948
abellaSiti	-11.8948
AdUn	-11.8948
fileProp	-11.8948
▁grId	-11.8948
▁permanenza	-11.8948
▁structure	-11.8948
▁attivo	-11.8949
▁radians	-11.8949
Soc	-11.8949
-06	-11.8949
ShapeBefore	-11.8949
▁ElencoPrefRic	-11.8949
955	-11.8949
trans	-11.8949
▁When	-11.8949
▁attore	-11.8949
▁rimozione	-11.8949
ControllaPren	-11.8949
inclusione	-11.8949
▁sceglie	-11.8949
▁elm	-11.8949
Assenza	-11.8949
Oreca	-11.8949
Word	-11.8949
▁vogli	-11.8949
EventsProcessor	-11.8949
▁(0,0,0,	-11.8949
▁sposta	-11.8949
▁ebt	-11.8949
▁offert	-11.8949
7864	-11.8949
▁different	-11.8949
▁maxLength	-11.8949
▁viaggi	-11.8949
TreeCellRenderer	-11.8949
▁guide	-11.8949
▁normale	-11.8949
▁Make	-11.8949
,0.0,0.0,5,	-11.8949
▁lblModulePath	-11.8949
pIsSelected	-11.8949
▁strutt	-11.8949
pIDNote	-11.8949
DAY	-11.8949
▁fold	-11.8949
NumericDocument	-11.8949
ShapeAfter	-11.8949
▁training	-11.8949
▁Letters	-11.8949
DettagliNota	-11.8949
▁dovuto	-11.8949
▁lblProject	-11.8949
▁Mysql	-11.8949
1075	-11.8949
isAtaBoolean	-11.8949
5906	-11.8949
▁symbol	-11.8949
ransform	-11.8949
uploadPath	-11.8949
617134	-11.8949
▁numeriPermessi	-11.8949
▁elencoOut	-11.8949
▁dictionary	-11.8949
▁pull	-11.8949
▁maxim	-11.8949
▁fra	-11.895
isStudentBoolean	-11.895
▁circ	-11.895
iteClass	-11.895
hich	-11.895
afil	-11.895
isTeacherBoolean	-11.895
2032	-11.895
FocusEvent	-11.895
▁skip	-11.895
Gui	-11.895
▁occorre	-11.895
Desc	-11.895
▁errata	-11.895
▁contieneTag	-11.895
MIN	-11.8951
▁question	-11.8951
▁occupate	-11.8951
▁Tras	-11.8951
▁Hide	-11.8951
▁colle	-11.8951
herit	-11.8951
▁collec	-11.8951
▁AvvisoLocale	-11.8951
▁graphName	-11.8951
▁Rice	-11.8951
▁graphId	-11.8951
▁ModelDriver	-11.8951
grad	-11.8951
mar	-11.8952
▁dbturista	-11.8952
romantic	-11.8952
pdfPath	-11.8952
▁direction	-11.8952
▁contratt	-11.8952
▁closure	-11.8952
▁Associated	-11.8952
selectedClassId	-11.8952
▁yLocation	-11.8953
▁Closeall	-11.8953
▁rimoss	-11.8953
▁erased	-11.8954
▁concern	-11.8954
▁avanzata	-11.8954
756	-11.8954
rding	-11.8954
intern	-11.8954
▁ListaAddebiti	-11.8955
RicercaStorico	-11.8955
▁detected	-11.8955
▁bloccate	-11.8955
1510	-11.8956
balla	-11.8956
Radi	-11.8956
oglia	-11.8956
▁assegnate	-11.8956
▁begin	-11.8957
▁(3.1.	-11.8957
▁addressList	-11.8957
▁Or	-11.8958
▁dbTurista	-11.8958
▁yearList	-11.8958
▁getQuery	-11.8958
▁setQuery	-11.8959
542	-11.8959
▁linker	-11.8959
▁fissat	-11.8959
eff	-11.8959
▁pPdfPath	-11.896
▁pUploadPath	-11.896
▁Fra	-11.896
AttivaTurista	-11.896
solid	-11.8961
▁valT	-11.8961
ssegnazione	-11.8961
ModificaTurista	-11.8962
▁gestioneBanner	-11.8962
nzi	-11.8962
▁metter	-11.8962
▁proj	-11.8963
▁secondDate	-11.8963
EventLog	-11.8963
,3),	-11.8963
ettagliIndirizzo	-11.8964
)+1900	-11.8964
▁84	-11.8964
▁fall	-11.8965
▁some	-11.8965
▁EOL	-11.8966
▁"",20,	-11.8966
▁Character	-11.8966
▁Iter	-11.8967
Col	-11.8967
DeskMenu	-11.8967
▁RicercaAddebiti	-11.8967
▁bVisita	-11.8967
▁header	-11.8968
▁pIdConvenzione	-11.8969
▁""|""	-11.8969
getCosto	-11.897
ServletConfig	-11.897
setData	-11.8971
SpeculateValue	-11.8971
▁prevista	-11.8973
▁iconificati	-11.8973
ersonale	-11.8974
▁txtY	-11.8974
▁pServerSmtp	-11.8974
▁sum	-11.8975
▁pact	-11.8976
846	-11.8976
▁pLastName	-11.8977
▁"089	-11.8978
▁feedbackBC	-11.8978
getImage	-11.8979
<4;	-11.898
▁controllaDate	-11.898
CONT	-11.898
▁"841	-11.8981
40000000	-11.8981
▁400	-11.8984
BannerRenderer	-11.8988
▁pFirstName	-11.8989
▁alertStudent	-11.899
xml	-11.8991
▁IScheda	-11.8991
stand	-11.8992
▁confirmed	-11.8992
newVotes	-11.8993
▁eventList	-11.8993
▁altre	-11.8993
▁firstDate	-11.8994
pProfiloTurista	-11.8996
▁exceeded	-11.8998
▁pLogin	-11.8999
10)+	-11.9
▁superior	-11.9001
PerformanceModel	-11.9003
▁updated	-11.9005
▁feedbackPR	-11.9005
▁28/0	-11.9006
Course	-11.9006
▁finding	-11.9008
▁rootDialog	-11.9011
▁getG	-11.9011
▁pIdNews	-11.9012
▁confirming	-11.9012
065	-11.9014
updateDelay	-11.9014
setProperty	-11.9015
())*	-11.9016
uogoNasc	-11.9017
▁Mod	-11.9018
▁pUserName	-11.9018
▁superclass	-11.9021
▁EventLines	-11.9023
▁Read	-11.9024
▁conversion	-11.9025
▁Rilascia	-11.9026
▁torna	-11.9026
▁SubscriberReqno	-11.9027
▁Graph	-11.9028
igi	-11.9029
▁Worker	-11.9032
▁postfix	-11.9032
▁beneCulturale	-11.9032
▁greek	-11.9032
▁mediaVotoPR	-11.9032
▁nextOccurence	-11.9032
▁reservationDate	-11.9032
▁txtOraAp	-11.9032
▁txtOraCh	-11.9032
▁HideMsg	-11.9032
▁pTimeOut	-11.9032
▁txtLocalit	-11.9032
▁bvisita	-11.9032
▁Pair	-11.9032
▁columnNames	-11.9032
▁txtAttenzione	-11.9032
▁Port	-11.9032
▁txtCitta	-11.9032
▁daysBetween	-11.9032
▁EventParser	-11.9032
▁txtIndirizzo	-11.9033
▁txtZ	-11.9033
▁txtCAP	-11.9033
▁statoAccount	-11.9033
▁vengono	-11.9033
▁bTurista	-11.9034
▁txtTel	-11.9034
▁txtProvincia	-11.9034
▁txtPos	-11.9035
▁creationDate	-11.9036
▁internal	-11.9037
▁SubscriberList	-11.9037
▁Only	-11.9037
▁itAdmin	-11.9037
▁LabelPr	-11.9037
▁txtNome	-11.9038
11_1	-11.9039
▁Inserting	-11.904
▁cognomeTurista	-11.9043
:"+	-11.9046
▁sm	-11.9049
▁Numbers	-11.905
DatiN	-11.905
▁frameSize	-11.9059
▁seen	-11.906
▁LabelTag	-11.9062
▁Prepari	-11.9065
▁"01	-11.9065
▁effettua	-11.9069
▁pAccademicYear	-11.9071
nces	-11.9074
▁degrees	-11.9082
mince	-11.9082
▁permette	-11.9082
▁theme	-11.9085
getIcon	-11.9086
▁fac	-11.909
800	-11.909
▁idTag	-11.9091
academicYearList	-11.9096
Soggiorno	-11.9099
vuota	-11.9101
votoOk	-11.9103
▁sk	-11.9105
▁soggiorna	-11.9111
▁Chang	-11.9111
▁seconds	-11.9113
Shapes	-11.9115
getDefault	-11.9116
1[3]	-11.9116
Calcola	-11.912
Des	-11.9123
WE	-11.9127
setCell	-11.9129
▁pM	-11.913
sDa	-11.9133
▁pComponent	-11.9139
ver	-11.9144
▁qui	-11.9146
EventID	-11.9156
▁started	-11.9158
▁areas	-11.9171
Performed	-11.9176
▁xLocation	-11.9177
▁pFull	-11.9177
▁SLASH	-11.9177
▁absenceLimit	-11.9177
▁noteLimit	-11.9177
▁Partenza	-11.9178
▁pIDAbsence	-11.9178
▁pInd	-11.9178
▁idTurista	-11.9178
▁Disable	-11.9178
▁Standard	-11.9178
▁aggiornamento	-11.918
▁pHour	-11.9182
▁esisteCategoria	-11.9183
▁itRegister	-11.9184
▁-7	-11.9185
▁pag	-11.9185
old	-11.9189
▁DSN	-11.919
▁34	-11.9191
izza	-11.9193
Fre	-11.9194
▁bus	-11.9198
▁modificata	-11.9201
▁pTuristi	-11.9202
▁Left	-11.9204
▁thre	-11.9205
▁userList	-11.9208
deleteNote	-11.9215
▁attivare	-11.9218
▁Opening	-11.9229
pE	-11.9231
▁ServletAssign	-11.9231
▁pConnections	-11.9233
iTag	-11.9235
▁Ad	-11.9236
iate	-11.9237
499	-11.924
748	-11.9241
urataNews	-11.9242
nuovoBanner	-11.9242
[1]=	-11.9243
days	-11.925
sDirectorBoolean	-11.9252
btag	-11.9255
▁idTeacher	-11.9264
setIndirizzo	-11.9264
▁pVisita	-11.9267
://	-11.9277
▁Lu	-11.9283
getGiorno	-11.9284
AddressList	-11.9289
▁periodi	-11.9299
▁getDriver	-11.9302
getJButton	-11.9308
eTo	-11.9318
▁VALUE	-11.9324
,""|"");	-11.9329
▁Place	-11.933
▁pOffset	-11.933
▁pTagModificato	-11.933
▁getAbsenceById	-11.933
▁segue	-11.9332
▁fir	-11.9333
▁Box	-11.9333
("",2	-11.9336
getNomeA	-11.934
howRegister	-11.9348
conosc	-11.9352
▁IdBeneCulturale	-11.9362
▁saved	-11.9379
00000	-11.9398
entit	-11.9399
624	-11.9405
71	-11.9413
▁member	-11.9418
oter	-11.9419
▁possa	-11.9419
ely	-11.9423
effettuata	-11.9424
LD	-11.9424
90,	-11.9426
▁intValue	-11.9432
constraint	-11.9433
▁closeA	-11.9434
ike	-11.9451
Items	-11.9458
▁Active	-11.9458
prop	-11.9477
533	-11.9483
▁pdf	-11.9484
▁agenzie	-11.9486
▁toControl	-11.9486
▁bVisitaTemp	-11.9487
▁Module	-11.9489
▁Day	-11.9491
▁dbbc	-11.9491
▁dbNews	-11.9494
▁OP	-11.9509
dateDelay	-11.9515
▁getJButton	-11.9519
dateJustify	-11.9549
)(3.4.	-11.9565
▁pj	-11.9567
03	-11.9569
▁idAbsence	-11.9569
▁tok	-11.9606
▁va	-11.9614
▁100;	-11.9622
470	-11.9631
▁getVotes	-11.9636
40)	-11.9644
▁testoSplit	-11.9646
▁Replace	-11.9646
▁IdMenu	-11.9649
▁oggi	-11.9653
recedence	-11.9655
act	-11.9668
entrat	-11.9672
▁studentId	-11.9681
▁Pointe	-11.9686
▁restore	-11.9693
addressId	-11.9698
▁Priority	-11.9724
ttieniFeedbackBC	-11.9734
▁associat	-11.9743
ack	-11.9754
teachingId	-11.9764
▁IGestioneTag	-11.9766
▁"13	-11.9798
▁datenow	-11.9809
▁IDBBanner	-11.9811
▁Elenco	-11.9812
amento	-11.9816
▁Shape	-11.9818
▁IN	-11.983
884	-11.9838
▁64	-11.9841
ancellaPreferenz	-11.9845
Area	-11.985
▁riportat	-11.9866
▁idClass	-11.9871
882	-11.9872
vo	-11.9877
▁isAttiva	-11.9895
3,3,	-11.9897
▁Indirizzo	-11.9904
▁selectedStudent	-11.9909
▁notes	-11.9926
▁Login	-11.9943
classroomId	-11.9946
▁impostat	-11.9947
nuovo	-11.9962
▁pVBC	-11.9976
▁accademicYear	-11.9982
NG	-11.9994
dConnection	-11.9999
▁Expir	-11.9999
",4	-12.0009
▁box	-12.0031
▁tests	-12.0039
▁(10)	-12.0054
▁"",""	-12.0058
disabilita	-12.0068
560	-12.0069
2020	-12.0087
▁word	-12.0089
▁getDescription	-12.01
dateAbsence	-12.0125
▁Help	-12.0132
▁sea	-12.0142
▁"8	-12.0156
▁Stanze	-12.0156
Lines	-12.0181
▁0.2	-12.0192
60	-12.0205
endo	-12.0209
▁Events	-12.0213
▁len	-12.0236
fe	-12.0239
▁getAbsence	-12.025
());//	-12.0265
neric	-12.0299
▁UserName	-12.0307
Last	-12.0317
▁setC	-12.033
mare	-12.0333
ECT	-12.0351
▁aC	-12.0355
vallo	-12.0362
▁370	-12.0366
Questo	-12.042
▁getPosGeo	-12.046
306	-12.0461
ode	-12.0466
▁Role	-12.0486
▁aModel	-12.0498
▁mi	-12.0545
By	-12.0576
220,	-12.0578
etStatus	-12.0597
ice	-12.0604
811	-12.0633
Show	-12.0666
nisa	-12.0667
▁IDBNews	-12.0697
▁Da	-12.0753
Temp	-12.0768
=3;	-12.084
▁arriva	-12.0853
ro	-12.0862
▁inf	-12.0878
▁nu	-12.0887
5)	-12.0904
DiRistoroVisitat	-12.094
CittaPR	-12.094
▁ottieniPunt	-12.0941
00",	-12.0941
▁Nota	-12.0989
▁(24	-12.0992
"/	-12.1035
UR	-12.1074
emoveAllElements	-12.1111
Sostituisci	-12.1123
77	-12.1229
▁informa	-12.1255
etShow	-12.1292
30",	-12.1296
▁riutilizza	-12.1315
mou	-12.1341
nitialization	-12.1349
DefaultTable	-12.1358
DefaultT	-12.136
getPosGeo	-12.1369
508	-12.1372
▁[0	-12.1375
680	-12.1382
linea	-12.1385
67	-12.1449
EliminaBC	-12.1453
quals	-12.1501
newText	-12.1518
Nuova	-12.1561
▁calcolo	-12.1578
idDelay	-12.1609
93	-12.1617
prender	-12.1628
ught	-12.1673
ence	-12.1676
▁Gi	-12.1681
ac	-12.1696
turning	-12.1774
he	-12.1782
activated	-12.1788
▁getConstraint	-12.1801
nuovaConnessione	-12.1929
▁22	-12.1939
30"	-12.198
05	-12.1982
▁cont	-12.2077
▁4))	-12.2115
mplemented	-12.2189
▁digita	-12.2209
▁getTermin	-12.2212
dizion	-12.2219
▁setTermin	-12.2254
unselected	-12.2288
Layout	-12.2299
▁DBOperatore	-12.232
757	-12.2333
DatiTurista	-12.2355
▁cercat	-12.2381
ggi	-12.242
Top	-12.2423
Trova	-12.2466
verse	-12.2483
ative	-12.2488
idNote	-12.252
▁200)	-12.2536
controlla	-12.2551
325	-12.2595
▁riporta	-12.2607
▁imposta	-12.2625
Q	-12.2659
ction	-12.2669
▁Fin	-12.2673
ating	-12.2749
023	-12.281
TO	-12.2844
226	-12.2856
[8]	-12.2874
getBtnVisualizza	-12.2929
▁1]+	-12.2935
Implemented	-12.2959
ge	-12.2974
▁propri	-12.3002
2)(3.	-12.3016
▁31	-12.3021
ave	-12.3054
▁Item	-12.3142
▁tables	-12.3162
▁lik	-12.3194
getVotesBy	-12.3197
Soggiornanti	-12.3232
ImageLeftColumn	-12.3255
ImageHeaderPath	-12.3256
)(2.2.	-12.3301
▁minim	-12.3305
TeachingAs	-12.3307
bol	-12.3338
ChangeListener	-12.3378
pens	-12.3387
Eve	-12.3387
▁scan	-12.3393
▁(2.1.	-12.341
▁Process	-12.3411
len	-12.343
ulti	-12.3435
utenticazione	-12.3445
assignTeach	-12.3503
0000	-12.3518
ESC	-12.3529
"",""	-12.353
Left	-12.3541
Chang	-12.3551
Tourist	-12.3563
mporta	-12.3566
port	-12.3574
▁Memoriz	-12.3583
Disable	-12.3585
pFull	-12.3585
SLASH	-12.3585
absenceLimit	-12.3585
noteLimit	-12.3585
pInd	-12.3585
Partenza	-12.3585
pIDAbsence	-12.3585
Standard	-12.3585
aggiornamento	-12.3587
esisteCategoria	-12.3588
itRegister	-12.3588
pHour	-12.3588
defined	-12.359
TestoNews	-12.359
Visit	-12.3598
scritto	-12.3602
primi	-12.3602
PrintWriter	-12.3602
Random	-12.3602
filtri	-12.3602
isWizard	-12.3602
listavisitati	-12.3602
aggiungeTag	-12.3602
dataPubb	-12.3602
dataScad	-12.3602
imageLeftColumn	-12.3602
riduzione	-12.3602
buttonPanel	-12.3602
calcola	-12.3602
botton	-12.3602
DSN	-12.3603
imageHeaderPath	-12.3603
castle	-12.3603
necessary	-12.3603
-12	-12.3603
pNewsID	-12.3604
Invoke	-12.3604
pTuristi	-12.3604
textPanel	-12.3605
▁aggiung	-12.3606
listSelcected	-12.3612
luogoNascita	-12.3612
laboratorio	-12.3612
coperto	-12.3612
nuovaVisita	-12.3612
bottom	-12.3612
mese	-12.3613
localitaBC	-12.3613
DBPreferenze	-12.3615
pSelectedNode	-12.3615
dbvisita	-12.3615
hold	-12.3616
PKEY	-12.3618
Symbol	-12.3618
columnClasses	-12.3618
valTotTerm	-12.3618
salva	-12.3618
Messaggio	-12.3618
telefonoBC	-12.3618
telefonoPR	-12.3618
place	-12.3619
informazion	-12.362
Information	-12.3622
timeStamp	-12.3622
Nessun	-12.3622
CenterPanel	-12.3622
costoBC	-12.3623
Parse	-12.3623
cittaBC	-12.3623
Str	-12.3624
Merge	-12.3625
DRIVER	-12.3625
descrizionePR	-12.3625
txtNomeBene	-12.3625
EastPanel	-12.3625
licenza	-12.3625
NewsToolbar	-12.3625
comune	-12.3625
listaPreferiti	-12.3625
order	-12.3626
continu	-12.3626
scroll	-12.3626
pTotTermini	-12.3626
IDBPreferenze	-12.3627
listaRisultati	-12.3628
favorites	-12.3628
toPut	-12.3628
iscrizione	-12.3628
ProjectName	-12.3628
ServerSocket	-12.3629
tokenizer	-12.3629
pTagId	-12.3629
RICERCA	-12.363
locationY	-12.363
nuove	-12.3631
Current	-12.3631
pCitta	-12.3631
range	-12.3631
BannerNode	-12.3631
capBC	-12.3632
jScrollPane	-12.3632
statMeseC	-12.3632
tmpDelay	-12.3632
newIndex	-12.3633
Aggiorna	-12.3633
votesList	-12.3633
General	-12.3633
made	-12.3634
btnInserisci	-12.3634
risulta	-12.3634
BCToolbar	-12.3635
tableFeedback	-12.3637
Modify	-12.3637
MODIFICA	-12.3637
performance	-12.3638
inserito	-12.3638
flag	-12.3638
TablePr	-12.3638
ottieniTuristi	-12.3638
itTeaching	-12.3638
btnAnnulla	-12.3639
good	-12.3639
pImmagine	-12.364
pIdBanner	-12.3641
Constructor	-12.3641
dbtag	-12.3641
btnSalva	-12.3641
menu	-12.3641
long	-12.3641
statistiche	-12.3641
ritardo	-12.3641
root	-12.3642
TODO	-12.3642
inserire	-12.3642
Cultural	-12.3642
deskSize	-12.3642
dettagli	-12.3643
pDataFine	-12.3643
pSelected	-12.3643
button	-12.3643
datiPR	-12.3643
JOptionPane	-12.3644
cancel	-12.3644
with	-12.3644
idTemp	-12.3646
pSql	-12.3646
dati	-12.3647
treeBanner	-12.3647
Variable	-12.365
mostra	-12.3652
userList	-12.3652
evel	-12.3653
pVisita	-12.3654
eventserver	-12.3655
pNumeroPagina	-12.3657
headers	-12.3664
Arrivo	-12.3667
Nuov	-12.3668
controllo	-12.3672
pLocalita	-12.3678
Opening	-12.3678
pRegisterLine	-12.3684
idParent	-12.3684
cancellazione	-12.3686
database	-12.3688
TeachingList	-12.3695
secondi	-12.3696
pPrezzo	-12.3703
pNumeroVoti	-12.3707
pScheda	-12.3709
nNote	-12.3713
idTeacher	-12.3714
pTurn	-12.3715
Tourists	-12.372
pGiornoChiusura	-12.3722
via	-12.3727
▁genera	-12.373
pPosizione	-12.3732
pEmail	-12.3735
Index	-12.3736
pModifica	-12.3742
007	-12.3742
point	-12.3744
"><	-12.3748
pCategoria	-12.3749
pDataVisita	-12.375
pMediaVoti	-12.3757
ottieniNumero	-12.3759
ibi	-12.376
pOrarioChiusura	-12.3764
pOrarioApertura	-12.3764
statt	-12.377
331	-12.3774
Pr	-12.3775
Magg	-12.3776
VotesByUserId	-12.378
Reqno	-12.3786
tch	-12.3788
041	-12.3798
:00"	-12.3804
Indexes	-12.3807
cap	-12.3808
pInt	-12.3814
pResultSet	-12.3814
ink	-12.3814
134	-12.3835
ATA	-12.3837
page	-12.3842
Durata	-12.3851
startChiudi	-12.3852
pCommento	-12.3853
▁Resti	-12.3859
own	-12.386
▁risult	-12.3864
5/	-12.3869
▁Rating	-12.3869
getStatistiche	-12.3871
tringa	-12.3876
etPreferredSize	-12.3878
econdi	-12.3878
pPercorso	-12.3879
aspett	-12.3881
egli	-12.3882
tivazione	-12.3883
enza	-12.3883
isabilita	-12.3884
ained	-12.3885
▁Super	-12.3885
▁dizi	-12.3887
▁Identif	-12.3889
▁comple	-12.3893
▁initial	-12.3894
pBeanVisitaBC	-12.3897
stance	-12.3898
▁attribut	-12.3899
Addebita	-12.39
xLocation	-12.3902
▁Precondition	-12.3905
▁opportun	-12.3906
ToArray	-12.3908
▁duplicat	-12.3908
▁turis	-12.3909
▁assignment	-12.3911
▁scritt	-12.3912
uple	-12.3913
ragazz	-12.3914
Costo	-12.3914
▁pPiatt	-12.3915
▁massim	-12.3915
ssignment	-12.3917
scriv	-12.3917
howNoteDetails	-12.3918
Sostituisc	-12.3919
▁dimension	-12.3919
▁appropriat	-12.392
Updat	-12.3921
▁lett	-12.3921
conificati	-12.3921
quation	-12.3921
ntipasti	-12.3921
Ora	-12.3922
ccezione	-12.3923
vdStat	-12.3923
sistente	-12.3924
ffettuato	-12.3924
sert	-12.3925
1900	-12.3926
▁stagionalit	-12.3926
▁tener	-12.3926
▁vecchi	-12.3927
Prim	-12.3927
PdfPath	-12.393
▁"08	-12.3931
revious	-12.3932
▁pagell	-12.3933
UploadPath	-12.3933
Tim	-12.3935
▁Selezion	-12.3935
pository	-12.3935
ZIONE	-12.3938
▁quanti	-12.3939
IGHT	-12.3939
nario	-12.3939
0,0.0,5,	-12.3939
▁Trans	-12.394
▁cert	-12.394
▁popu	-12.3941
uidainlinea	-12.3941
▁consuma	-12.3941
enStat	-12.3941
outhPanel	-12.3942
getTimeIn	-12.3942
IMAGE	-12.3943
vanza	-12.3943
HeaderPath	-12.3943
gni	-12.3943
anticipa	-12.3944
Pressed	-12.3944
Focus	-12.3944
entralPanel	-12.3944
▁Internal	-12.3944
enzia	-12.3945
Voti	-12.3945
annerToolbar	-12.3945
▁exam	-12.3945
pu	-12.3946
▁Structure	-12.3946
Canc	-12.3946
agazzo	-12.3946
009	-12.3946
PAREN	-12.3946
Comit	-12.3946
▁belong	-12.3946
stitu	-12.3946
Account	-12.3947
hrough	-12.3947
Contain	-12.3947
ENTE	-12.3947
▁#####	-12.3947
Parametro	-12.3947
umeriPermessi	-12.3947
eference	-12.3947
ambino	-12.3947
pporto	-12.3947
▁ServletAdd	-12.3948
rioCHOrePR	-12.3948
2,1)	-12.3948
rioCHMinPR	-12.3948
▁clic	-12.3948
rioApMinPR	-12.3948
rioAPOrePR	-12.3948
▁prior	-12.3948
797	-12.3948
▁calcolaNumero	-12.3948
▁except	-12.3948
ntains	-12.3948
requency	-12.3948
vuto	-12.3948
zionale	-12.3948
▁organiz	-12.3948
Reimposta	-12.3948
Skeda	-12.3948
lider	-12.3948
485826	-12.3948
▁pubblic	-12.3948
▁Princip	-12.3948
▁luogo	-12.3948
PrintJob	-12.3948
lterPersonalDate	-12.3948
▁administrat	-12.3948
ighlightsStudent	-12.3948
nUnselected	-12.3948
ookmark	-12.3948
ppartenenza	-12.3948
▁getNext	-12.3948
pOpera	-12.3948
▁Examin	-12.3948
▁ripristin	-12.3948
▁significa	-12.3948
,1.0,1.0,	-12.3948
1946	-12.3948
83189	-12.3948
9809	-12.3948
ADDEBITO	-12.3948
Accetta	-12.3948
ActualSubscriber	-12.3948
ENZI	-12.3948
Frutta	-12.3948
Histor	-12.3948
ISyntaxException	-12.3948
MouseExitedEvent	-12.3948
NEONATO	-12.3948
NESS	-12.3948
PERIMENTAL	-12.3948
Pagella	-12.3948
RADIUS	-12.3948
RIDUZIONI	-12.3948
RISTORANTE	-12.3948
Recipient	-12.3948
Rifiuta	-12.3948
Ristorante	-12.3948
Ruoli	-12.3948
SECOND	-12.3948
SERVIZI	-12.3948
SUPPLEMENTI	-12.3948
Subscribed	-12.3948
better	-12.3948
buffImg	-12.3948
commissionamenti	-12.3948
csv	-12.3948
eiconifica	-12.3948
equalsIgnoreCase	-12.3948
excel	-12.3948
executeStructure	-12.3948
millisecInADay	-12.3948
ncodingException	-12.3948
ologia	-12.3948
pIdPuntoDiistoro	-12.3948
pReceiver	-12.3948
pSender	-12.3948
pertura	-12.3948
postFixTopAndPop	-12.3948
stubGBCC	-12.3948
ySubscribers	-12.3948
▁(3.2.1)(3.2.3)	-12.3948
▁Alcun	-12.3948
▁Dovr	-12.3948
▁Greenwitch	-12.3948
▁MimeMessage	-12.3948
▁PARZIALE	-12.3948
▁ProjName	-12.3948
▁Richiede	-12.3948
▁SubRistorazione	-12.3948
▁SubSoggiorno	-12.3948
▁SubStorico	-12.3948
▁WorkArea	-12.3948
▁accumulat	-12.3948
▁affinch	-12.3948
▁algorithm	-12.3948
▁alteration	-12.3948
▁apparir	-12.3948
▁begun	-12.3948
▁beneculturale	-12.3948
▁categri	-12.3948
▁commissionato	-12.3948
▁conclude	-12.3948
▁considerat	-12.3948
▁deactivation	-12.3948
▁disconnessione	-12.3948
▁earth	-12.3948
▁effettivo	-12.3948
▁equator	-12.3948
▁esatta	-12.3948
▁evaluat	-12.3948
▁expiration	-12.3948
▁future	-12.3948
▁involve	-12.3948
▁kBaseObj	-12.3948
▁medesim	-12.3948
▁obsolete	-12.3948
▁pMaxLength	-12.3948
▁peculiar	-12.3948
▁privileg	-12.3948
▁putBackChar	-12.3948
▁raggiunto	-12.3948
▁relationship	-12.3948
▁replacing	-12.3948
▁rimasto	-12.3948
▁riten	-12.3948
▁riuscit	-12.3948
▁sconti	-12.3948
▁separato	-12.3948
▁sociale	-12.3948
▁something	-12.3948
▁startMod	-12.3948
▁supplementi	-12.3948
▁tResult	-12.3948
▁tebella	-12.3948
▁telefoniche	-12.3948
▁traccia	-12.3948
▁usufrui	-12.3948
▁vector	-12.3948
▁verde	-12.3948
▁visible	-12.3948
▁volte	-12.3948
getProv	-12.3948
▁""140.	-12.3948
▁derive	-12.3948
Doors	-12.3948
Spesa	-12.3948
aranti	-12.3948
kBaseStream	-12.3948
tagDaSelezionare	-12.3948
▁NotifyButton	-12.3948
▁REGISTRA	-12.3948
▁chiuse	-12.3948
▁combina	-12.3948
▁cycl	-12.3948
▁errati	-12.3948
▁esista	-12.3948
▁negative	-12.3948
▁numCaratteri	-12.3948
▁posticipata	-12.3948
▁riduzioni	-12.3948
▁rileva	-12.3948
▁ripet	-12.3948
▁vincol	-12.3948
▁voci	-12.3948
Actual	-12.3948
DOORs	-12.3948
Notifier	-12.3948
TracksViewport	-12.3948
▁ContextString	-12.3948
▁crl	-12.3948
▁iterable	-12.3948
▁prevede	-12.3948
▁startVis	-12.3948
▁vettori	-12.3948
Disponibil	-12.3948
TIME	-12.3948
logging	-12.3948
nstead	-12.3948
▁estern	-12.3948
▁postfixStack	-12.3948
InsertModify	-12.3948
0973	-12.3948
9872	-12.3948
>>>>>>>>>>>>>>>>	-12.3948
ALIZ	-12.3948
bind	-12.3948
dialogue	-12.3948
▁TestoScanner	-12.3948
▁pmh	-12.3948
▁decid	-12.3948
▁recuperate	-12.3948
Modifiche	-12.3948
▁dfTime	-12.3948
▁parenthes	-12.3948
reportStatistici	-12.3949
28449	-12.3949
3909	-12.3949
4963	-12.3949
954	-12.3949
CLASS	-12.3949
lash	-12.3949
orarioAP	-12.3949
setSup	-12.3949
▁Imgfile	-12.3949
▁Notifica	-12.3949
▁fosse	-12.3949
▁varValues	-12.3949
ANTI	-12.3949
describ	-12.3949
▁pagamento	-12.3949
▁bTuristaTemp	-12.3949
▁refer	-12.3949
("","","	-12.3949
setStagAnno	-12.3949
music	-12.3949
▁generateReport	-12.3949
5462	-12.3949
upportedE	-12.3949
STANZA	-12.3949
▁AboutDialog	-12.3949
▁defini	-12.3949
()!=0)	-12.3949
▁rischi	-12.3949
(350,	-12.3949
,0,0,4,	-12.3949
▁push	-12.3949
showUserDetails	-12.3949
▁"_-",	-12.3949
▁appartengono	-12.3949
+"-"+	-12.3949
ADMIN	-12.3949
▁WorkerThread	-12.3949
▁consistent	-12.3949
▁radi	-12.3949
oPutCat	-12.3949
pClassID	-12.3949
▁euro	-12.3949
2603	-12.3949
▁raise	-12.3949
▁ModPath	-12.3949
▁assigned	-12.3949
3734	-12.3949
▁testRemoveNews	-12.3949
▁VISUALIZZAST	-12.3949
▁Daily	-12.3949
60730	-12.3949
pendent	-12.3949
Definition	-12.3949
▁-644	-12.3949
8396	-12.3949
▁disattivazione	-12.3949
6473	-12.3949
▁colorStatus	-12.3949
▁attr	-12.3949
▁startRic	-12.3949
▁Gps	-12.3949
DettagliClasse	-12.3949
ample	-12.3949
nitor	-12.3949
8859	-12.3949
Writer	-12.3949
getDataNasc	-12.3949
▁Bloccar	-12.395
▁accordi	-12.395
▁Handler	-12.395
▁apri	-12.395
▁categorize	-12.395
▁getTeachingId	-12.395
▁ServletRemove	-12.395
equiv	-12.395
▁prestabilit	-12.395
lbalbla	-12.395
Dol	-12.395
▁dellhotel	-12.395
▁Has	-12.395
ANZA	-12.395
8321	-12.395
9844	-12.395
5655	-12.395
anotherTable	-12.395
0349	-12.395
▁necessit	-12.395
nuovoCommento	-12.395
▁how	-12.395
▁16/04/	-12.395
▁consumate	-12.395
▁Ott	-12.3951
TimeBefore	-12.3951
Before	-12.3951
937	-12.3951
▁startCanc	-12.3951
uthenticat	-12.3951
▁txtProject	-12.3951
▁Altr	-12.3951
▁much	-12.3951
ipula	-12.3951
▁requi	-12.3951
itera	-12.3951
PARENT	-12.3951
2008	-12.3951
▁ControlServer	-12.3951
▁soggiornano	-12.3951
▁rila	-12.3951
war	-12.3951
▁sottomette	-12.3951
▁RicercaStandard	-12.3951
KBase	-12.3951
▁DoB	-12.3951
▁successiv	-12.3952
▁messageParser	-12.3952
▁attu	-12.3952
▁props	-12.3952
stanti	-12.3952
▁uploaded	-12.3952
Generate	-12.3952
JustifyDetails	-12.3952
▁documento	-12.3952
▁evidenz	-12.3952
PosNuovo	-12.3952
▁Fratto	-12.3952
▁FilePath	-12.3953
2438	-12.3953
▁(3.4.	-12.3953
EliminaBanner	-12.3953
cept	-12.3953
▁ripr	-12.3953
Sito	-12.3953
1,0,1,1,	-12.3953
7511	-12.3953
JToolBarBar	-12.3953
▁ypos	-12.3953
▁mainframe	-12.3954
2283	-12.3954
rrupt	-12.3954
aria	-12.3954
AddressDetails	-12.3954
0895	-12.3954
ITIV	-12.3954
▁consumato	-12.3954
▁dbConvenzione	-12.3954
gger	-12.3954
posizioneSito	-12.3954
▁xpos	-12.3954
email	-12.3955
▁creation	-12.3955
▁Risultati	-12.3955
anza	-12.3955
▁searchQuery	-12.3955
-1]+"	-12.3955
rc	-12.3955
EliminaTurista	-12.3956
1434	-12.3956
058	-12.3956
Senza	-12.3956
InputDialog	-12.3956
▁sample	-12.3956
cture	-12.3956
EliminaNews	-12.3956
▁ELog	-12.3957
reduc	-12.3957
▁DataInputStream	-12.3957
2518	-12.3957
TuristaRenderer	-12.3957
▁nPagina	-12.3957
OUT	-12.3957
607	-12.3957
5643	-12.3957
TimeAfter	-12.3958
Record	-12.3958
▁trovati	-12.3958
346	-12.3958
orarioCH	-12.3959
getSup	-12.3959
LIGHT	-12.3959
PUNT	-12.3959
ClassroomDetails	-12.396
TeachingDetails	-12.396
▁=-4	-12.396
▁speculate	-12.396
▁mv	-12.396
NuovoBC	-12.396
tuito	-12.396
6927	-12.3961
giunge	-12.3961
▁svuota	-12.3961
getAddressById	-12.3961
▁tick	-12.3961
▁absenceList	-12.3961
TableNews	-12.3962
LOC	-12.3962
ould	-12.3962
▁Colo	-12.3962
▁doubleClick	-12.3962
▁disconnection	-12.3963
mpt	-12.3963
pNews	-12.3963
▁abbiano	-12.3964
▁giornaliero	-12.3964
▁stabilita	-12.3964
7979	-12.3964
RIST	-12.3965
="../	-12.3966
toLowerCase	-12.3966
▁Even	-12.3966
▁JOption	-12.3966
aLabel	-12.3966
▁4.0	-12.3967
953	-12.3967
ERR	-12.3967
▁Resu	-12.3967
▁sKey	-12.3967
▁potenziali	-12.3967
collapse	-12.3968
▁pIdParent	-12.3968
▁impostare	-12.3969
▁lung	-12.3969
1881	-12.397
446	-12.397
▁MergeModel	-12.397
IdOperatore	-12.397
emporar	-12.3971
818	-12.3971
ICHE	-12.3971
anced	-12.3971
ptedException	-12.3971
▁-769	-12.3971
▁automatica	-12.3971
▁vuoto	-12.3972
Del	-12.3972
▁nazione	-12.3972
▁inspect	-12.3973
▁compari	-12.3973
▁AskDialog	-12.3973
GEN	-12.3973
8727	-12.3974
DatabaseMetaData	-12.3974
▁CON	-12.3974
enerated	-12.3974
▁esse	-12.3974
MouseAdapter	-12.3974
464	-12.3974
▁setGiorno	-12.3975
▁actionEvent	-12.3975
dKey	-12.3975
ModificaNews	-12.3975
basic	-12.3975
beneTemp	-12.3976
▁verificato	-12.3977
▁JText	-12.3978
1878	-12.3978
875	-12.3979
▁76	-12.398
▁pImage	-12.3981
Chiamato	-12.3981
▁TextModel	-12.3982
941	-12.3982
▁pNuovoCommento	-12.3982
256	-12.3983
▁rem	-12.3983
▁FrameParent	-12.3984
EST	-12.3986
updateId	-12.3986
▁prevent	-12.3987
Lello	-12.3987
▁ret	-12.3988
CB	-12.3988
6.1)	-12.3988
idNews	-12.3989
DBConnessione	-12.3989
▁ServletShowNote	-12.3989
Stri	-12.3989
▁minimi	-12.3989
rtf	-12.399
ruptedException	-12.399
▁riassum	-12.399
▁opportuno	-12.3991
169	-12.3991
▁mauro	-12.3992
543	-12.3992
▁DIS	-12.3992
▁stessa	-12.3992
]+"	-12.3993
▁ricercaBC	-12.3994
showTeach	-12.3994
▁erase	-12.3995
EventList	-12.3995
▁pTextFooter	-12.3995
▁getLogin	-12.3996
▁Addebitat	-12.3997
setMessage	-12.3997
▁Op	-12.3998
▁orario	-12.4
▁Tu	-12.4001
erDetails	-12.4001
▁occupare	-12.4004
InserisciAssenze	-12.4004
▁pWaitTimeout	-12.4008
▁pActiveTimeout	-12.4008
▁Performance	-12.401
▁pCell	-12.4011
▁disabled	-12.4012
CTION	-12.4013
▁pPoolTimeout	-12.4013
▁testoReader	-12.4015
▁configura	-12.4017
))&&(	-12.4018
▁seg	-12.4019
lib	-12.4021
▁EventModel	-12.4021
ute	-12.4021
▁waiting	-12.4022
▁pDriverMySql	-12.4022
▁effettuat	-12.4023
setValue	-12.4025
263	-12.4026
▁registrata	-12.4027
▁-1213	-12.4029
▁Ratings	-12.4029
months	-12.403
▁54	-12.4031
▁mg	-12.4033
▁69	-12.4033
lati	-12.4033
484	-12.4034
getVal	-12.4034
▁ritornare	-12.4035
▁possible	-12.4035
reeBanner	-12.4036
▁utilizzate	-12.4036
239	-12.4036
nSelected	-12.4037
getIdBene	-12.4037
ola	-12.4038
lly	-12.4038
parz	-12.4038
▁pic	-12.4039
▁52	-12.4039
▁identi	-12.4042
ataNascita	-12.4042
,225,	-12.4044
217	-12.4044
3204	-12.4045
▁inline	-12.4045
ChiudiConto	-12.4046
▁mname	-12.4047
▁pIdDelay	-12.4047
nsure	-12.4048
2361	-12.4049
elaborazione	-12.405
▁pDateDelay	-12.4051
▁tk	-12.4051
notenew	-12.4052
▁eventType	-12.4052
▁pDateNote	-12.4052
NewsRendererTest	-12.4053
▁pIdAbsence	-12.4053
ogo	-12.4053
▁150	-12.4054
1334	-12.4057
Drivers	-12.4058
▁locali	-12.406
▁pTimeDelay	-12.4061
BE	-12.4062
(4,1)	-12.4064
▁pDateJustify	-12.4064
103,	-12.4065
FeedbackTable	-12.4065
▁listaBanner	-12.4066
ORI	-12.4067
dateE	-12.4067
▁pDateAbsence	-12.4067
▁pIdNote	-12.4068
▁mag	-12.4071
ORS	-12.4074
▁cb	-12.4075
pSubject	-12.4076
▁prepar	-12.4078
PU	-12.408
▁520)	-12.4081
▁170	-12.4082
▁tracks	-12.4082
7763	-12.4084
displaytag	-12.4086
accord	-12.4088
ains	-12.4088
<0	-12.4089
igh	-12.409
▁ServletIn	-12.4091
cola	-12.4092
▁conti	-12.4093
cazione	-12.4094
▁pPoolTime	-12.4094
▁Scan	-12.4096
LAS	-12.4099
▁avgTextSize	-12.4099
▁bounds	-12.4099
▁isParentBoolean	-12.4099
▁Evaluator	-12.4099
▁TimeZone	-12.4099
▁Trigger	-12.4099
▁pBol	-12.4099
▁pJdbcDriverName	-12.4099
▁pPoolIndex	-12.4099
▁pPrepSt	-12.4099
▁tourism	-12.4099
▁iteraBanner	-12.4099
▁Toolkit	-12.4099
▁gBCC	-12.4099
▁listaPreferenze	-12.4099
▁ListaClienti	-12.41
▁previousMessage	-12.41
▁LeftList	-12.4101
▁scrollTesto	-12.4102
ncia	-12.4103
sioni	-12.4104
▁GraphId	-12.4105
agli	-12.4105
▁validating	-12.4106
▁txtTag	-12.4106
(4.1.	-12.4107
▁studentClass	-12.4108
▁bannercorrente	-12.4109
TableColumn	-12.4114
▁pIdClassroom	-12.4115
305	-12.4116
▁modelName	-12.4117
▁Conversion	-12.412
▁Associat	-12.4121
PI	-12.4129
updateJustify	-12.4129
▁LOG	-12.413
hed	-12.413
uri	-12.4133
ach	-12.4133
5373	-12.4136
▁poolSize	-12.4138
▁deliver	-12.4138
3436	-12.4146
▁47	-12.4147
▁riferisc	-12.4149
DataOutputStream	-12.416
▁print	-12.4168
dono	-12.4172
23,0	-12.4179
()<=	-12.4179
▁49	-12.418
▁Vari	-12.4182
▁setType	-12.4182
ASE	-12.4183
▁accettata	-12.4184
updateNote	-12.4185
pano	-12.4187
ust	-12.4189
▁testing	-12.4194
Parser	-12.4196
+1))	-12.4197
menti	-12.4197
▁EventDetail	-12.42
▁58	-12.4202
fficient	-12.4211
tNorm	-12.4214
RM	-12.4221
formare	-12.4223
▁pTeacher	-12.4227
▁VisualizzaDatiS	-12.4228
Stagioni	-12.423
▁St	-12.4233
urity	-12.4236
▁getPo	-12.4237
▁eventId	-12.4246
161	-12.4246
192	-12.4248
779	-12.4253
Rid	-12.4257
▁aSocket	-12.4258
,97	-12.4262
▁desiderata	-12.4262
3156	-12.427
▁Pu	-12.4273
PPuntoDiRistoro	-12.4281
"10:00	-12.4285
7383	-12.4291
ung	-12.4292
592	-12.4293
6690	-12.4297
▁subscriptions	-12.4299
▁125	-12.4304
setComune	-12.4306
▁ToString	-12.431
▁63	-12.4311
setAuto	-12.4313
▁SearchString	-12.4313
sAd	-12.4325
SQLWarning	-12.4325
▁Equal	-12.4325
1020	-12.4333
▁copi	-12.4336
▁ServletA	-12.4343
▁Tr	-12.4349
▁DELL	-12.435
▁Max	-12.4351
▁(320	-12.4356
▁//@	-12.4359
sOn	-12.4361
▁80)	-12.4367
0095	-12.4369
▁pDescription	-12.4374
▁"09:	-12.4386
Closed	-12.4392
▁pname	-12.4396
▁fails	-12.441
▁pAuto	-12.4413
▁setting	-12.442
cast	-12.4428
▁txtTest	-12.4429
515	-12.4437
GR	-12.4445
▁comprender	-12.4445
▁59	-12.4445
▁chi	-12.4479
Len	-12.4484
PIdBeneCulturale	-12.4498
Between	-12.4503
▁pStatement	-12.4505
▁gu	-12.4516
top	-12.4526
urlConnessione	-12.4534
hangeP	-12.4552
invo	-12.457
▁Manage	-12.4577
▁rifiuta	-12.4581
==3)	-12.4591
▁pRicerca	-12.4619
▁pNome	-12.4638
▁(2.1.1)	-12.4641
▁startC	-12.4665
▁getError	-12.4676
alculated	-12.4679
,0,0	-12.4684
▁utilizza	-12.4684
pImageLeftColumn	-12.4692
pImageHeaderPath	-12.4694
▁parti	-12.4695
760	-12.4709
▁InserisciNuov	-12.4729
pD	-12.4742
"-"	-12.4761
alcoloConto	-12.478
▁libera	-12.4783
tClassroom	-12.4808
mit	-12.4818
ning	-12.4887
dian	-12.4915
plica	-12.4958
▁risal	-12.4959
▁[3	-12.4982
propria	-12.4991
giu	-12.5027
▁inizial	-12.5063
LU	-12.5078
nameTuristaTemp	-12.5091
Profil	-12.5092
getToolbar	-12.51
removeTeach	-12.5115
301	-12.5197
Qu	-12.5205
ottieniOperatore	-12.5251
TeacherA	-12.5259
▁caric	-12.5267
invio	-12.5283
bal	-12.536
ttivaConvenzione	-12.5365
686	-12.5377
tagname	-12.5386
DefaultException	-12.5422
Keyword	-12.5442
autenticazione	-12.5461
eliminata	-12.5481
PropertyChange	-12.5528
1474	-12.5648
ici	-12.5673
▁GetSubscriber	-12.5687
455	-12.5768
▁gestisc	-12.5783
3860	-12.5813
orderLayout	-12.5836
172	-12.5912
354	-12.5926
61	-12.5992
nsertJustify	-12.6104
alizzat	-12.6121
nsertNewNote	-12.6144
ativi	-12.6145
142	-12.6178
▁getDelayByI	-12.6204
576	-12.6213
rendere	-12.6232
mpie	-12.6329
▁fl	-12.6361
212	-12.6403
▁affi	-12.6408
ddressTeachings	-12.6451
moved	-12.6498
segnamento	-12.6566
▁"17:	-12.6724
bbc	-12.6762
6163	-12.6776
FFFFF	-12.6784
ow	-12.6792
caduto	-12.6818
fromAddress	-12.6877
▁presen	-12.6926
859	-12.6931
520	-12.6985
▁78	-12.7032
▁pat	-12.7056
FI	-12.7064
etto	-12.7251
meroCaratteriMin	-12.7261
▁pien	-12.7282
uples	-12.7334
ema	-12.7392
hiudiSingolo	-12.7549
turned	-12.7565
que	-12.7569
▁interrupt	-12.7624
377	-12.7656
nuova	-12.7664
asci	-12.7679
tabili	-12.775
▁"16:	-12.7756
7868	-12.7875
ostituisciBanner	-12.7903
62	-12.791
oolbarSchedaBC	-12.7919
nserisciRitardiA	-12.7946
▁spa	-12.8108
howJustifyList	-12.8169
720	-12.8272
numeroCaratteriM	-12.8387
▁arrivat	-12.8392
ileImmagine	-12.8408
▁dorm	-12.8711
etUserName	-12.8723
FFFF	-12.8951
rico	-12.8966
3648	-12.8977
▁acco	-12.9029
atter	-12.9035
Logout	-12.9112
iven	-12.9161
4931	-12.9189
661	-12.9294
0];	-12.9366
▁aff	-12.9434
Totali	-12.9457
850	-12.9483
uovoBC	-12.9736
tivi	-12.9757
▁Disconne	-12.9764
574	-12.9765
rows	-12.9844
▁getTo	-12.9929
522	-13.0034
1/0	-13.0051
3014	-13.0058
ut	-13.0124
▁decompos	-13.0127
ente	-13.0131
oolbarTuristi	-13.0298
entra	-13.038
xpired	-13.0419
265	-13.0524
▁Allow	-13.0553
,0,3,	-13.0616
766	-13.0718
342	-13.0799
applica	-13.0934
WindowEve	-13.1218
▁(56	-13.1257
alizzazione	-13.1265
▁conteng	-13.1276
uovaNews	-13.1469
Month	-13.1573
▁emerg	-13.1605
▁setMa	-13.1699
763	-13.1718
nico	-13.1781
▁refin	-13.1787
ott	-13.1847
655	-13.1939
▁ottenu	-13.1941
▁venu	-13.2019
▁liber	-13.2087
721	-13.2109
▁riferi	-13.2165
Depend	-13.2218
▁svol	-13.2219
▁registra	-13.2236
,0,1,1,	-13.2273
3634	-13.2319
U	-13.2343
IdBeneCulturale	-13.2402
rifiutat	-13.2483
685	-13.2492
▁5)+	-13.2502
setStagion	-13.2507
3700	-13.2513
levant	-13.2609
arg	-13.2651
implement	-13.2665
durata	-13.2691
updateB	-13.2697
spett	-13.2713
088	-13.2759
:#00	-13.278
-1))	-13.2803
Verifi	-13.282
▁dur	-13.2821
•	-14.7093
